<pad>	0
<unk>	0
<s>	0
</s>	0
on	-0
in	-1
en	-2
er	-3
or	-4
at	-5
▁"	-6
es	-7
▁t	-8
se	-9
de	-10
re	-11
▁=	-12
st	-13
al	-14
ut	-15
an	-16
ion	-17
ar	-18
ch	-19
":	-20
▁i	-21
ro	-22
ed	-23
▁f	-24
it	-25
as	-26
▁c	-27
",	-28
ing	-29
le	-30
he	-31
ent	-32
0.	-33
am	-34
id	-35
ct	-36
▁-	-37
▁p	-38
▁m	-39
ig	-40
lf	-41
self	-42
0.0	-43
ge	-44
▁in	-45
ode	-46
lo	-47
▁s	-48
▁n	-49
mp	-50
▁a	-51
pe	-52
ic	-53
▁#	-54
iz	-55
ur	-56
put	-57
▁the	-58
ex	-59
▁o	-60
un	-61
odel	-62
di	-63
▁b	-64
▁self	-65
▁(	-66
ad	-67
▁to	-68
est	-69
▁w	-70
ul	-71
▁re	-72
▁de	-73
to	-74
onf	-75
um	-76
co	-77
onfig	-78
is	-79
qu	-80
ma	-81
one	-82
el	-83
▁{	-84
▁N	-85
▁l	-86
▁[	-87
ce	-88
ken	-89
ass	-90
em	-91
il	-92
ess	-93
--	-94
▁)	-95
▁-0.0	-96
ize	-97
▁0.0	-98
ol	-99
ck	-100
ation	-101
ra	-102
et	-103
and	-104
▁None	-105
ht	-106
ate	-107
str	-108
▁`	-109
▁v	-110
ot	-111
ort	-112
▁d	-113
00	-114
ers	-115
res	-116
▁is	-117
ab	-118
()	-119
orch	-120
▁for	-121
att	-122
▁A	-123
ext	-124
ert	-125
▁}	-126
""	-127
rom	-128
▁T	-129
▁def	-130
▁if	-131
up	-132
▁1	-133
th	-134
urn	-135
▁h	-136
ame	-137
size	-138
im	-139
all	-140
▁*	-141
ue	-142
):	-143
],	-144
ens	-145
utput	-146
pt	-147
ype	-148
config	-149
ay	-150
ith	-151
turn	-152
▁th	-153
ke	-154
▁imp	-155
den	-156
us	-157
pro	-158
▁return	-159
ult	-160
▁from	-161
token	-162
po	-163
ont	-164
od	-165
▁import	-166
model	-167
orm	-168
bed	-169
▁C	-170
der	-171
ction	-172
idden	-173
▁of	-174
get	-175
ap	-176
▁and	-177
▁|	-178
ensor	-179
12	-180
arg	-181
10	-182
ist	-183
mage	-184
▁model	-185
atch	-186
▁S	-187
),	-188
oc	-189
ps	-190
__	-191
int	-192
//	-193
16	-194
embed	-195
type	-196
che	-197
pl	-198
ight	-199
▁torch	-200
age	-201
ding	-202
02	-203
▁F	-204
ention	-205
name	-206
py	-207
▁e	-208
ase	-209
32	-210
ran	-211
stat	-212
ask	-213
..	-214
lass	-215
ag	-216
▁I	-217
17	-218
▁not	-219
ve	-220
val	-221
cess	-222
")	-223
ll	-224
15	-225
14	-226
▁L	-227
key	-228
19	-229
64	-230
ri	-231
▁g	-232
args	-233
13	-234
▁di	-235
18	-236
▁M	-237
▁se	-238
num	-239
="	-240
assert	-241
input	-242
ore	-243
▁2	-244
▁"""	-245
▁P	-246
ata	-247
04	-248
▁lo	-249
ids	-250
▁res	-251
▁pro	-252
fi	-253
attention	-254
ast	-255
states	-256
05	-257
pen	-258
ption	-259
ha	-260
htt	-261
use	-262
li	-263
▁ex	-264
▁co	-265
▁==	-266
par	-267
ant	-268
("	-269
dex	-270
▁},	-271
ter	-272
▁with	-273
output	-274
07	-275
sc	-276
67	-277
09	-278
----	-279
34	-280
08	-281
alse	-282
ect	-283
form	-284
28	-285
://	-286
ine	-287
coder	-288
68	-289
ice	-290
▁r	-291
▁config	-292
▁input	-293
rue	-294
hidden	-295
os	-296
1,	-297
37	-298
65	-299
6,	-300
ull	-301
35	-302
Tensor	-303
fa	-304
pon	-305
▁str	-306
able	-307
▁->	-308
38	-309
▁st	-310
▁_	-311
len	-312
▁0	-313
ow	-314
ure	-315
test	-316
com	-317
ub	-318
ver	-319
▁R	-320
39	-321
▁be	-322
lock	-323
25	-324
69	-325
https	-326
ition	-327
▁D	-328
lay	-329
▁en	-330
24	-331
▁as	-332
head	-333
3,	-334
mpt	-335
ath	-336
eight	-337
ide	-338
▁or	-339
ache	-340
▁"",	-341
torch	-342
pre	-343
▁O	-344
==	-345
ack	-346
mask	-347
"]	-348
ment	-349
▁this	-350
if	-351
▁assert	-352
▁num	-353
▁el	-354
▁B	-355
amp	-356
▁token	-357
ial	-358
▁'	-359
rans	-360
["	-361
wargs	-362
).	-363
ontent	-364
27	-365
quest	-366
._	-367
ener	-368
yn	-369
rain	-370
om	-371
ew	-372
hape	-373
29	-374
av	-375
▁+	-376
ence	-377
ponse	-378
▁test	-379
unction	-380
tokens	-381
▁output	-382
vice	-383
image	-384
text	-385
ery	-386
▁**	-387
▁k	-388
llm	-389
▁int	-390
▁@	-391
essage	-392
▁par	-393
##	-394
embedding	-395
ror	-396
▁y	-397
index	-398
▁E	-399
ool	-400
izer	-401
ument	-402
2,	-403
gg	-404
``	-405
4,	-406
▁ch	-407
▁on	-408
▁hidden	-409
per	-410
Model	-411
SI	-412
pec	-413
ang	-414
▁un	-415
▁qu	-416
ip	-417
>>	-418
ama	-419
▁use	-420
59	-421
els	-422
ain	-423
ly	-424
loat	-425
PI	-426
▁U	-427
call	-428
ir	-429
ff	-430
ctor	-431
5,	-432
ou	-433
cessor	-434
con	-435
ues	-436
ense	-437
▁V	-438
▁an	-439
))	-440
kwargs	-441
🚨🚨	-442
▁con	-443
te	-444
doc	-445
gth	-446
dict	-447
**	-448
▁W	-449
ile	-450
▁class	-451
ac	-452
49	-453
class	-454
icense	-455
art	-456
eat	-457
▁[],	-458
](	-459
48	-460
▁ma	-461
ord	-462
ync	-463
ance	-464
dim	-465
▁else	-466
58	-467
weight	-468
ix	-469
57	-470
init	-471
47	-472
▁image	-473
ity	-474
ded	-475
ransform	-476
▁---	-477
▁```	-478
▁that	-479
war	-480
0,	-481
▁G	-482
▁val	-483
out	-484
ZE	-485
ated	-486
...	-487
tim	-488
ON	-489
▁wh	-490
▁it	-491
Config	-492
ages	-493
SIZE	-494
ach	-495
LM	-496
True	-497
OC	-498
uto	-499
ator	-500
99	-501
ust	-502
ss	-503
▁pre	-504
▁null	-505
06	-506
code	-507
ser	-508
"""	-509
content	-510
its	-511
▁<	-512
ject	-513
▁us	-514
In	-515
load	-516
length	-517
▁The	-518
ill	-519
ind	-520
ern	-521
▁H	-522
pert	-523
port	-524
lient	-525
pos	-526
ule	-527
03	-528
our	-529
ies	-530
param	-531
shape	-532
block	-533
met	-534
ptional	-535
tool	-536
batch	-537
cal	-538
▁list	-539
values	-540
ire	-541
are	-542
ann	-543
▁get	-544
ib	-545
87	-546
inputs	-547
22	-548
--------	-549
embeddings	-550
roup	-551
path	-552
[0	-553
mple	-554
▁License	-555
ision	-556
cl	-557
8,	-558
arch	-559
low	-560
odule	-561
rror	-562
▁by	-563
▁cont	-564
udi	-565
point	-566
ail	-567
ace	-568
attn	-569
ds	-570
▁key	-571
▁!	-572
mo	-573
tensor	-574
LE	-575
97	-576
gr	-577
log	-578
max	-579
col	-580
▁are	-581
embeds	-582
ise	-583
train	-584
oo	-585
ick	-586
udio	-587
js	-588
Error	-589
OCK	-590
device	-591
estamp	-592
En	-593
▁al	-594
from	-595
fer	-596
reate	-597
unk	-598
▁sup	-599
St	-600
data	-601
▁:	-602
',	-603
`,	-604
gging	-605
cache	-606
ayer	-607
LOCK	-608
54	-609
▁...	-610
ep	-611
pect	-612
▁max	-613
adata	-614
eb	-615
ary	-616
app	-617
36	-618
▁attention	-619
Pro	-620
util	-621
ransformers	-622
▁function	-623
ere	-624
ive	-625
▁text	-626
hat	-627
88	-628
stance	-629
layer	-630
ec	-631
.0	-632
-1	-633
▁An	-634
26	-635
▁In	-636
ges	-637
77	-638
ork	-639
ave	-640
ideo	-641
▁ap	-642
iv	-643
BLOCK	-644
ithub	-645
atar	-646
▁sh	-647
disc	-648
[0]	-649
set	-650
ations	-651
run	-652
IN	-653
ific	-654
▁do	-655
▁comp	-656
▁ra	-657
▁result	-658
ark	-659
ias	-660
api	-661
fix	-662
."""	-663
▁len	-664
json	-665
ampl	-666
idx	-667
avatar	-668
quence	-669
check	-670
▁K	-671
▁{"	-672
98	-673
▁false	-674
ample	-675
Re	-676
github	-677
44	-678
dd	-679
For	-680
scal	-681
abels	-682
ream	-683
▁__	-684
▁(`	-685
▁vllm	-686
▁inputs	-687
▁1,	-688
▁ll	-689
);	-690
for	-691
layers	-692
ry	-693
end	-694
ock	-695
io	-696
state	-697
▁False	-698
▁tool	-699
ER	-700
▁3	-701
ault	-702
▁True	-703
====	-704
heads	-705
▁default	-706
quire	-707
feat	-708
▁response	-709
55	-710
API	-711
outputs	-712
▁>>	-713
fault	-714
essages	-715
▁you	-716
▁],	-717
ures	-718
uld	-719
file	-720
ices	-721
▁//	-722
▁>>>	-723
▁can	-724
ugging	-725
ong	-726
inal	-727
vent	-728
value	-729
TI	-730
op	-731
ersion	-732
ash	-733
own	-734
cri	-735
bject	-736
utils	-737
▁doc	-738
},	-739
▁set	-740
▁0,	-741
EN	-742
und	-743
act	-744
ft	-745
norm	-746
ector	-747
▁per	-748
▁pos	-749
▁4	-750
mages	-751
ute	-752
kv	-753
llama	-754
thon	-755
back	-756
-2	-757
uth	-758
▁block	-759
ng	-760
ory	-761
▁value	-762
__(	-763
ee	-764
uple	-765
fo	-766
ud	-767
▁met	-768
▁query	-769
▁x	-770
his	-771
▁all	-772
ait	-773
rap	-774
▁type	-775
eneration	-776
▁name	-777
33	-778
line	-779
False	-780
▁var	-781
])	-782
proj	-783
list	-784
prompt	-785
uments	-786
▁at	-787
🚨🚨🚨🚨	-788
ward	-789
rit	-790
▁up	-791
▁spec	-792
▁&	-793
url	-794
▁bool	-795
▁new	-796
66	-797
face	-798
1.	-799
patch	-800
query	-801
ould	-802
pected	-803
urr	-804
position	-805
yp	-806
Test	-807
processor	-808
uted	-809
▁]	-810
dtype	-811
De	-812
idth	-813
Id	-814
▁ro	-815
ctions	-816
with	-817
instance	-818
float	-819
spec	-820
▁file	-821
▁request	-822
ox	-823
read	-824
ILE	-825
extra	-826
To	-827
utor	-828
mm	-829
ual	-830
7,	-831
item	-832
timestamp	-833
base	-834
().	-835
ning	-836
OU	-837
▁Any	-838
▁log	-839
pend	-840
du	-841
89	-842
ces	-843
escri	-844
▁"10	-845
unt	-846
message	-847
62	-848
Se	-849
hod	-850
ber	-851
encoder	-852
▁async	-853
ization	-854
open	-855
▁raise	-856
▁nn	-857
function	-858
▁FILE	-859
▁lang	-860
45	-861
comp	-862
▁pad	-863
sh	-864
None	-865
▁>	-866
▁run	-867
core	-868
▁layer	-869
]]	-870
iel	-871
▁batch	-872
202	-873
urrent	-874
ES	-875
ai	-876
▁[]	-877
add	-878
▁so	-879
▁-0.00	-880
.",	-881
▁prompt	-882
▁##	-883
▁&&	-884
error	-885
▁0.00	-886
map	-887
Message	-888
uil	-889
▁device	-890
▁le	-891
request	-892
▁param	-893
range	-894
▁will	-895
edi	-896
▁isinstance	-897
ames	-898
scale	-899
string	-900
():	-901
cont	-902
chann	-903
tt	-904
process	-905
AI	-906
wait	-907
vi	-908
start	-909
ixel	-910
▁he	-911
trained	-912
ions	-913
▁\	-914
▁we	-915
ie	-916
▁under	-917
chat	-918
chema	-919
group	-920
qual	-921
▁dict	-922
optional	-923
date	-924
▁API	-925
conv	-926
▁position	-927
▁ac	-928
▁###	-929
ocab	-930
ized	-931
▁data	-932
79	-933
response	-934
78	-935
quant	-936
ml	-937
▁tokenizer	-938
mpl	-939
▁/	-940
ference	-941
ason	-942
arget	-943
ments	-944
color	-945
.":	-946
sed	-947
▁dtype	-948
odal	-949
uct	-950
logits	-951
seq	-952
23	-953
`.	-954
▁Y	-955
512	-956
ime	-957
vision	-958
TE	-959
cept	-960
mark	-961
DE	-962
▁mask	-963
▁te	-964
Res	-965
min	-966
iss	-967
png	-968
Ex	-969
11	-970
pu	-971
odes	-972
▁weight	-973
pad	-974
dat	-975
this	-976
chain	-977
56	-978
gent	-979
acken	-980
▁dim	-981
▁0.	-982
cd	-983
rl	-984
docs	-985
decoder	-986
Qu	-987
kip	-988
▁call	-989
ager	-990
▁may	-991
20	-992
client	-993
time	-994
labels	-995
Par	-996
64,	-997
ally	-998
append	-999
rim	-1000
plic	-1001
uage	-1002
▁J	-1003
▁py	-1004
aset	-1005
expert	-1006
user	-1007
Output	-1008
ign	-1009
paramet	-1010
comm	-1011
Token	-1012
▁Co	-1013
weights	-1014
3-	-1015
▁content	-1016
alue	-1017
▁llama	-1018
ال	-1019
Url	-1020
"),	-1021
inter	-1022
lect	-1023
attr	-1024
result	-1025
ply	-1026
ader	-1027
}}	-1028
].	-1029
[:	-1030
▁size	-1031
so	-1032
▁col	-1033
▁await	-1034
▁outputs	-1035
ug	-1036
SE	-1037
▁expected	-1038
▁Re	-1039
mplet	-1040
AR	-1041
pretrained	-1042
rib	-1043
▁в	-1044
▁Un	-1045
]:	-1046
../	-1047
▁id	-1048
medi	-1049
▁index	-1050
LI	-1051
uggingface	-1052
28,	-1053
53	-1054
Con	-1055
▁["	-1056
▁init	-1057
quired	-1058
pr	-1059
rg	-1060
emory	-1061
right	-1062
▁conv	-1063
metadata	-1064
####	-1065
umm	-1066
LLM	-1067
enerate	-1068
audio	-1069
ustom	-1070
▁super	-1071
plit	-1072
▁when	-1073
▁fil	-1074
strib	-1075
gger	-1076
ne	-1077
dir	-1078
ost	-1079
▁tokens	-1080
raph	-1081
features	-1082
ther	-1083
bs	-1084
"],	-1085
tokenizer	-1086
▁should	-1087
bias	-1088
ulti	-1089
auto	-1090
rc	-1091
▁has	-1092
Co	-1093
32,	-1094
94	-1095
ield	-1096
rea	-1097
ww	-1098
fl	-1099
▁ser	-1100
▁no	-1101
▁This	-1102
led	-1103
----------------	-1104
ms	-1105
cdn	-1106
sw	-1107
▁add	-1108
ource	-1109
▁Ex	-1110
Text	-1111
[1	-1112
escription	-1113
▁support	-1114
▁out	-1115
abel	-1116
ifi	-1117
ta	-1118
sp	-1119
alueError	-1120
▁):	-1121
fil	-1122
▁),	-1123
▁Se	-1124
uration	-1125
wen	-1126
ernel	-1127
▁inter	-1128
ink	-1129
▁float	-1130
ich	-1131
84	-1132
([	-1133
ores	-1134
antic	-1135
inator	-1136
Equal	-1137
ard	-1138
▁-0.02	-1139
gine	-1140
▁shape	-1141
ropo	-1142
discord	-1143
▁have	-1144
ropout	-1145
▁0.02	-1146
alle	-1147
nn	-1148
ackend	-1149
▁base	-1150
lob	-1151
▁п	-1152
▁--	-1153
images	-1154
OR	-1155
AN	-1156
info	-1157
Ed	-1158
ca	-1159
discordapp	-1160
▁pr	-1161
avatars	-1162
▁la	-1163
▁q	-1164
PE	-1165
allel	-1166
Processor	-1167
huggingface	-1168
74	-1169
stributed	-1170
▁ne	-1171
▁inst	-1172
▁De	-1173
module	-1174
2.	-1175
▁tuple	-1176
ffer	-1177
auth	-1178
▁head	-1179
messages	-1180
mediate	-1181
ptions	-1182
video	-1183
http	-1184
row	-1185
▁Base	-1186
92	-1187
▁forward	-1188
over	-1189
word	-1190
params	-1191
ession	-1192
mplate	-1193
9,	-1194
▁Auto	-1195
ved	-1196
▁encoder	-1197
valid	-1198
Bot	-1199
imit	-1200
82	-1201
ailable	-1202
95	-1203
riminator	-1204
▁transformers	-1205
▁j	-1206
100	-1207
▁pass	-1208
itle	-1209
Train	-1210
▁feat	-1211
req	-1212
discriminator	-1213
nick	-1214
3.	-1215
75	-1216
▁check	-1217
30	-1218
avatarUrl	-1219
node	-1220
nickname	-1221
rect	-1222
ict	-1223
itional	-1224
isBot	-1225
2_	-1226
ia	-1227
TION	-1228
pack	-1229
mat	-1230
default	-1231
ification	-1232
──	-1233
usal	-1234
ray	-1235
eps	-1236
PU	-1237
chunk	-1238
anager	-1239
be	-1240
▁tensor	-1241
rie	-1242
':	-1243
no	-1244
▁top	-1245
astAPI	-1246
RL	-1247
ched	-1248
▁arg	-1249
▁work	-1250
{"	-1251
▁used	-1252
python	-1253
not	-1254
ross	-1255
(),	-1256
ipe	-1257
▁message	-1258
ook	-1259
blocks	-1260
by	-1261
pare	-1262
view	-1263
▁attn	-1264
amples	-1265
post	-1266
down	-1267
72	-1268
▁elif	-1269
amb	-1270
85	-1271
stream	-1272
ware	-1273
Lo	-1274
▁("	-1275
AS	-1276
▁5	-1277
▁Py	-1278
Float	-1279
▁chat	-1280
pytest	-1281
ody	-1282
inear	-1283
▁ValueError	-1284
▁create	-1285
inn	-1286
00:	-1287
count	-1288
">	-1289
▁If	-1290
`):	-1291
▁"202	-1292
mbed	-1293
clu	-1294
lang	-1295
=[	-1296
▁u	-1297
▁sequence	-1298
▁patch	-1299
AM	-1300
da	-1301
▁chunk	-1302
▁z	-1303
RE	-1304
main	-1305
ttention	-1306
Pre	-1307
▁ال	-1308
▁.	-1309
▁scal	-1310
uild	-1311
▁group	-1312
▁load	-1313
▁su	-1314
FloatTensor	-1315
new	-1316
fp	-1317
</	-1318
▁Optional	-1319
astapi	-1320
store	-1321
========	-1322
▁models	-1323
create	-1324
니다	-1325
prefix	-1326
izes	-1327
box	-1328
andl	-1329
63	-1330
▁Chat	-1331
vide	-1332
mport	-1333
attach	-1334
ative	-1335
▁user	-1336
1",	-1337
experts	-1338
work	-1339
().__	-1340
attentions	-1341
mentation	-1342
md	-1343
models	-1344
top	-1345
▁mock	-1346
▁128,	-1347
00",	-1348
async	-1349
▁quant	-1350
tensors	-1351
ст	-1352
▁except	-1353
rank	-1354
assertEqual	-1355
▁but	-1356
pyright	-1357
place	-1358
channels	-1359
indices	-1360
red	-1361
indow	-1362
ora	-1363
An	-1364
iginal	-1365
struct	-1366
."	-1367
▁St	-1368
ok	-1369
Module	-1370
ST	-1371
used	-1372
PT	-1373
oid	-1374
▁start	-1375
('	-1376
1)	-1377
ob	-1378
lm	-1379
vocab	-1380
Edit	-1381
▁Model	-1382
▁"1	-1383
CH	-1384
Chat	-1385
mbedding	-1386
▁?	-1387
000	-1388
the	-1389
SON	-1390
return	-1391
ound	-1392
▁each	-1393
ish	-1394
items	-1395
Image	-1396
rop	-1397
▁processor	-1398
schema	-1399
DI	-1400
TH	-1401
ey	-1402
▁client	-1403
▁current	-1404
▁only	-1405
vllm	-1406
tal	-1407
46	-1408
ypes	-1409
▁{}	-1410
org	-1411
Base	-1412
▁cache	-1413
width	-1414
mpletion	-1415
▁using	-1416
▁time	-1417
96	-1418
▁Open	-1419
▁decoder	-1420
00:00",	-1421
ret	-1422
▁was	-1423
TT	-1424
keys	-1425
me	-1426
▁"2023-	-1427
▁audio	-1428
context	-1429
dropout	-1430
+00:00",	-1431
▁Ap	-1432
▁your	-1433
ous	-1434
🚨🚨🚨🚨🚨🚨🚨🚨	-1435
▁distributed	-1436
▁===	-1437
factor	-1438
yst	-1439
▁print	-1440
\"	-1441
▁code	-1442
▁target	-1443
31	-1444
ech	-1445
of	-1446
lic	-1447
▁over	-1448
author	-1449
rid	-1450
42	-1451
gn	-1452
rgs	-1453
Type	-1454
▁2,	-1455
mpty	-1456
ify	-1457
ping	-1458
inned	-1459
"{	-1460
Tokenizer	-1461
▁ab	-1462
parse	-1463
imestamp	-1464
((	-1465
trans	-1466
stages	-1467
ution	-1468
full	-1469
▁Pro	-1470
▁try	-1471
af	-1472
miss	-1473
▁required	-1474
lp	-1475
▁loss	-1476
ld	-1477
ote	-1478
▁language	-1479
height	-1480
ampling	-1481
▁padding	-1482
warps	-1483
Layer	-1484
imple	-1485
▁!=	-1486
*,	-1487
▁ob	-1488
▁[`	-1489
attachments	-1490
lease	-1491
▁end	-1492
ting	-1493
▁one	-1494
coding	-1495
▁act	-1496
status	-1497
ite	-1498
tester	-1499
▁error	-1500
Trained	-1501
86	-1502
ystem	-1503
ccess	-1504
01	-1505
▁messages	-1506
▁cor	-1507
env	-1508
method	-1509
ception	-1510
ref	-1511
ов	-1512
off	-1513
chedul	-1514
▁object	-1515
▁List	-1516
tes	-1517
ipeline	-1518
Qwen	-1519
les	-1520
▁llm	-1521
asoning	-1522
▁past	-1523
Pinned	-1524
▁number	-1525
eturn	-1526
agent	-1527
dantic	-1528
Linear	-1529
reg	-1530
GR	-1531
entions	-1532
▁state	-1533
MA	-1534
▁metadata	-1535
Tool	-1536
Edited	-1537
ze	-1538
16,	-1539
upport	-1540
▁more	-1541
▁4,	-1542
▁any	-1543
classes	-1544
last	-1545
▁logits	-1546
Timestamp	-1547
mentions	-1548
stick	-1549
reactions	-1550
odul	-1551
Ended	-1552
fastapi	-1553
stickers	-1554
isPinned	-1555
callEnded	-1556
timestampEdited	-1557
ausal	-1558
▁video	-1559
version	-1560
▁0.000	-1561
76	-1562
▁///	-1563
ен	-1564
▁gener	-1565
▁args	-1566
fr	-1567
▁av	-1568
irst	-1569
vid	-1570
ak	-1571
web	-1572
cel	-1573
ange	-1574
dataset	-1575
"}	-1576
swer	-1577
▁string	-1578
ake	-1579
▁Args	-1580
ui	-1581
}.	-1582
▁pytest	-1583
Embedding	-1584
processing	-1585
▁-0.002	-1586
utorial	-1587
=512	-1588
▁which	-1589
tra	-1590
lection	-1591
▁0.002	-1592
▁pixel	-1593
ер	-1594
▁defaults	-1595
▁width	-1596
lement	-1597
0)	-1598
▁specific	-1599
ines	-1600
▁ad	-1601
ti	-1602
Mo	-1603
peech	-1604
▁embeddings	-1605
gen	-1606
▁You	-1607
array	-1608
transformers	-1609
lete	-1610
OUP	-1611
▁64,	-1612
52	-1613
▁path	-1614
Attention	-1615
▁||	-1616
▁-0.004	-1617
▁match	-1618
▁logger	-1619
▁8	-1620
▁train	-1621
event	-1622
▁cl	-1623
lev	-1624
▁dat	-1625
The	-1626
old	-1627
▁"#	-1628
bu	-1629
Response	-1630
special	-1631
▁context	-1632
.__	-1633
GROUP	-1634
}"	-1635
ree	-1636
▁labels	-1637
hf	-1638
▁Test	-1639
points	-1640
pons	-1641
Store	-1642
▁-0.005	-1643
generate	-1644
▁sub	-1645
ates	-1646
zer	-1647
split	-1648
[:,	-1649
▁-0.000	-1650
▁pl	-1651
▁0.004	-1652
▁0.005	-1653
93	-1654
83	-1655
▁-0.007	-1656
▁extra	-1657
List	-1658
())	-1659
cor	-1660
vector	-1661
exec	-1662
=512"	-1663
With	-1664
sync	-1665
body	-1666
istr	-1667
▁into	-1668
pull	-1669
▁os	-1670
▁images	-1671
▁paramet	-1672
ING	-1673
▁back	-1674
▁URL	-1675
object	-1676
▁seq	-1677
var	-1678
▁range	-1679
▁writ	-1680
▁kv	-1681
docstring	-1682
fore	-1683
ти	-1684
search	-1685
ics	-1686
▁me	-1687
fn	-1688
"},	-1689
istant	-1690
ます	-1691
older	-1692
loc	-1693
oth	-1694
format	-1695
▁process	-1696
rope	-1697
▁comm	-1698
sl	-1699
moe	-1700
▁16,	-1701
src	-1702
unc	-1703
tools	-1704
decode	-1705
ner	-1706
ical	-1707
▁-0.008	-1708
import	-1709
▁{{	-1710
sizes	-1711
▁Res	-1712
nodes	-1713
▁0.007	-1714
pixel	-1715
Ch	-1716
iple	-1717
loss	-1718
ured	-1719
ODE	-1720
▁ent	-1721
▁1.	-1722
clude	-1723
ible	-1724
▁`(	-1725
skip	-1726
▁limit	-1727
▁first	-1728
local	-1729
-2.0	-1730
lama	-1731
ultiple	-1732
now	-1733
▁stream	-1734
▁weights	-1735
lobal	-1736
available	-1737
lip	-1738
emb	-1739
License	-1740
ier	-1741
▁202	-1742
▁0.008	-1743
▁must	-1744
▁Apache	-1745
▁method	-1746
▁[[	-1747
cls	-1748
ivation	-1749
▁agent	-1750
на	-1751
▁+=	-1752
▁Return	-1753
squ	-1754
▁valid	-1755
tutorial	-1756
ingle	-1757
▁min	-1758
▁module	-1759
▁-0.009	-1760
ynam	-1761
▁contain	-1762
▁з	-1763
▁http	-1764
▁need	-1765
▁prefix	-1766
ys	-1767
▁ag	-1768
▁last	-1769
probs	-1770
▁original	-1771
▁langchain	-1772
Open	-1773
▁document	-1774
Class	-1775
we	-1776
feature	-1777
Query	-1778
ome	-1779
calls	-1780
abil	-1781
Norm	-1782
334	-1783
rand	-1784
(**	-1785
▁del	-1786
TO	-1787
cur	-1788
[0].	-1789
label	-1790
gle	-1791
▁node	-1792
less	-1793
.\	-1794
jo	-1795
▁0.009	-1796
img	-1797
▁que	-1798
▁%	-1799
ко	-1800
oice	-1801
Call	-1802
TTP	-1803
▁()	-1804
enc	-1805
▁JSON	-1806
▁1)	-1807
Enter	-1808
update	-1809
▁embedding	-1810
Node	-1811
ump	-1812
eries	-1813
▁ret	-1814
те	-1815
uter	-1816
oogle	-1817
mode	-1818
▁initial	-1819
▁arguments	-1820
▁LLM	-1821
ifier	-1822
▁parser	-1823
▁part	-1824
cat	-1825
ead	-1826
PD	-1827
216	-1828
aded	-1829
116	-1830
▁open	-1831
Long	-1832
ocument	-1833
▁д	-1834
fill	-1835
do	-1836
iter	-1837
vis	-1838
description	-1839
▁dis	-1840
688	-1841
fin	-1842
ausalLM	-1843
role	-1844
▁does	-1845
60	-1846
az	-1847
▁mode	-1848
raw	-1849
Default	-1850
current	-1851
ither	-1852
8_	-1853
▁json	-1854
resh	-1855
Param	-1856
▁copy	-1857
▁kwargs	-1858
nector	-1859
tr	-1860
mapping	-1861
qui	-1862
tail	-1863
template	-1864
43	-1865
cud	-1866
types	-1867
▁AI	-1868
eval	-1869
ML	-1870
▁format	-1871
▁-0.012	-1872
▁https	-1873
propert	-1874
50	-1875
то	-1876
OUT	-1877
▁bias	-1878
ан	-1879
▁task	-1880
parallel	-1881
▁Con	-1882
PreTrained	-1883
attrib	-1884
▁$	-1885
sha	-1886
generation	-1887
prepare	-1888
penden	-1889
▁off	-1890
eeze	-1891
lose	-1892
ransformer	-1893
40	-1894
▁custom	-1895
▁Hugging	-1896
ateg	-1897
ynamic	-1898
▁values	-1899
={	-1900
pendenc	-1901
▁ign	-1902
part	-1903
onent	-1904
lens	-1905
▁ID	-1906
114	-1907
1_	-1908
▁install	-1909
▁с	-1910
▁mo	-1911
▁results	-1912
LongTensor	-1913
ctory	-1914
tuple	-1915
sum	-1916
▁ver	-1917
engine	-1918
modeling	-1919
▁Copyright	-1920
▁typ	-1921
ponses	-1922
▁See	-1923
resol	-1924
▁height	-1925
yle	-1926
www	-1927
▁convert	-1928
▁vision	-1929
▁applic	-1930
ultim	-1931
sub	-1932
`]	-1933
parameters	-1934
past	-1935
*):	-1936
ank	-1937
▁configuration	-1938
▁о	-1939
cond	-1940
▁np	-1941
lora	-1942
channel	-1943
utom	-1944
▁local	-1945
Index	-1946
andler	-1947
hen	-1948
here	-1949
Client	-1950
names	-1951
ature	-1952
=1	-1953
▁[0.	-1954
▁fr	-1955
let	-1956
cpu	-1957
########	-1958
▁length	-1959
112	-1960
▁"1059	-1961
118	-1962
manager	-1963
▁com	-1964
▁item	-1965
[1]	-1966
▁م	-1967
AU	-1968
15,	-1969
AL	-1970
▁Image	-1971
Met	-1972
▁-0.010	-1973
ри	-1974
squeeze	-1975
lean	-1976
TIONS	-1977
▁make	-1978
ush	-1979
"):	-1980
▁feature	-1981
EC	-1982
▁temp	-1983
AB	-1984
Request	-1985
(1,	-1986
▁tl	-1987
▁To	-1988
ForC	-1989
}")	-1990
▁0.012	-1991
abled	-1992
bone	-1993
▁help	-1994
▁-0.014	-1995
▁provide	-1996
pool	-1997
▁Returns	-1998
ike	-1999
▁permiss	-2000
▁ass	-2001
attern	-2002
▁!==	-2003
▁same	-2004
igh	-2005
▁0.010	-2006
▁vector	-2007
cheduler	-2008
▁All	-2009
orld	-2010
▁right	-2011
117	-2012
sample	-2013
air	-2014
kernel	-2015
▁other	-2016
-4	-2017
intermediate	-2018
▁either	-2019
idual	-2020
checkpoint	-2021
▁man	-2022
▁sp	-2023
ра	-2024
sequence	-2025
{{	-2026
▁ind	-2027
▁-0.015	-2028
imil	-2029
▁auto	-2030
exp	-2031
openai	-2032
▁soft	-2033
idd	-2034
ister	-2035
`:	-2036
ax	-2037
мо	-2038
▁scale	-2039
▁example	-2040
reference	-2041
support	-2042
ags	-2043
forward	-2044
Un	-2045
Vision	-2046
ger	-2047
");	-2048
UI	-2049
File	-2050
imilar	-2051
▁For	-2052
80	-2053
Face	-2054
')	-2055
73	-2056
annot	-2057
fter	-2058
▁sc	-2059
▁Pre	-2060
prec	-2061
ating	-2062
net	-2063
../../	-2064
arning	-2065
gram	-2066
title	-2067
[-1	-2068
msg	-2069
AD	-2070
OM	-2071
ection	-2072
▁typing	-2073
mer	-2074
119	-2075
pose	-2076
bo	-2077
__()	-2078
▁FastAPI	-2079
umn	-2080
▁0.014	-2081
▁-0.013	-2082
window	-2083
Input	-2084
▁</	-2085
使用	-2086
Log	-2087
▁expert	-2088
options	-2089
ultimodal	-2090
np	-2091
iddle	-2092
▁(#	-2093
ather	-2094
▁norm	-2095
ension	-2096
115	-2097
ench	-2098
▁version	-2099
▁En	-2100
▁files	-2101
▁Call	-2102
ek	-2103
▁des	-2104
132	-2105
113	-2106
ODEL	-2107
odules	-2108
egr	-2109
FastAPI	-2110
bert	-2111
match	-2112
RAN	-2113
del	-2114
training	-2115
aut	-2116
target	-2117
patches	-2118
prob	-2119
PDX	-2120
▁vocab	-2121
lar	-2122
▁skip	-2123
task	-2124
▁SPDX	-2125
NAM	-2126
▁7	-2127
fiel	-2128
lation	-2129
ть	-2130
ced	-2131
▁Lo	-2132
▁lay	-2133
▁generation	-2134
▁event	-2135
Generation	-2136
▁0.015	-2137
dis	-2138
▁);	-2139
normal	-2140
ummy	-2141
webui	-2142
00,	-2143
▁contin	-2144
Mix	-2145
ful	-2146
▁oper	-2147
question	-2148
que	-2149
TED	-2150
keep	-2151
atform	-2152
▁tools	-2153
▁const	-2154
90	-2155
▁-0.016	-2156
▁obt	-2157
"])	-2158
ell	-2159
110	-2160
reed	-2161
executor	-2162
▁vLLM	-2163
round	-2164
▁и	-2165
iron	-2166
35,	-2167
ForCausalLM	-2168
▁32,	-2169
▁memory	-2170
2",	-2171
▁AN	-2172
65,	-2173
▁bet	-2174
но	-2175
ITH	-2176
apt	-2177
4_	-2178
grid	-2179
▁void	-2180
utes	-2181
No	-2182
Kwargs	-2183
rst	-2184
▁project	-2185
ik	-2186
press	-2187
▁3,	-2188
ittest	-2189
▁ar	-2190
[0],	-2191
score	-2192
ences	-2193
ollow	-2194
▁differ	-2195
coded	-2196
amba	-2197
▁full	-2198
▁search	-2199
rectly	-2200
heck	-2201
Te	-2202
▁0.013	-2203
▁Ch	-2204
ро	-2205
▁ed	-2206
▁apply	-2207
▁es	-2208
▁CON	-2209
▁its	-2210
▁po	-2211
hub	-2212
Event	-2213
cuda	-2214
14,	-2215
374	-2216
GE	-2217
▁et	-2218
YPE	-2219
ummary	-2220
▁obtain	-2221
DA	-2222
▁kernel	-2223
04,	-2224
287	-2225
div	-2226
bin	-2227
▁-0.017	-2228
▁It	-2229
ans	-2230
Run	-2231
olo	-2232
▁description	-2233
▁allow	-2234
reated	-2235
▁2)	-2236
can	-2237
▁how	-2238
▁((	-2239
13,	-2240
/2	-2241
grad	-2242
▁src	-2243
RA	-2244
gmentation	-2245
_(	-2246
▁IS	-2247
first	-2248
LT	-2249
offset	-2250
▁0.016	-2251
gener	-2252
▁source	-2253
▁ignore	-2254
ied	-2255
▁HuggingFace	-2256
▁mm	-2257
memory	-2258
ables	-2259
05,	-2260
Classification	-2261
▁final	-2262
emma	-2263
backend	-2264
▁title	-2265
ль	-2266
▁We	-2267
db	-2268
▁2.0	-2269
▁dire	-2270
testing	-2271
This	-2272
ão	-2273
ModelOutput	-2274
order	-2275
▁nodes	-2276
.")	-2277
ender	-2278
▁Version	-2279
▁found	-2280
▁about	-2281
▁Par	-2282
empty	-2283
▁tests	-2284
ectorStore	-2285
lib	-2286
table	-2287
▁permissions	-2288
stru	-2289
atio	-2290
\\	-2291
▁env	-2292
ities	-2293
▁success	-2294
chem	-2295
▁documents	-2296
0",	-2297
▁fl	-2298
▁Run	-2299
▁ids	-2300
sm	-2301
rate	-2302
▁intermediate	-2303
LIC	-2304
vers	-2305
join	-2306
padding	-2307
bool	-2308
▁OR	-2309
|>	-2310
▁../../	-2311
parent	-2312
LO	-2313
(0,	-2314
emo	-2315
={"	-2316
ious	-2317
▁than	-2318
▁case	-2319
37,	-2320
Cont	-2321
wise	-2322
hether	-2323
move	-2324
Agent	-2325
та	-2326
▁sin	-2327
▁-0.018	-2328
})	-2329
────	-2330
radi	-2331
soft	-2332
▁box	-2333
▁0.017	-2334
convert	-2335
Encoder	-2336
▁Key	-2337
▁after	-2338
stride	-2339
▁select	-2340
boxes	-2341
parametr	-2342
2)	-2343
apping	-2344
book	-2345
flow	-2346
▁software	-2347
dated	-2348
Det	-2349
andle	-2350
ptr	-2351
▁writing	-2352
================	-2353
▁ANY	-2354
▁BA	-2355
source	-2356
has	-2357
▁requests	-2358
Cache	-2359
quires	-2360
Mixin	-2361
writ	-2362
▁Add	-2363
close	-2364
graph	-2365
ese	-2366
▁rel	-2367
positions	-2368
▁blocks	-2369
Dict	-2370
common	-2371
▁url	-2372
▁hf	-2373
▁down	-2374
▁0.018	-2375
24,	-2376
56,	-2377
mote	-2378
Py	-2379
IND	-2380
resent	-2381
Form	-2382
▁getattr	-2383
▁-0.019	-2384
ID	-2385
▁params	-2386
duce	-2387
ached	-2388
unity	-2389
side	-2390
hash	-2391
34,	-2392
parametrize	-2393
total	-2394
▁tra	-2395
▁label	-2396
▁residual	-2397
pop	-2398
wo	-2399
25,	-2400
iddleware	-2401
require	-2402
▁applicable	-2403
12,	-2404
langchain	-2405
imum	-2406
Reader	-2407
ays	-2408
KE	-2409
17,	-2410
ailed	-2411
atic	-2412
Tester	-2413
angolo	-2414
▁dataset	-2415
PreTrainedModel	-2416
▁X	-2417
scores	-2418
erved	-2419
tiangolo	-2420
▁reg	-2421
pth	-2422
ters	-2423
▁WITH	-2424
replace	-2425
parser	-2426
▁exist	-2427
multi	-2428
ENSE	-2429
▁logging	-2430
fully	-2431
▁hl	-2432
<|	-2433
▁Qwen	-2434
▁here	-2435
3_	-2436
▁0:	-2437
zeros	-2438
4.	-2439
▁express	-2440
ugh	-2441
callback	-2442
static	-2443
▁continue	-2444
▁OF	-2445
▁non	-2446
70	-2447
Block	-2448
Search	-2449
▁also	-2450
▁total	-2451
▁read	-2452
315	-2453
▁Web	-2454
▁pack	-2455
▁6	-2456
files	-2457
▁like	-2458
▁follow	-2459
▁}),	-2460
celer	-2461
Parser	-2462
linear	-2463
68,	-2464
bar	-2465
-1)	-2466
▁now	-2467
nowled	-2468
document	-2469
istral	-2470
する	-2471
modules	-2472
rel	-2473
PR	-2474
128	-2475
▁law	-2476
long	-2477
▁autom	-2478
▁server	-2479
bytes	-2480
▁WAR	-2481
▁our	-2482
cale	-2483
LICENSE	-2484
itial	-2485
▁-1	-2486
Up	-2487
ph	-2488
-1,	-2489
▁topk	-2490
ategy	-2491
67,	-2492
inv	-2493
ises	-2494
riever	-2495
enses	-2496
▁before	-2497
▁tr	-2498
rough	-2499
ename	-2500
▁0.019	-2501
▁provided	-2502
tx	-2503
▁store	-2504
▁impli	-2505
▁est	-2506
▁form	-2507
▁=>	-2508
transpose	-2509
▁2.	-2510
fc	-2511
▁compli	-2512
TIES	-2513
▁para	-2514
ron	-2515
dump	-2516
▁gover	-2517
▁agreed	-2518
uring	-2519
licenses	-2520
▁WITHOUT	-2521
NAME	-2522
ello	-2523
▁이	-2524
erature	-2525
▁Unless	-2526
Prompt	-2527
▁compliance	-2528
679	-2529
SIS	-2530
custom	-2531
alid	-2532
ditional	-2533
▁있	-2534
18,	-2535
apache	-2536
cessed	-2537
▁([	-2538
▁WARRAN	-2539
▁them	-2540
mlp	-2541
▁WARRANTIES	-2542
nowledge	-2543
▁PR	-2544
습니다	-2545
▁CONDI	-2546
▁Licensed	-2547
gpt	-2548
▁implied	-2549
▁limitations	-2550
▁KIND	-2551
310.	-2552
▁trans	-2553
▁Python	-2554
▁{*	-2555
▁Tool	-2556
examples	-2557
▁BASIS	-2558
▁CONDITIONS	-2559
🚨🚨🚨🚨🚨🚨🚨🚨🚨🚨🚨🚨🚨🚨🚨🚨	-2560
▁next	-2561
▁*}	-2562
▁KV	-2563
▁OpenAI	-2564
▁backend	-2565
reasoning	-2566
cent	-2567
gpu	-2568
_1	-2569
▁stride	-2570
▁ext	-2571
▁single	-2572
200	-2573
rot	-2574
ли	-2575
▁pas	-2576
▁governing	-2577
▁training	-2578
)),	-2579
ped	-2580
Name	-2581
▁embed	-2582
mt	-2583
Str	-2584
▁filter	-2585
▁mer	-2586
mock	-2587
ка	-2588
Conv	-2589
38,	-2590
expected	-2591
eed	-2592
lex	-2593
▁contrib	-2594
project	-2595
1749	-2596
ME	-2597
ified	-2598
qa	-2599
ild	-2600
cp	-2601
runc	-2602
ride	-2603
▁DE	-2604
▁bu	-2605
▁-1,	-2606
ini	-2607
▁where	-2608
▁\"	-2609
ground	-2610
▁true	-2611
Decoder	-2612
ops	-2613
filter	-2614
ient	-2615
radient	-2616
▁sl	-2617
reshape	-2618
▁사	-2619
MODEL	-2620
127	-2621
▁-0.03	-2622
pol	-2623
results	-2624
▁Comp	-2625
▁then	-2626
▁there	-2627
au	-2628
reason	-2629
ts	-2630
platform	-2631
masks	-2632
▁supported	-2633
▁different	-2634
1764	-2635
▁за	-2636
▁Q	-2637
proto	-2638
pendencies	-2639
\.	-2640
ability	-2641
▁GPU	-2642
▁vari	-2643
temp	-2644
annel	-2645
uous	-2646
▁engine	-2647
only	-2648
dp	-2649
tings	-2650
▁features	-2651
▁Z	-2652
logger	-2653
router	-2654
▁по	-2655
▁0.03	-2656
▁color	-2657
UN	-2658
▁exec	-2659
▁[#	-2660
"))	-2661
▁layers	-2662
save	-2663
ayload	-2664
gate	-2665
07,	-2666
.{	-2667
107	-2668
0000	-2669
FI	-2670
ential	-2671
rix	-2672
▁generated	-2673
▁Prompt	-2674
frames	-2675
Data	-2676
▁split	-2677
session	-2678
AT	-2679
Spec	-2680
llms	-2681
▁main	-2682
queries	-2683
odoc	-2684
make	-2685
autodoc	-2686
nly	-2687
iding	-2688
sg	-2689
lat	-2690
▁모	-2691
['	-2692
();	-2693
FAU	-2694
FAULT	-2695
apply	-2696
▁available	-2697
Quant	-2698
▁Create	-2699
ptim	-2700
▁б	-2701
048	-2702
level	-2703
Mock	-2704
ors	-2705
istory	-2706
mean	-2707
non	-2708
▁ت	-2709
pointer	-2710
▁answer	-2711
google	-2712
ely	-2713
▁``	-2714
ет	-2715
ın	-2716
html	-2717
▁keys	-2718
▁ب	-2719
Logan	-2720
reshold	-2721
ci	-2722
▁cls	-2723
unsqueeze	-2724
uid	-2725
1992	-2726
ten	-2727
sv	-2728
XT	-2729
assertTrue	-2730
▁!0	-2731
6772	-2732
▁pipeline	-2733
ernal	-2734
VL	-2735
▁>=	-2736
rol	-2737
thw	-2738
Net	-2739
▁pool	-2740
_2	-2741
ins	-2742
▁global	-2743
entifier	-2744
▁prepare	-2745
▁1:	-2746
scri	-2747
mplete	-2748
Col	-2749
Result	-2750
▁access	-2751
5367	-2752
foo	-2753
nable	-2754
▁-0.006	-2755
▁fix	-2756
initial	-2757
▁multiple	-2758
ля	-2759
▁ref	-2760
formation	-2761
▁field	-2762
▁eps	-2763
CT	-2764
reak	-2765
atten	-2766
riv	-2767
▁empty	-2768
▁AutoModel	-2769
8265	-2770
eter	-2771
1:	-2772
▁normal	-2773
Conditional	-2774
▁successfully	-2775
Moe	-2776
func	-2777
▁api	-2778
ambda	-2779
.,	-2780
▁reserved	-2781
configuration	-2782
man	-2783
▁cos	-2784
flash	-2785
▁Sequence	-2786
▁instead	-2787
pass	-2788
▁0.006	-2789
stack	-2790
▁generate	-2791
▁Default	-2792
▁Mo	-2793
▁})	-2794
▁inv	-2795
Copyright	-2796
CE	-2797
You	-2798
orage	-2799
▁across	-2800
▁want	-2801
▁16	-2802
17496772	-2803
199217496772	-2804
▁update	-2805
▁수	-2806
199217496772688	-2807
Auth	-2808
xy	-2809
lu	-2810
space	-2811
▁3.	-2812
▁""	-2813
mon	-2814
▁indices	-2815
OpenAI	-2816
']	-2817
documents	-2818
arkdown	-2819
eature	-2820
▁Text	-2821
▁instance	-2822
▁rights	-2823
▁require	-2824
▁Pydantic	-2825
Hello	-2826
IT	-2827
▁HTTP	-2828
▁cons	-2829
ql	-2830
valu	-2831
▁team	-2832
property	-2833
▁fin	-2834
08,	-2835
▁"8	-2836
5-	-2837
riton	-2838
izers	-2839
groups	-2840
▁Te	-2841
27,	-2842
Modal	-2843
▁Sie	-2844
very	-2845
3345367	-2846
8265216	-2847
17648265216	-2848
▁8,	-2849
blob	-2850
"].	-2851
vel	-2852
OD	-2853
rics	-2854
oug	-2855
completion	-2856
reqs	-2857
▁go	-2858
nection	-2859
▁um	-2860
encoding	-2861
ECK	-2862
atial	-2863
CA	-2864
attribute	-2865
cope	-2866
copy	-2867
guild	-2868
▁Search	-2869
channelId	-2870
messageId	-2871
guildId	-2872
wn	-2873
▁req	-2874
vider	-2875
▁Unpack	-2876
199217496772688"	-2877
Mode	-2878
push	-2879
▁"--	-2880
▁parameters	-2881
ForConditional	-2882
Al	-2883
▁Us	-2884
▁count	-2885
example	-2886
ars	-2887
5.	-2888
language	-2889
▁loaded	-2890
plication	-2891
It	-2892
▁system	-2893
=1,	-2894
024	-2895
▁via	-2896
▁Document	-2897
ency	-2898
Bert	-2899
▁some	-2900
What	-2901
02,	-2902
").	-2903
▁my	-2904
KEY	-2905
▁10	-2906
andom	-2907
[-1]	-2908
));	-2909
tmp	-2910
▁deprec	-2911
font	-2912
CHECK	-2913
activation	-2914
rec	-2915
▁Async	-2916
nd	-2917
unding	-2918
pytorch	-2919
▁perform	-2920
ready	-2921
▁thread	-2922
buffer	-2923
2-	-2924
cre	-2925
▁Set	-2926
▁uses	-2927
KEN	-2928
▁sampling	-2929
tp	-2930
ultiModal	-2931
cho	-2932
delta	-2933
(__	-2934
MS	-2935
ernorm	-2936
▁Initial	-2937
го	-2938
integr	-2939
hi	-2940
▁detail	-2941
▁msg	-2942
span	-2943
la	-2944
32)	-2945
▁사용	-2946
server	-2947
Th	-2948
escript	-2949
ImageProcessor	-2950
ored	-2951
▁Callable	-2952
▁point	-2953
frame	-2954
ress	-2955
lines	-2956
327	-2957
entence	-2958
required	-2959
ving	-2960
▁raw	-2961
Ser	-2962
▁enum	-2963
register	-2964
lear	-2965
▁struct	-2966
?",	-2967
nect	-2968
quences	-2969
▁Response	-2970
.0.	-2971
▁through	-2972
WithP	-2973
▁Llama	-2974
▁requires	-2975
tern	-2976
して	-2977
48,	-2978
State	-2979
ensions	-2980
obj	-2981
▁на	-2982
responses	-2983
]],	-2984
(*	-2985
▁window	-2986
Torch	-2987
▁schema	-2988
df	-2989
wer	-2990
▁names	-2991
▁without	-2992
Feature	-2993
vari	-2994
▁:,	-2995
▁Not	-2996
▁parameter	-2997
▁Field	-2998
ни	-2999
VI	-3000
community	-3001
ratio	-3002
bit	-3003
OL	-3004
OT	-3005
ón	-3006
▁TYPE	-3007
▁Transformers	-3008
256	-3009
да	-3010
expand	-3011
sampling	-3012
seek	-3013
1/	-3014
▁special	-3015
loader	-3016
▁would	-3017
▁};	-3018
des	-3019
enchmark	-3020
vec	-3021
3",	-3022
▁don	-3023
usage	-3024
CHECKING	-3025
▁they	-3026
page	-3027
peed	-3028
stop	-3029
assistant	-3030
former	-3031
ava	-3032
videos	-3033
cc	-3034
Com	-3035
▁([#	-3036
▁docs	-3037
▁мо	-3038
▁vis	-3039
resize	-3040
Get	-3041
▁sure	-3042
extractor	-3043
▁both	-3044
▁Token	-3045
▁just	-3046
096	-3047
▁include	-3048
▁✅	-3049
zure	-3050
rapper	-3051
▁while	-3052
ero	-3053
ources	-3054
▁"_	-3055
▁page	-3056
▁Type	-3057
▁-0.024	-3058
▁Up	-3059
topk	-3060
connector	-3061
limit	-3062
layernorm	-3063
acy	-3064
uman	-3065
)]	-3066
▁sha	-3067
▁high	-3068
oper	-3069
▁ви	-3070
PA	-3071
scaling	-3072
uf	-3073
397	-3074
▁!1	-3075
Ar	-3076
▁fa	-3077
ween	-3078
▁Tensor	-3079
backbone	-3080
tests	-3081
ric	-3082
DB	-3083
loud	-3084
▁GPT	-3085
▁question	-3086
.*	-3087
▁app	-3088
▁multi	-3089
▁prev	-3090
▁100	-3091
ields	-3092
▁following	-3093
ords	-3094
▁note	-3095
▁-0.003	-3096
▁reasoning	-3097
epseek	-3098
Metadata	-3099
erank	-3100
)":	-3101
ose	-3102
▁0.003	-3103
lot	-3104
etch	-3105
▁parent	-3106
▁information	-3107
argument	-3108
Function	-3109
encode	-3110
LA	-3111
("/	-3112
▁Check	-3113
pattern	-3114
modal	-3115
meta	-3116
LIP	-3117
Element	-3118
2]	-3119
Auto	-3120
39,	-3121
diction	-3122
steps	-3123
Sequence	-3124
any	-3125
ater	-3126
parameter	-3127
-200	-3128
▁cap	-3129
▁hasattr	-3130
rary	-3131
▁break	-3132
host	-3133
▁random	-3134
▁sa	-3135
HTTP	-3136
step	-3137
▁`"	-3138
usion	-3139
URL	-3140
▁"\	-3141
▁web	-3142
▁change	-3143
std	-3144
fused	-3145
▁warning	-3146
build	-3147
4",	-3148
oke	-3149
ement	-3150
NG	-3151
uture	-3152
Transformers	-3153
({	-3154
ni	-3155
Item	-3156
▁delete	-3157
ironment	-3158
iguous	-3159
ym	-3160
Document	-3161
▁prob	-3162
QL	-3163
brid	-3164
▁passed	-3165
▁-0.	-3166
**:	-3167
ases	-3168
Context	-3169
▁db	-3170
389	-3171
write	-3172
▁style	-3173
▁ко	-3174
Path	-3175
합니다	-3176
ocket	-3177
▁checkpoint	-3178
▁grid	-3179
▁delta	-3180
slice	-3181
1062	-3182
pan	-3183
`)	-3184
ات	-3185
Fil	-3186
Video	-3187
▁Exception	-3188
remote	-3189
▁optional	-3190
▁pe	-3191
▁long	-3192
field	-3193
▁am	-3194
events	-3195
▁frame	-3196
-8	-3197
ished	-3198
▁stop	-3199
▁map	-3200
my	-3201
▁Sh	-3202
▁dynamic	-3203
component	-3204
uting	-3205
Key	-3206
requests	-3207
umpy	-3208
sin	-3209
peat	-3210
▁post	-3211
▁op	-3212
▁Path	-3213
▁compute	-3214
ually	-3215
iven	-3216
hel	-3217
ries	-3218
007	-3219
sets	-3220
Completion	-3221
ernels	-3222
compile	-3223
Llama	-3224
▁0.024	-3225
warning	-3226
arange	-3227
11,	-3228
icro	-3229
functional	-3230
▁모델	-3231
▁convers	-3232
CON	-3233
▁Config	-3234
▁between	-3235
▁keep	-3236
▁tensors	-3237
++	-3238
dapt	-3239
andard	-3240
▁scores	-3241
emit	-3242
loading	-3243
▁what	-3244
LayerNorm	-3245
global	-3246
extract	-3247
▁OpenAPI	-3248
=["	-3249
▁AutoTokenizer	-3250
Content	-3251
▁er	-3252
const	-3253
▁lora	-3254
▁"2023-04	-3255
system	-3256
Manager	-3257
supported	-3258
에서	-3259
▁Al	-3260
▁util	-3261
2000	-3262
108	-3263
select	-3264
▁boxes	-3265
)`,	-3266
▁auth	-3267
summary	-3268
▁look	-3269
iT	-3270
PEC	-3271
Exception	-3272
ren	-3273
abase	-3274
384	-3275
▁iss	-3276
UDA	-3277
▁table	-3278
verse	-3279
▁0)	-3280
ested	-3281
utors	-3282
▁—	-3283
cul	-3284
dates	-3285
prompts	-3286
▁been	-3287
ла	-3288
▁processing	-3289
▁enumer	-3290
ре	-3291
され	-3292
▁pip	-3293
677	-3294
estion	-3295
izing	-3296
...,	-3297
next	-3298
▁quantization	-3299
по	-3300
▁"/	-3301
Failed	-3302
(_	-3303
__)	-3304
raft	-3305
cross	-3306
LL	-3307
merge	-3308
▁fp	-3309
▁у	-3310
187	-3311
dev	-3312
▁line	-3313
209	-3314
▁encoding	-3315
▁graph	-3316
orn	-3317
cript	-3318
anced	-3319
▁-0.025	-3320
imilarity	-3321
ture	-3322
)",	-3323
109	-3324
ven	-3325
Info	-3326
Identifier	-3327
TOKEN	-3328
19,	-3329
▁based	-3330
▁positions	-3331
▁session	-3332
masked	-3333
bash	-3334
▁directly	-3335
her	-3336
streaming	-3337
▁two	-3338
▁extract	-3339
unittest	-3340
138	-3341
VectorStore	-3342
47,	-3343
think	-3344
не	-3345
ract	-3346
vit	-3347
openapi	-3348
▁Batch	-3349
JSON	-3350
final	-3351
137	-3352
dependencies	-3353
1062287	-3354
Ret	-3355
▁ter	-3356
1062287374	-3357
20001062287374	-3358
▁updated	-3359
398	-3360
application	-3361
▁contributors	-3362
mit	-3363
svg	-3364
▁Cache	-3365
168	-3366
▁Request	-3367
ERT	-3368
▁Agent	-3369
▁die	-3370
▁their	-3371
logprobs	-3372
=0.0	-3373
escriptor	-3374
asyncio	-3375
Set	-3376
prototype	-3377
▁rank	-3378
classmethod	-3379
▁Dict	-3380
▁build	-3381
=2,	-3382
freq	-3383
03,	-3384
repo	-3385
▁already	-3386
TR	-3387
▁Use	-3388
implementation	-3389
▁pers	-3390
entity	-3391
causal	-3392
cause	-3393
ian	-3394
oss	-3395
properties	-3396
Valid	-3397
347	-3398
tags	-3399
57,	-3400
FP	-3401
▁Th	-3402
delete	-3403
multimodal	-3404
▁Whether	-3405
177	-3406
Add	-3407
ED	-3408
188	-3409
aw	-3410
▁headers	-3411
ear	-3412
▁enumerate	-3413
300	-3414
▁see	-3415
▁world	-3416
stores	-3417
▁retrie	-3418
collection	-3419
▁callback	-3420
▁additional	-3421
▁collection	-3422
UM	-3423
▁cu	-3424
▁32	-3425
pp	-3426
▁ل	-3427
Comp	-3428
▁sign	-3429
CopyrightText	-3430
▁Met	-3431
69,	-3432
687	-3433
▁mon	-3434
▁arch	-3435
▁rope	-3436
▁0.025	-3437
▁masks	-3438
structured	-3439
157	-3440
189	-3441
▁).	-3442
147	-3443
rotary	-3444
=(	-3445
]):	-3446
depth	-3447
▁BaseModelOutput	-3448
Audio	-3449
▁types	-3450
Not	-3451
▁[@	-3452
▁:]	-3453
▁Ro	-3454
ung	-3455
▁handl	-3456
quantization	-3457
padded	-3458
schem	-3459
▁python	-3460
celerator	-3461
uch	-3462
▁Note	-3463
def	-3464
play	-3465
matrix	-3466
Params	-3467
▁prompts	-3468
original	-3469
▁because	-3470
378	-3471
earch	-3472
random	-3473
▁Ser	-3474
MSNorm	-3475
ва	-3476
other	-3477
datasets	-3478
▁way	-3479
pends	-3480
ção	-3481
Backend	-3482
prefill	-3483
uilder	-3484
inference	-3485
txt	-3486
=0,	-3487
rows	-3488
349	-3489
387	-3490
Web	-3491
loy	-3492
▁9	-3493
167	-3494
GPT	-3495
present	-3496
▁usage	-3497
OP	-3498
▁returned	-3499
▁save	-3500
▁status	-3501
speech	-3502
pi	-3503
iew	-3504
itect	-3505
329	-3506
▁ins	-3507
148	-3508
ffic	-3509
[0,	-3510
cast	-3511
loaded	-3512
ки	-3513
▁ens	-3514
Reply	-3515
stats	-3516
▁Attention	-3517
ves	-3518
til	-3519
cer	-3520
▁row	-3521
▁padded	-3522
ways	-3523
058	-3524
PRE	-3525
5_	-3526
Any	-3527
__.	-3528
6",	-3529
erry	-3530
▁idx	-3531
же	-3532
Ro	-3533
abs	-3534
▁score	-3535
357	-3536
UP	-3537
199	-3538
129	-3539
307	-3540
▁enable	-3541
379	-3542
Start	-3543
▁fail	-3544
▁correct	-3545
contiguous	-3546
ENT	-3547
rms	-3548
Size	-3549
unter	-3550
Stream	-3551
after	-3552
▁yield	-3553
lin	-3554
139	-3555
rt	-3556
265	-3557
178	-3558
▁"4	-3559
310	-3560
lash	-3561
▁Generation	-3562
▁assistant	-3563
267	-3564
328	-3565
▁order	-3566
▁ein	-3567
▁Gemma	-3568
odular	-3569
alias	-3570
1.0	-3571
▁0;	-3572
▁256,	-3573
shared	-3574
=1)	-3575
:]	-3576
ba	-3577
198	-3578
▁ge	-3579
(-1,	-3580
▁operation	-3581
XPEC	-3582
XPECTED	-3583
Code	-3584
ler	-3585
attributes	-3586
ji	-3587
▁Eng	-3588
umber	-3589
▁Cont	-3590
apes	-3591
▁128	-3592
throp	-3593
olution	-3594
▁supports	-3595
144	-3596
thropic	-3597
qkv	-3598
▁User	-3599
します	-3600
readers	-3601
377	-3602
ends	-3603
nb	-3604
normalize	-3605
▁scheduler	-3606
▁Com	-3607
lections	-3608
mantic	-3609
388	-3610
0,0,	-3611
ings	-3612
▁states	-3613
▁parallel	-3614
Sh	-3615
=-1)	-3616
eeded	-3617
▁atol	-3618
detail	-3619
▁-0.027	-3620
▁processed	-3621
reduce	-3622
▁1.0	-3623
><	-3624
ru	-3625
NT	-3626
eg	-3627
words	-3628
36,	-3629
58,	-3630
▁<=	-3631
169	-3632
EST	-3633
ef	-3634
▁cannot	-3635
де	-3636
Async	-3637
197	-3638
359	-3639
▁Markdown	-3640
▁있습니다	-3641
629	-3642
shot	-3643
stall	-3644
▁activation	-3645
▁deprecated	-3646
Dire	-3647
bf	-3648
06,	-3649
▁"2023-03	-3650
Template	-3651
################	-3652
▁encoded	-3653
158	-3654
▁und	-3655
transformer	-3656
▁Col	-3657
▁throw	-3658
▁DEFAULT	-3659
▁every	-3660
roll	-3661
bfloat	-3662
holder	-3663
ov	-3664
strip	-3665
scheduler	-3666
358	-3667
pair	-3668
lengths	-3669
▁و	-3670
697	-3671
rag	-3672
▁Team	-3673
648	-3674
sole	-3675
▁modal	-3676
モデ	-3677
▁proper	-3678
=4	-3679
br	-3680
▁sm	-3681
BA	-3682
13_	-3683
▁typeof	-3684
stage	-3685
agic	-3686
TEXT	-3687
pace	-3688
ackends	-3689
▁during	-3690
lap	-3691
headers	-3692
MoE	-3693
FF	-3694
hain	-3695
658	-3696
(0)	-3697
▁});	-3698
▁"{{	-3699
▁template	-3700
And	-3701
ado	-3702
134	-3703
▁asyncio	-3704
By	-3705
seg	-3706
like	-3707
678	-3708
commit	-3709
Object	-3710
ffect	-3711
▁Ad	-3712
cket	-3713
657	-3714
ada	-3715
Parameter	-3716
324	-3717
104	-3718
354	-3719
}\	-3720
▁"2023-04-	-3721
229	-3722
647	-3723
▁Inc	-3724
▁iter	-3725
Chunk	-3726
▁lib	-3727
ilation	-3728
▁inference	-3729
ión	-3730
ublic	-3731
left	-3732
cf	-3733
699	-3734
ybrid	-3735
▁dimension	-3736
rowser	-3737
149	-3738
"`	-3739
folder	-3740
▁users	-3741
▁given	-3742
179	-3743
348	-3744
012	-3745
▁der	-3746
▁chunks	-3747
ux	-3748
ма	-3749
▁bir	-3750
liu	-3751
agraph	-3752
159	-3753
207	-3754
105	-3755
▁1]	-3756
apers	-3757
fields	-3758
wav	-3759
하는	-3760
▁were	-3761
choice	-3762
345	-3763
▁0.027	-3764
US	-3765
oral	-3766
Extra	-3767
eos	-3768
User	-3769
▁sample	-3770
respon	-3771
runner	-3772
204	-3773
nv	-3774
ми	-3775
325	-3776
ones	-3777
698	-3778
モデル	-3779
}/	-3780
689	-3781
ift	-3782
ton	-3783
▁automatic	-3784
dense	-3785
▁these	-3786
starts	-3787
▁When	-3788
world	-3789
[[	-3790
style	-3791
600	-3792
[...,	-3793
KV	-3794
cm	-3795
PO	-3796
▁Per	-3797
resolution	-3798
Select	-3799
▁edit	-3800
lower	-3801
Is	-3802
flatten	-3803
)`	-3804
arge	-3805
column	-3806
ged	-3807
▁unittest	-3808
644	-3809
-3	-3810
▁annot	-3811
5)	-3812
perm	-3813
▁PreTrained	-3814
▁gu	-3815
FE	-3816
لى	-3817
▁".	-3818
399	-3819
302	-3820
asic	-3821
agicMock	-3822
▁Get	-3823
VER	-3824
ks	-3825
orted	-3826
▁enabled	-3827
=0.	-3828
number	-3829
可以	-3830
649	-3831
▁syn	-3832
edge	-3833
chunks	-3834
Att	-3835
▁added	-3836
▁до	-3837
▁Mock	-3838
▁created	-3839
ени	-3840
bug	-3841
=0)	-3842
perty	-3843
▁rec	-3844
194	-3845
309	-3846
▁*,	-3847
659	-3848
ators	-3849
166	-3850
compute	-3851
▁cross	-3852
arguments	-3853
jection	-3854
zero	-3855
195	-3856
erryj	-3857
ixed	-3858
▁channel	-3859
▁❌	-3860
aved	-3861
nown	-3862
erryjliu	-3863
descriptor	-3864
184	-3865
▁PyTorch	-3866
tol	-3867
distributed	-3868
mail	-3869
vas	-3870
ique	-3871
▁tip	-3872
latest	-3873
defaults	-3874
▁correspon	-3875
MAP	-3876
▁Please	-3877
Vec	-3878
▁cre	-3879
▁defin	-3880
Parallel	-3881
Cl	-3882
205	-3883
det	-3884
"]["	-3885
raises	-3886
choices	-3887
classification	-3888
▁64	-3889
▁trunc	-3890
fail	-3891
Handler	-3892
Embeddings	-3893
Graph	-3894
▁noqa	-3895
125	-3896
▁IDs	-3897
▁den	-3898
164	-3899
VLLM	-3900
▁streaming	-3901
Max	-3902
1]	-3903
amed	-3904
lector	-3905
root	-3906
▁avoid	-3907
tw	-3908
ibil	-3909
ily	-3910
694	-3911
cap	-3912
ente	-3913
▁actual	-3914
608	-3915
224	-3916
AG	-3917
▁ve	-3918
adapt	-3919
pipeline	-3920
threshold	-3921
▁represent	-3922
enable	-3923
rivate	-3924
Arg	-3925
gradient	-3926
▁Ver	-3927
sdp	-3928
▁evalu	-3929
los	-3930
▁_,	-3931
▁الم	-3932
lette	-3933
▁compat	-3934
dummy	-3935
flat	-3936
722	-3937
transfer	-3938
></	-3939
▁clean	-3940
multiple	-3941
ho	-3942
174	-3943
▁da	-3944
icrosoft	-3945
▁step	-3946
▁"7	-3947
Of	-3948
684	-3949
▁imple	-3950
▁reference	-3951
208	-3952
rant	-3953
seed	-3954
vert	-3955
▁selected	-3956
588	-3957
26,	-3958
304	-3959
resolve	-3960
▁reason	-3961
Callback	-3962
▁scaling	-3963
ja	-3964
Group	-3965
As	-3966
];	-3967
624	-3968
▁BLOCK	-3969
operation	-3970
ird	-3971
▁needed	-3972
067	-3973
abc	-3974
aract	-3975
308	-3976
sec	-3977
alt	-3978
▁examples	-3979
▁Be	-3980
▁Annot	-3981
[1],	-3982
ocker	-3983
istent	-3984
='	-3985
ны	-3986
bot	-3987
▁pattern	-3988
33,	-3989
".	-3990
▁PI	-3991
▁directory	-3992
Gemma	-3993
▁-0.028	-3994
lish	-3995
▁conversation	-3996
385	-3997
predi	-3998
▁tasks	-3999
velo	-4000
▁calls	-4001
cum	-4002
arlette	-4003
override	-4004
▁shared	-4005
ست	-4006
394	-4007
OCR	-4008
▁second	-4009
ando	-4010
ABC	-4011
▁attentions	-4012
case	-4013
▁20	-4014
ndarray	-4015
issing	-4016
▁got	-4017
▁다	-4018
▁returns	-4019
complete	-4020
cb	-4021
uster	-4022
654	-4023
87,	-4024
135	-4025
609	-4026
supports	-4027
pg	-4028
355	-4029
Memory	-4030
66,	-4031
worker	-4032
()`	-4033
▁seg	-4034
Detr	-4035
▁inclu	-4036
remove	-4037
Head	-4038
ци	-4039
▁ч	-4040
305	-4041
▁"#1	-4042
answer	-4043
Validation	-4044
079	-4045
ism	-4046
ooling	-4047
Options	-4048
Process	-4049
▁les	-4050
▁prefill	-4051
10,	-4052
6.	-4053
defin	-4054
BaseModel	-4055
999	-4056
6968	-4057
iece	-4058
▁Query	-4059
██	-4060
px	-4061
212	-4062
**,	-4063
227	-4064
gin	-4065
▁could	-4066
ня	-4067
allow	-4068
▁Only	-4069
pooling	-4070
▁im	-4071
▁view	-4072
▁Object	-4073
▁Example	-4074
jerryjliu	-4075
ummar	-4076
seqlens	-4077
▁queries	-4078
lem	-4079
▁stack	-4080
008	-4081
EAD	-4082
▁timeout	-4083
▁updates	-4084
projection	-4085
375	-4086
ular	-4087
samples	-4088
▁most	-4089
WithPast	-4090
695	-4091
mak	-4092
▁produ	-4093
145	-4094
aper	-4095
▁cal	-4096
▁-0.029	-4097
qwen	-4098
mpletions	-4099
CP	-4100
conds	-4101
217	-4102
Speech	-4103
▁environment	-4104
97,	-4105
redential	-4106
temperature	-4107
165	-4108
SION	-4109
omet	-4110
▁render	-4111
▁collections	-4112
large	-4113
PING	-4114
▁mean	-4115
MP	-4116
}",	-4117
▁place	-4118
▁EXPECTED	-4119
225	-4120
▁export	-4121
▁fast	-4122
▁separ	-4123
Question	-4124
▁"<	-4125
CL	-4126
gress	-4127
▁..	-4128
▁manager	-4129
](../	-4130
▁merge	-4131
▁512	-4132
mem	-4133
une	-4134
▁New	-4135
Loader	-4136
▁think	-4137
▁role	-4138
▁openai	-4139
outer	-4140
────────	-4141
▁MagicMock	-4142
Case	-4143
154	-4144
Gen	-4145
▁0.028	-4146
strategy	-4147
▁predict	-4148
627	-4149
▁bo	-4150
185	-4151
:\	-4152
before	-4153
ulative	-4154
thread	-4155
▁find	-4156
,)	-4157
pydantic	-4158
ABLE	-4159
cached	-4160
▁replace	-4161
)):	-4162
FOR	-4163
395	-4164
▁decode	-4165
aring	-4166
▁router	-4167
instr	-4168
Python	-4169
assets	-4170
344	-4171
579	-4172
▁tp	-4173
604	-4174
▁Can	-4175
validate	-4176
segmentation	-4177
▁VectorStore	-4178
(1)	-4179
▁не	-4180
▁"2023-03-	-4181
▁(!	-4182
uff	-4183
Po	-4184
}}":	-4185
▁Engine	-4186
aa	-4187
09,	-4188
ctories	-4189
ForSequence	-4190
▁[0,	-4191
sliding	-4192
▁implementation	-4193
05-	-4194
vanced	-4195
▁Import	-4196
▁poss	-4197
▁remove	-4198
leted	-4199
▁argument	-4200
23,	-4201
({"	-4202
▁handle	-4203
ле	-4204
▁mat	-4205
1-	-4206
uper	-4207
alf	-4208
655	-4209
ChatMessage	-4210
ists	-4211
▁Function	-4212
▁fastapi	-4213
curity	-4214
mul	-4215
▁previous	-4216
Chain	-4217
057	-4218
ats	-4219
▁still	-4220
▁containing	-4221
ере	-4222
▁integr	-4223
175	-4224
Former	-4225
155	-4226
▁tim	-4227
package	-4228
479	-4229
none	-4230
Check	-4231
▁Quant	-4232
▁cached	-4233
▁temperature	-4234
228	-4235
▁uv	-4236
602	-4237
eager	-4238
▁CUDA	-4239
orary	-4240
fixture	-4241
으로	-4242
▁hash	-4243
▁math	-4244
▁CPU	-4245
papers	-4246
TER	-4247
▁factor	-4248
dist	-4249
▁-0.04	-4250
367	-4251
small	-4252
2":	-4253
▁ي	-4254
computed	-4255
Le	-4256
ived	-4257
COU	-4258
eng	-4259
▁att	-4260
cheduled	-4261
▁properly	-4262
(\	-4263
▁repo	-4264
▁show	-4265
transform	-4266
::	-4267
625	-4268
iteral	-4269
ку	-4270
afet	-4271
New	-4272
▁rot	-4273
▁loading	-4274
▁Sam	-4275
124	-4276
685	-4277
▁Inter	-4278
MAPPING	-4279
idate	-4280
facebook	-4281
Us	-4282
22,	-4283
▁"109	-4284
bb	-4285
▁pres	-4286
▁Math	-4287
607	-4288
minal	-4289
▁Lang	-4290
ся	-4291
▁multimodal	-4292
cu	-4293
bos	-4294
▁capt	-4295
fied	-4296
COUNT	-4297
▁cur	-4298
▁mapping	-4299
additional	-4300
RI	-4301
▁é	-4302
645	-4303
generated	-4304
mar	-4305
▁si	-4306
alk	-4307
▁level	-4308
▁payload	-4309
slow	-4310
▁pair	-4311
▁running	-4312
fy	-4313
▁أ	-4314
63,	-4315
annels	-4316
stract	-4317
▁Iter	-4318
▁control	-4319
こと	-4320
paths	-4321
tree	-4322
▁command	-4323
environ	-4324
dire	-4325
▁sw	-4326
▁[1,	-4327
Create	-4328
047	-4329
mma	-4330
null	-4331
▁[`~	-4332
Schema	-4333
oolean	-4334
force	-4335
мен	-4336
▁old	-4337
phys	-4338
▁0.04	-4339
▁Param	-4340
▁10,	-4341
rior	-4342
▁Annotated	-4343
ibility	-4344
▁objects	-4345
▁serial	-4346
▁0.5	-4347
▁Support	-4348
▁existing	-4349
invoke	-4350
▁chore	-4351
ampled	-4352
mented	-4353
▁action	-4354
▁ع	-4355
▁optim	-4356
▁implement	-4357
▁Initialize	-4358
365	-4359
ffers	-4360
undle	-4361
▁0.029	-4362
gt	-4363
emoji	-4364
▁specified	-4365
ür	-4366
▁rtol	-4367
628	-4368
ocê	-4369
▁contains	-4370
▁handler	-4371
startswith	-4372
▁automatically	-4373
pendency	-4374
▁completion	-4375
)\	-4376
fde	-4377
3154	-4378
ebook	-4379
${	-4380
expr	-4381
validation	-4382
218	-4383
▁sys	-4384
▁а	-4385
Dis	-4386
true	-4387
▁directories	-4388
▁again	-4389
▁reader	-4390
ising	-4391
214	-4392
Connector	-4393
QU	-4394
wh	-4395
ESS	-4396
enabled	-4397
▁options	-4398
009	-4399
319	-4400
▁parse	-4401
aces	-4402
▁func	-4403
▁Ar	-4404
ctionary	-4405
▁patches	-4406
087	-4407
mamba	-4408
TesterMixin	-4409
/54	-4410
314	-4411
▁real	-4412
▁appro	-4413
batched	-4414
▁і	-4415
29,	-4416
模型	-4417
097	-4418
opt	-4419
tag	-4420
istry	-4421
▁adapt	-4422
088	-4423
▁[{"	-4424
▁endpoint	-4425
hello	-4426
history	-4427
▁Vllm	-4428
Directory	-4429
iny	-4430
RMSNorm	-4431
ці	-4432
312	-4433
▁art	-4434
ploy	-4435
▁events	-4436
dices	-4437
vl	-4438
ام	-4439
ling	-4440
entry	-4441
▁-0.022	-4442
▁issue	-4443
▁specify	-4444
014	-4445
099	-4446
でき	-4447
▁iç	-4448
▁Fil	-4449
▁Defaults	-4450
▁em	-4451
▁ChatMessage	-4452
▁ca	-4453
kill	-4454
▁buil	-4455
▁runtime	-4456
Mask	-4457
▁always	-4458
▁let	-4459
PUT	-4460
VisionConfig	-4461
▁package	-4462
metrics	-4463
▁maximum	-4464
▁background	-4465
ло	-4466
_0	-4467
▁below	-4468
(1	-4469
once	-4470
bad	-4471
▁zip	-4472
scope	-4473
hing	-4474
retrie	-4475
handler	-4476
hisper	-4477
keypatch	-4478
OMPT	-4479
▁Ass	-4480
▁fused	-4481
▁correctly	-4482
▁15	-4483
▁classification	-4484
▁chang	-4485
ranscri	-4486
▁left	-4487
▁knowledge	-4488
▁Train	-4489
single	-4490
259	-4491
itor	-4492
▁fields	-4493
Engine	-4494
▁doesn	-4495
▁Simple	-4496
▁relative	-4497
▁converted	-4498
▁0),	-4499
▁modi	-4500
ータ	-4501
fast	-4502
createElement	-4503
077	-4504
ignore	-4505
▁bump	-4506
▁AIMessage	-4507
▁Face	-4508
storage	-4509
605	-4510
▁4.	-4511
▁etc	-4512
autogen	-4513
▁dropout	-4514
064	-4515
▁obj	-4516
▁shard	-4517
itecture	-4518
Gener	-4519
texts	-4520
callbacks	-4521
369	-4522
▁Number	-4523
▁ва	-4524
▁та	-4525
▁"826	-4526
015	-4527
)`):	-4528
▁best	-4529
sparse	-4530
▁"110	-4531
capt	-4532
cker	-4533
▁mark	-4534
▁take	-4535
icy	-4536
codes	-4537
335	-4538
▁FP	-4539
▁tmp	-4540
▁warnings	-4541
599	-4542
▁Data	-4543
▁spatial	-4544
Server	-4545
▁buffer	-4546
kernels	-4547
permute	-4548
▁-1)	-4549
098	-4550
Act	-4551
▁}}	-4552
▁items	-4553
ordin	-4554
loads	-4555
038	-4556
icorn	-4557
249	-4558
ipy	-4559
257	-4560
62,	-4561
7223.	-4562
6968679	-4563
/3345367	-4564
internal	-4565
▁"8260",	-4566
▁"3345367	-4567
▁MultiModal	-4568
17648265216",	-4569
17648265216/54	-4570
078	-4571
です	-4572
uccess	-4573
▁paper	-4574
-7	-4575
-5,	-4576
▁",	-4577
ани	-4578
▁orig	-4579
)}	-4580
OTE	-4581
look	-4582
▁common	-4583
▁modeling	-4584
▁я	-4585
prev	-4586
uint	-4587
▁even	-4588
Optional	-4589
074	-4590
stand	-4591
'),	-4592
Only	-4593
adapter	-4594
▁details	-4595
スト	-4596
▁slice	-4597
▁small	-4598
▁Error	-4599
research	-4600
cing	-4601
▁Message	-4602
027	-4603
▁{},	-4604
```	-4605
▁가	-4606
318	-4607
ram	-4608
▁про	-4609
_4	-4610
297	-4611
364	-4612
597	-4613
edia	-4614
**.	-4615
maps	-4616
EM	-4617
CLIP	-4618
osition	-4619
ід	-4620
iment	-4621
▁strict	-4622
▁formatt	-4623
quantized	-4624
)).	-4625
▁0.022	-4626
674	-4627
065	-4628
049	-4629
repeat	-4630
▁called	-4631
що	-4632
]),	-4633
Hub	-4634
▁responses	-4635
▁attributes	-4636
▁ا	-4637
infer	-4638
01,	-4639
▁ف	-4640
TYPE	-4641
OK	-4642
▁5,	-4643
▁Le	-4644
igned	-4645
▁link	-4646
337	-4647
215	-4648
288	-4649
▁Do	-4650
279	-4651
▁script	-4652
deps	-4653
▁exp	-4654
▁Size	-4655
039	-4656
tasks	-4657
▁Update	-4658
213	-4659
▁dé	-4660
▁cast	-4661
▁vous	-4662
▁connection	-4663
028	-4664
arn	-4665
▁ф	-4666
Please	-4667
child	-4668
004	-4669
[0]["	-4670
Vector	-4671
ET	-4672
ру	-4673
-0.	-4674
void	-4675
277	-4676
▁pour	-4677
258	-4678
short	-4679
offsets	-4680
erta	-4681
Field	-4682
247	-4683
hn	-4684
ayout	-4685
59,	-4686
nap	-4687
ster	-4688
▁resol	-4689
tax	-4690
234	-4691
gemm	-4692
gex	-4693
hfo	-4694
▁lat	-4695
▁worker	-4696
339	-4697
iling	-4698
313	-4699
cos	-4700
ixels	-4701
069	-4702
▁256	-4703
▁done	-4704
fficient	-4705
210	-4706
eek	-4707
▁No	-4708
debug	-4709
anı	-4710
▁{'	-4711
tral	-4712
▁imports	-4713
provider	-4714
thing	-4715
635	-4716
OS	-4717
▁"2023-05-	-4718
3)	-4719
ending	-4720
lor	-4721
▁Mapping	-4722
059	-4723
278	-4724
317	-4725
(-1)	-4726
▁для	-4727
checkpointing	-4728
219	-4729
035	-4730
368	-4731
617	-4732
drop	-4733
018	-4734
▁tags	-4735
238	-4736
dot	-4737
▁host	-4738
▁dummy	-4739
639	-4740
WE	-4741
ea	-4742
▁define	-4743
tl	-4744
▁performance	-4745
во	-4746
▁own	-4747
>",	-4748
Answer	-4749
016	-4750
interface	-4751
BERT	-4752
structor	-4753
▁masked	-4754
rides	-4755
counter	-4756
▁ن	-4757
bose	-4758
268	-4759
578	-4760
termin	-4761
dynamic	-4762
missing	-4763
332	-4764
▁TOD	-4765
248	-4766
025	-4767
fact	-4768
tolist	-4769
▁backbone	-4770
019	-4771
0-	-4772
equal	-4773
chron	-4774
▁middleware	-4775
action	-4776
mod	-4777
▁`/	-4778
▁TODO	-4779
▁such	-4780
8000	-4781
active	-4782
017	-4783
037	-4784
afe	-4785
005	-4786
bbox	-4787
sequences	-4788
=2	-4789
289	-4790
▁об	-4791
colab	-4792
layout	-4793
▁channels	-4794
089	-4795
269	-4796
ValueError	-4797
randn	-4798
▁many	-4799
▁Code	-4800
link	-4801
ctx	-4802
ups	-4803
dition	-4804
bl	-4805
scales	-4806
itive	-4807
/)	-4808
triton	-4809
▁benchmark	-4810
Doc	-4811
▁ti	-4812
free	-4813
ower	-4814
▁had	-4815
PROMPT	-4816
ية	-4817
338	-4818
extend	-4819
237	-4820
675	-4821
Per	-4822
▁since	-4823
ari	-4824
predict	-4825
▁lambda	-4826
▁loader	-4827
./	-4828
Middleware	-4829
.0.0.	-4830
▁column	-4831
TestCase	-4832
▁remo	-4833
deep	-4834
gemma	-4835
▁array	-4836
arm	-4837
EL	-4838
▁П	-4839
239	-4840
▁MoE	-4841
▁rest	-4842
▁info	-4843
▁attribute	-4844
068	-4845
Red	-4846
pers	-4847
ación	-4848
fake	-4849
hook	-4850
264	-4851
்க	-4852
▁"__	-4853
enter	-4854
▁12	-4855
entic	-4856
▁ensure	-4857
ina	-4858
▁component	-4859
032	-4860
054	-4861
298	-4862
49,	-4863
cle	-4864
▁VllmConfig	-4865
curs	-4866
ought	-4867
▁write	-4868
Pipeline	-4869
294	-4870
Session	-4871
044	-4872
614	-4873
▁una	-4874
plicit	-4875
▁visual	-4876
▁body	-4877
MLP	-4878
ViT	-4879
components	-4880
045	-4881
▁1),	-4882
▁segmentation	-4883
where	-4884
▁Input	-4885
location	-4886
pet	-4887
▁allowed	-4888
ви	-4889
299	-4890
612	-4891
dirname	-4892
▁trainer	-4893
638	-4894
▁chain	-4895
▁"^	-4896
232	-4897
▁needs	-4898
accelerator	-4899
235	-4900
lambda	-4901
ação	-4902
▁det	-4903
▁once	-4904
316	-4905
clip	-4906
632	-4907
diff	-4908
kdim	-4909
IO	-4910
77,	-4911
handle	-4912
nonkdim	-4913
▁Output	-4914
password	-4915
664	-4916
▁provid	-4917
▁computed	-4918
مو	-4919
(0	-4920
iform	-4921
497	-4922
▁como	-4923
▁library	-4924
▁simple	-4925
▁Gener	-4926
configs	-4927
filters	-4928
▁sequences	-4929
034	-4930
▁Load	-4931
called	-4932
strict	-4933
timeout	-4934
▁missing	-4935
etime	-4936
Delete	-4937
contain	-4938
▁ph	-4939
▁Dat	-4940
cellation	-4941
8.	-4942
615	-4943
665	-4944
▁As	-4945
find	-4946
▁impro	-4947
637	-4948
▁tag	-4949
▁future	-4950
▁Det	-4951
▁à	-4952
xfp	-4953
rock	-4954
igger	-4955
ressed	-4956
\":	-4957
▁Str	-4958
umanMessage	-4959
uv	-4960
pes	-4961
▁gre	-4962
▁being	-4963
Imple	-4964
▁large	-4965
allback	-4966
}'	-4967
▁pydantic	-4968
001_	-4969
▁verify	-4970
atter	-4971
▁TestClient	-4972
ди	-4973
schemas	-4974
ار	-4975
▁groups	-4976
▁fmt	-4977
▁std	-4978
Property	-4979
Retriever	-4980
pha	-4981
payload	-4982
▁sorted	-4983
▁please	-4984
...":	-4985
Expert	-4986
ValidationError	-4987
lements	-4988
uri	-4989
▁handling	-4990
▁did	-4991
▁mod	-4992
▁Verify	-4993
bind	-4994
tegr	-4995
Processing	-4996
ATT	-4997
FIG	-4998
visual	-4999
▁remote	-5000
staticmethod	-5001
▁File	-5002
▁trust	-5003
plied	-5004
issues	-5005
ulation	-5006
crop	-5007
▁dynamically	-5008
itch	-5009
2/	-5010
▁loc	-5011
▁rename	-5012
▁إ	-5013
му	-5014
▁-->	-5015
Instruct	-5016
▁filters	-5017
▁modality	-5018
▁disable	-5019
▁possible	-5020
access	-5021
.*.	-5022
085	-5023
=0	-5024
Om	-5025
02-	-5026
029	-5027
▁الت	-5028
spatial	-5029
[2	-5030
}:	-5031
▁В	-5032
assertIs	-5033
084	-5034
667	-5035
socket	-5036
backends	-5037
094	-5038
defined	-5039
▁speech	-5040
си	-5041
partition	-5042
itter	-5043
▁WebUI	-5044
dataclass	-5045
577	-5046
634	-5047
Seq	-5048
cogn	-5049
▁logic	-5050
factory	-5051
just	-5052
tro	-5053
▁present	-5054
ipynb	-5055
pip	-5056
based	-5057
▁frames	-5058
127.0.0.	-5059
UNC	-5060
ances	-5061
275	-5062
]]:	-5063
center	-5064
▁dictionary	-5065
tection	-5066
618	-5067
mistral	-5068
unic	-5069
▁register	-5070
All	-5071
day	-5072
pred	-5073
▁için	-5074
▁working	-5075
ENAI	-5076
kpack	-5077
▁bytes	-5078
619	-5079
opied	-5080
ır	-5081
055	-5082
bet	-5083
ова	-5084
napshot	-5085
Created	-5086
MultiModal	-5087
▁Sw	-5088
▁accept	-5089
gather	-5090
▁depth	-5091
__,	-5092
▁を	-5093
2(	-5094
END	-5095
Implemented	-5096
▁similarity	-5097
[0])	-5098
wrap	-5099
▁Runnable	-5100
▁transform	-5101
487	-5102
Extractor	-5103
254	-5104
▁fine	-5105
mos	-5106
▁execution	-5107
245	-5108
▁🤗	-5109
99,	-5110
nc	-5111
598	-5112
▁Doc	-5113
ні	-5114
587	-5115
je	-5116
010	-5117
Fast	-5118
Pl	-5119
98",	-5120
iver	-5121
▁experts	-5122
TextConfig	-5123
poch	-5124
requ	-5125
Batch	-5126
include	-5127
▁option	-5128
Return	-5129
bits	-5130
ranch	-5131
▁fetch	-5132
->	-5133
embers	-5134
quival	-5135
▁к	-5136
polate	-5137
255	-5138
users	-5139
ImplementedError	-5140
▁por	-5141
classic	-5142
kt	-5143
sig	-5144
Array	-5145
(-1	-5146
668	-5147
eger	-5148
lava	-5149
▁ist	-5150
▁"107	-5151
▁steps	-5152
ended	-5153
075	-5154
244	-5155
="#	-5156
qk	-5157
▁linear	-5158
sql	-5159
riter	-5160
489	-5161
Bytes	-5162
▁rece	-5163
structions	-5164
▁word	-5165
4-	-5166
rocm	-5167
▁Mask	-5168
Filter	-5169
)))	-5170
льз	-5171
aving	-5172
▁conf	-5173
Tip	-5174
counts	-5175
477	-5176
▁numpy	-5177
sdpa	-5178
▁Group	-5179
295	-5180
?":	-5181
ranite	-5182
celerate	-5183
095	-5184
evalu	-5185
packed	-5186
-3.	-5187
▁sync	-5188
▁pol	-5189
▁대	-5190
havi	-5191
relative	-5192
structure	-5193
478	-5194
pid	-5195
FUNC	-5196
▁102	-5197
▁Azure	-5198
="/	-5199
▁fn	-5200
aged	-5201
bol	-5202
uuid	-5203
▁causal	-5204
Dat	-5205
▁structured	-5206
ls	-5207
▁folder	-5208
▁ک	-5209
impl	-5210
ocal	-5211
▁port	-5212
registry	-5213
▁variable	-5214
616	-5215
=3,	-5216
Omni	-5217
▁Over	-5218
getenv	-5219
Invalid	-5220
3]	-5221
inf	-5222
Exec	-5223
GI	-5224
Ne	-5225
[2]	-5226
▁failed	-5227
STR	-5228
▁offset	-5229
plan	-5230
draft	-5231
▁OAuth	-5232
sentence	-5233
▁might	-5234
▁Embedding	-5235
_{	-5236
▁"$	-5237
ural	-5238
▁expect	-5239
son	-5240
PAR	-5241
tok	-5242
Edge	-5243
weather	-5244
▁autogen	-5245
DecoderLayer	-5246
peak	-5247
▁complete	-5248
чи	-5249
"><	-5250
595	-5251
669	-5252
agger	-5253
128,	-5254
▁기	-5255
▁(1,	-5256
▁você	-5257
Experts	-5258
▁Access	-5259
-1.	-5260
274	-5261
print	-5262
ugin	-5263
ants	-5264
epS	-5265
▁!0,	-5266
loop	-5267
499	-5268
▁Fix	-5269
PRECA	-5270
PromptTemplate	-5271
download	-5272
284	-5273
edges	-5274
tokenization	-5275
ados	-5276
▁1024	-5277
613	-5278
888	-5279
▁zu	-5280
ternal	-5281
mla	-5282
[:-1	-5283
tile	-5284
bucket	-5285
▁somet	-5286
した	-5287
498	-5288
▁2:	-5289
fusion	-5290
▁batched	-5291
▁standard	-5292
ذج	-5293
▁SQL	-5294
▁know	-5295
ampler	-5296
▁eos	-5297
sign	-5298
▁summary	-5299
]`	-5300
000,	-5301
▁release	-5302
▁temporal	-5303
488	-5304
ını	-5305
▁вы	-5306
INE	-5307
▁...,	-5308
uss	-5309
Time	-5310
▁ImportError	-5311
013	-5312
▁Pass	-5313
metric	-5314
ALL	-5315
concat	-5316
levant	-5317
▁exact	-5318
285	-5319
ough	-5320
▁ctx	-5321
Router	-5322
▁moe	-5323
String	-5324
▁sliding	-5325
background	-5326
▁Ac	-5327
rescale	-5328
▁short	-5329
cr	-5330
=0.0,	-5331
record	-5332
▁modular	-5333
constexpr	-5334
589	-5335
▁MODEL	-5336
▁texts	-5337
▁scales	-5338
COM	-5339
ERR	-5340
ble	-5341
▁({	-5342
processed	-5343
▁Transformer	-5344
ча	-5345
ital	-5346
Thread	-5347
install	-5348
▁monkeypatch	-5349
▁dist	-5350
▁corresponding	-5351
serial	-5352
입니다	-5353
MM	-5354
▁cud	-5355
shapes	-5356
▁methods	-5357
go	-5358
494	-5359
▁projection	-5360
9.	-5361
BASE	-5362
aming	-5363
DS	-5364
Weight	-5365
▁Literal	-5366
▁charact	-5367
▁Extra	-5368
▁equal	-5369
▁Index	-5370
ymbol	-5371
updated	-5372
Work	-5373
Inter	-5374
ively	-5375
PRECATED	-5376
Allow	-5377
▁annotations	-5378
decor	-5379
▁indic	-5380
▁works	-5381
qrt	-5382
://127.0.0.	-5383
perties	-5384
}`	-5385
ード	-5386
▁jo	-5387
Role	-5388
getattr	-5389
▁huggingface	-5390
char	-5391
▁One	-5392
exception	-5393
board	-5394
builder	-5395
▁parsed	-5396
Ad	-5397
sol	-5398
▁disc	-5399
▁Union	-5400
aching	-5401
DEFAULT	-5402
security	-5403
一个	-5404
ros	-5405
questions	-5406
site	-5407
buffers	-5408
mporary	-5409
544	-5410
▁Google	-5411
trunc	-5412
redentials	-5413
empt	-5414
ives	-5415
ports	-5416
jpg	-5417
Method	-5418
=_	-5419
hr	-5420
dims	-5421
▁bl	-5422
endpoint	-5423
Stat	-5424
▁dec	-5425
▁words	-5426
dec	-5427
numpy	-5428
▁ke	-5429
▁mis	-5430
▁los	-5431
▁î	-5432
▁documentation	-5433
▁pred	-5434
Rec	-5435
produ	-5436
▁Glm	-5437
▁calcul	-5438
▁errors	-5439
▁...]	-5440
IS	-5441
may	-5442
▁PP	-5443
▁override	-5444
ANT	-5445
classifier	-5446
optim	-5447
usedMoE	-5448
importer	-5449
▁prediction	-5450
++)	-5451
calling	-5452
tokenizers	-5453
▁бу	-5454
reset	-5455
▁settings	-5456
▁IN	-5457
light	-5458
posit	-5459
header	-5460
detr	-5461
high	-5462
▁може	-5463
LOOK	-5464
QuestionAnswer	-5465
canvas	-5466
gression	-5467
▁ol	-5468
softmax	-5469
ModelTester	-5470
feed	-5471
▁img	-5472
execute	-5473
▁entity	-5474
otary	-5475
594	-5476
ili	-5477
matches	-5478
▁mit	-5479
intro	-5480
▁combin	-5481
▁`--	-5482
ulary	-5483
▁-1.	-5484
nvml	-5485
activ	-5486
▁NOTE	-5487
element	-5488
▁structure	-5489
bd	-5490
tas	-5491
urs	-5492
Color	-5493
474	-5494
ان	-5495
azy	-5496
▁How	-5497
FO	-5498
рист	-5499
second	-5500
ness	-5501
Trainer	-5502
▁stacked	-5503
TML	-5504
▁Log	-5505
▁kull	-5506
▁Models	-5507
▁intern	-5508
▁BatchFeature	-5509
uk	-5510
▁的	-5511
▁dev	-5512
▁sent	-5513
udes	-5514
▁Indices	-5515
annotation	-5516
ChatCompletion	-5517
ras	-5518
cover	-5519
▁httpx	-5520
7.	-5521
610	-5522
▁mak	-5523
▁choice	-5524
indexing	-5525
475	-5526
LOOKUP	-5527
▁along	-5528
ме	-5529
▁matches	-5530
")]	-5531
aml	-5532
Nodes	-5533
similar	-5534
▁partial	-5535
ume	-5536
ToolCall	-5537
▁ax	-5538
unch	-5539
▁truncation	-5540
▁metrics	-5541
assertList	-5542
▁AutoProcessor	-5543
`).	-5544
dumps	-5545
LU	-5546
998	-5547
▁drop	-5548
▁heads	-5549
tegration	-5550
ffn	-5551
obile	-5552
▁RoPE	-5553
▁history	-5554
31,	-5555
▁من	-5556
integrations	-5557
://127.0.0.1:	-5558
emove	-5559
▁deleted	-5560
`].	-5561
▁By	-5562
Tensors	-5563
▁classes	-5564
gre	-5565
▁Weight	-5566
VA	-5567
▁maybe	-5568
▁Name	-5569
][	-5570
場合	-5571
575	-5572
irt	-5573
pixels	-5574
mini	-5575
leave	-5576
▁"108	-5577
assertListEqual	-5578
▁\\	-5579
▁dimensions	-5580
▁operations	-5581
RO	-5582
▁href	-5583
▁Copied	-5584
▁least	-5585
ну	-5586
▁LoRA	-5587
▁Here	-5588
▁rate	-5589
pooler	-5590
pository	-5591
485	-5592
▁-0.026	-5593
▁sum	-5594
▁remain	-5595
▁resized	-5596
=4,	-5597
]`,	-5598
ident	-5599
▁gate	-5600
▁Quantization	-5601
▁packed	-5602
ング	-5603
gra	-5604
()),	-5605
rive	-5606
▁→	-5607
clamp	-5608
completions	-5609
▁Runtime	-5610
PLE	-5611
ordinates	-5612
あり	-5613
584	-5614
877	-5615
clone	-5616
periment	-5617
▁tempfile	-5618
BUI	-5619
спо	-5620
▁vec	-5621
Instance	-5622
microsoft	-5623
▁ChatCompletion	-5624
▁emb	-5625
running	-5626
FN	-5627
▁yet	-5628
TS	-5629
▁HF	-5630
▁pub	-5631
finished	-5632
ople	-5633
secret	-5634
Arguments	-5635
mix	-5636
ted	-5637
▁formatted	-5638
ade	-5639
ale	-5640
eters	-5641
▁////	-5642
Convert	-5643
▁threshold	-5644
▁것	-5645
dig	-5646
Point	-5647
mpleted	-5648
▁database	-5649
▁download	-5650
▁datasets	-5651
abbr	-5652
▁Video	-5653
qd	-5654
▁gr	-5655
▁condition	-5656
aises	-5657
details	-5658
conf	-5659
▁mem	-5660
aiter	-5661
condition	-5662
uning	-5663
▁bound	-5664
▁modelo	-5665
979	-5666
Back	-5667
Simple	-5668
factors	-5669
^^	-5670
21,	-5671
▁So	-5672
▁Audio	-5673
▁э	-5674
▁incre	-5675
/{	-5676
ás	-5677
hip	-5678
tiny	-5679
▁functions	-5680
mult	-5681
master	-5682
ilon	-5683
ParallelLinear	-5684
Update	-5685
▁initialization	-5686
585	-5687
▁Used	-5688
havior	-5689
▁Custom	-5690
▁configur	-5691
▁"<|	-5692
clean	-5693
▁decl	-5694
amente	-5695
▁whether	-5696
▁Deepseek	-5697
At	-5698
cludes	-5699
▁better	-5700
ョン	-5701
484	-5702
▁eval	-5703
▁200	-5704
directory	-5705
epth	-5706
leep	-5707
ynchron	-5708
ForImage	-5709
▁при	-5710
▁Usage	-5711
Next	-5712
ories	-5713
▁invalid	-5714
pc	-5715
▁helpful	-5716
878	-5717
DIA	-5718
▁PIL	-5719
[1].	-5720
semantic	-5721
MAX	-5722
▁NV	-5723
-5	-5724
▁gen	-5725
preter	-5726
agents	-5727
depend	-5728
invalid	-5729
ため	-5730
als	-5731
イン	-5732
Map	-5733
és	-5734
tep	-5735
queue	-5736
chedule	-5737
▁stat	-5738
RES	-5739
▁entry	-5740
Started	-5741
works	-5742
oci	-5743
ARCH	-5744
▁0.026	-5745
▁similar	-5746
▁Metadata	-5747
ati	-5748
▁semantic	-5749
▁<!	-5750
curacy	-5751
ality	-5752
об	-5753
▁sol	-5754
eader	-5755
▁Iterable	-5756
879	-5757
GEN	-5758
GPU	-5759
▁sizes	-5760
/1	-5761
▁il	-5762
▁то	-5763
Flash	-5764
▁element	-5765
abilities	-5766
MIT	-5767
▁explicit	-5768
▁ст	-5769
mination	-5770
ту	-5771
▁Ret	-5772
tri	-5773
▁runner	-5774
ModuleList	-5775
ToolSpec	-5776
574	-5777
▁!1;	-5778
ERROR	-5779
rerank	-5780
995	-5781
plus	-5782
release	-5783
▁provider	-5784
LP	-5785
▁validation	-5786
096,	-5787
▁####	-5788
ixl	-5789
azure	-5790
Custom	-5791
gu	-5792
545	-5793
USER	-5794
▁NOT	-5795
utf	-5796
▁tab	-5797
▁free	-5798
resolved	-5799
▁initializer	-5800
iy	-5801
306	-5802
ART	-5803
clear	-5804
deepseek	-5805
acity	-5806
copes	-5807
gz	-5808
bn	-5809
▁AS	-5810
できます	-5811
ATION	-5812
▁ك	-5813
ider	-5814
fetch	-5815
thinking	-5816
?\	-5817
.\\	-5818
▁Hub	-5819
▁Initializing	-5820
itHub	-5821
▁`[0,	-5822
ribute	-5823
▁saved	-5824
ued	-5825
これ	-5826
render	-5827
▁syntax	-5828
▁па	-5829
aches	-5830
cs	-5831
partial	-5832
▁within	-5833
▁Convert	-5834
▁tri	-5835
/3.	-5836
▁who	-5837
see	-5838
area	-5839
▁Wav	-5840
PP	-5841
pus	-5842
alloc	-5843
ieren	-5844
▁Mode	-5845
elta	-5846
endswith	-5847
PATH	-5848
retriever	-5849
▁fun	-5850
▁zero	-5851
ignment	-5852
▁lengths	-5853
▁setting	-5854
amps	-5855
▁loop	-5856
▁Flash	-5857
ши	-5858
alo	-5859
ilu	-5860
▁<!--	-5861
▁integration	-5862
lt	-5863
fe	-5864
.0]	-5865
ude	-5866
Iter	-5867
Value	-5868
utton	-5869
▁send	-5870
▁predicted	-5871
▁Mini	-5872
▁rotary	-5873
▁wait	-5874
command	-5875
▁lines	-5876
scheduled	-5877
▁points	-5878
*.	-5879
▁위	-5880
▁low	-5881
▁service	-5882
▁validate	-5883
▁Each	-5884
▁defined	-5885
struction	-5886
sing	-5887
▁those	-5888
▁ops	-5889
UU	-5890
specific	-5891
495	-5892
bench	-5893
emitter	-5894
▁pooling	-5895
tre	-5896
sent	-5897
oberta	-5898
olders	-5899
спольз	-5900
▁Valid	-5901
▁grouped	-5902
`](	-5903
plex	-5904
▁connector	-5905
mel	-5906
orig	-5907
"]:	-5908
Body	-5909
FeatureExtractor	-5910
license	-5911
inner	-5912
rame	-5913
otron	-5914
----------	-5915
▁0],	-5916
grouped	-5917
PER	-5918
finish	-5919
plexity	-5920
runtime	-5921
▁क	-5922
mes	-5923
▁architecture	-5924
oe	-5925
▁sur	-5926
▁redu	-5927
encoded	-5928
▁filename	-5929
UB	-5930
err	-5931
▁sparse	-5932
▁그	-5933
▁alt	-5934
▁well	-5935
fct	-5936
TOOL	-5937
iled	-5938
super	-5939
console	-5940
oy	-5941
▁kö	-5942
...",	-5943
VIDIA	-5944
▁feed	-5945
localhost	-5946
▁otherwise	-5947
▁une	-5948
utation	-5949
▁UI	-5950
▁quantized	-5951
ove	-5952
ards	-5953
dispatch	-5954
pdf	-5955
за	-5956
▁active	-5957
▁translation	-5958
Fp	-5959
▁데	-5960
Trans	-5961
▁stage	-5962
Training	-5963
Pydantic	-5964
бо	-5965
▁pa	-5966
▁sec	-5967
tom	-5968
▁bos	-5969
generator	-5970
ario	-5971
variables	-5972
thes	-5973
▁program	-5974
help	-5975
Lang	-5976
997	-5977
▁14	-5978
hy	-5979
LImage	-5980
977	-5981
cut	-5982
606	-5983
yield	-5984
▁exce	-5985
▁logprobs	-5986
▁My	-5987
aging	-5988
hfoption	-5989
preprocess	-5990
ij	-5991
▁│	-5992
▁Ollama	-5993
444	-5994
▁pretrained	-5995
EX	-5996
emotron	-5997
▁LlamaIndex	-5998
▁understand	-5999
nI	-6000
▁eager	-6001
▁matrix	-6002
exists	-6003
pending	-6004
Runnable	-6005
▁including	-6006
▁"5	-6007
▁ACT	-6008
▁applied	-6009
SQL	-6010
andidate	-6011
modality	-6012
POR	-6013
▁"{	-6014
direct	-6015
▁lower	-6016
coco	-6017
handl	-6018
▁hel	-6019
▁pode	-6020
eu	-6021
IG	-6022
vidia	-6023
Status	-6024
▁transformer	-6025
்ப	-6026
889	-6027
▁slot	-6028
riteria	-6029
▁ка	-6030
▁detect	-6031
▁necess	-6032
ForToken	-6033
▁Supports	-6034
Transformer	-6035
▁що	-6036
your	-6037
herit	-6038
ThreadCreated	-6039
100,	-6040
ners	-6041
▁wrap	-6042
▁tokenize	-6043
onal	-6044
road	-6045
LAS	-6046
TEST	-6047
Kernel	-6048
▁clear	-6049
unit	-6050
uffix	-6051
336	-6052
sqrt	-6053
▁hand	-6054
══	-6055
▁refer	-6056
▁scope	-6057
▁alg	-6058
▁Tuple	-6059
retry	-6060
▁meta	-6061
▁initialize	-6062
serv	-6063
ae	-6064
nested	-6065
Can	-6066
done	-6067
Hi	-6068
16)	-6069
xpu	-6070
▁Stream	-6071
▁«	-6072
、`	-6073
Patch	-6074
61	-6075
▁crop	-6076
206	-6077
▁von	-6078
▁0.032	-6079
▁child	-6080
ун	-6081
Conf	-6082
▁retriever	-6083
▁[!	-6084
addle	-6085
plits	-6086
▁вико	-6087
pri	-6088
Down	-6089
ensors	-6090
.5	-6091
SD	-6092
raise	-6093
QA	-6094
uplic	-6095
epspeed	-6096
physical	-6097
!",	-6098
てい	-6099
61,	-6100
exclude	-6101
▁matching	-6102
978	-6103
WOR	-6104
ides	-6105
emantic	-6106
AC	-6107
ера	-6108
cudagraph	-6109
▁application	-6110
▁Ter	-6111
▁very	-6112
compat	-6113
predictor	-6114
-264	-6115
("_	-6116
(2	-6117
▁könn	-6118
trainer	-6119
Int	-6120
anti	-6121
draw	-6122
Var	-6123
scaled	-6124
ione	-6125
▁browser	-6126
setup	-6127
bundle	-6128
▁interface	-6129
sk	-6130
inc	-6131
send	-6132
endar	-6133
▁-0.032	-6134
▁installed	-6135
스트	-6136
enn	-6137
▁fake	-6138
874	-6139
▁And	-6140
▁Bert	-6141
▁draft	-6142
objects	-6143
▁decoded	-6144
/10	-6145
▁layout	-6146
▁something	-6147
GB	-6148
875	-6149
="""	-6150
▁Process	-6151
▁good	-6152
▁above	-6153
8000/	-6154
▁space	-6155
▁('	-6156
gelu	-6157
▁das	-6158
Inputs	-6159
▁nested	-6160
Strategy	-6161
Streaming	-6162
>\	-6163
▁"2	-6164
▁Max	-6165
▁cases	-6166
01-	-6167
▁Encoder	-6168
agle	-6169
gres	-6170
usic	-6171
▁sql	-6172
▁track	-6173
▁calling	-6174
placeholder	-6175
세요	-6176
▁'{	-6177
▁0.0,	-6178
▁runs	-6179
▁Speech	-6180
.7	-6181
▁''	-6182
loras	-6183
▁adapter	-6184
16:	-6185
utdown	-6186
▁storage	-6187
▁1],	-6188
username	-6189
▁workflow	-6190
555	-6191
994	-6192
npm	-6193
▁enc	-6194
udget	-6195
wrapper	-6196
▁rendered	-6197
▁dans	-6198
から	-6199
distance	-6200
__":	-6201
şt	-6202
gh	-6203
▁serve	-6204
▁unique	-6205
external	-6206
▁Callback	-6207
мі	-6208
verage	-6209
TokenizerFast	-6210
622	-6211
989	-6212
▁strategy	-6213
extraction	-6214
IMA	-6215
epoch	-6216
▁2025	-6217
residual	-6218
VLM	-6219
▁Or	-6220
ents	-6221
▁docstring	-6222
-/	-6223
istic	-6224
Struct	-6225
using	-6226
Cross	-6227
OUTPUT	-6228
program	-6229
settings	-6230
>"	-6231
estamps	-6232
▁merged	-6233
▁removed	-6234
.4	-6235
Sw	-6236
▁Filter	-6237
▁relevant	-6238
Enum	-6239
▁ALL	-6240
fb	-6241
accept	-6242
ör	-6243
leg	-6244
▁static	-6245
Temporary	-6246
▁0.023	-6247
▁-0.023	-6248
▁sources	-6249
را	-6250
▁0]	-6251
sam	-6252
可能	-6253
ulate	-6254
▁predi	-6255
▁upload	-6256
▁['	-6257
▁avec	-6258
▁workspace	-6259
WithPooling	-6260
TOR	-6261
▁front	-6262
nL	-6263
▁root	-6264
CR	-6265
LS	-6266
evi	-6267
documentation	-6268
▁설	-6269
▁members	-6270
overrides	-6271
(2,	-6272
=2)	-6273
aux	-6274
riority	-6275
anthropic	-6276
UL	-6277
89,	-6278
LOG	-6279
▁variables	-6280
よう	-6281
Layout	-6282
▁reduce	-6283
0,0,0,0,	-6284
ah	-6285
matmul	-6286
capture	-6287
▁prevent	-6288
1"	-6289
cloud	-6290
▁built	-6291
(["	-6292
636	-6293
▁compatibility	-6294
Tra	-6295
▁Mistral	-6296
▁시	-6297
codec	-6298
vicorn	-6299
half	-6300
▁cert	-6301
це	-6302
Off	-6303
maker	-6304
tower	-6305
▁side	-6306
FUNCTIONS	-6307
Wrapper	-6308
Segmentation	-6309
▁ü	-6310
445	-6311
▁partic	-6312
td	-6313
▁flash	-6314
▁decoding	-6315
flex	-6316
лю	-6317
▁"#/	-6318
▁But	-6319
workspace	-6320
afetensors	-6321
▁전	-6322
▁bin	-6323
▁kernels	-6324
▁people	-6325
▁예	-6326
▁ask	-6327
without	-6328
▁border	-6329
この	-6330
▁```"""	-6331
ifact	-6332
▁frequ	-6333
이터	-6334
plb	-6335
ever	-6336
==",	-6337
▁triton	-6338
Position	-6339
▁CI	-6340
▁Int	-6341
▁Time	-6342
▁slow	-6343
amless	-6344
nections	-6345
▁TypeError	-6346
0.0,	-6347
▁login	-6348
seconds	-6349
▁от	-6350
▁uma	-6351
ellig	-6352
を使用	-6353
suffix	-6354
▁추	-6355
ared	-6356
inov	-6357
seqlen	-6358
▁ident	-6359
▁resample	-6360
?:	-6361
aude	-6362
▁aux	-6363
known	-6364
▁Server	-6365
FA	-6366
⚠️	-6367
zen	-6368
рам	-6369
NAMES	-6370
proxy	-6371
▁console	-6372
▁использ	-6373
nie	-6374
▁"@	-6375
▁Cl	-6376
requires	-6377
ranscription	-6378
▁Cal	-6379
roadcast	-6380
dc	-6381
▁하	-6382
"]),	-6383
Core	-6384
▁prec	-6385
▁seem	-6386
și	-6387
ம்	-6388
▁ç	-6389
884	-6390
Reg	-6391
ipelines	-6392
21	-6393
777	-6394
▁behavior	-6395
ao	-6396
Score	-6397
VERSION	-6398
▁modules	-6399
▁în	-6400
Oper	-6401
retries	-6402
▁develo	-6403
▁header	-6404
berta	-6405
▁usar	-6406
ko	-6407
ites	-6408
▁можете	-6409
▁argparse	-6410
similarity	-6411
PreTrainedConfig	-6412
warp	-6413
▁ignored	-6414
OutputParser	-6415
▁fill	-6416
imated	-6417
▁repeat	-6418
▁vocabulary	-6419
Own	-6420
lator	-6421
▁BaseModel	-6422
-9	-6423
در	-6424
では	-6425
maybe	-6426
service	-6427
▁200,	-6428
DX	-6429
774	-6430
▁capture	-6431
▁як	-6432
▁cas	-6433
compilation	-6434
earer	-6435
inese	-6436
Format	-6437
hashes	-6438
Items	-6439
longest	-6440
▁inside	-6441
initializer	-6442
▁HTTPException	-6443
=[],	-6444
▁VLLM	-6445
▁These	-6446
ів	-6447
16_	-6448
ube	-6449
We	-6450
▁Ed	-6451
OPENAI	-6452
ebooks	-6453
collect	-6454
984	-6455
ستخ	-6456
975	-6457
▁Class	-6458
▁tu	-6459
▁appe	-6460
future	-6461
▁plus	-6462
[-2	-6463
yped	-6464
▁abs	-6465
▁retry	-6466
allclose	-6467
192,	-6468
▁"")	-6469
icies	-6470
=10	-6471
▁⚠️	-6472
▁connect	-6473
.**	-6474
estore	-6475
▁pooled	-6476
▁another	-6477
predictions	-6478
SER	-6479
uble	-6480
▁none	-6481
Use	-6482
Copy	-6483
vr	-6484
Man	-6485
▁다음	-6486
▁cho	-6487
Width	-6488
▁larg	-6489
▁"2023-02-	-6490
▁currently	-6491
▁public	-6492
626	-6493
ões	-6494
npmjs	-6495
integrity	-6496
disable	-6497
stractmethod	-6498
▁ce	-6499
FILE	-6500
▁الن	-6501
▁push	-6502
simple	-6503
▁activ	-6504
"})	-6505
▁na	-6506
skipif	-6507
▁exists	-6508
▁changes	-6509
1(	-6510
On	-6511
▁ه	-6512
/-/	-6513
203	-6514
tgz	-6515
▁dri	-6516
ideos	-6517
▁verwen	-6518
rounding	-6519
itsProcessor	-6520
▁tak	-6521
▁allows	-6522
selected	-6523
▁Min	-6524
▁ratio	-6525
Detection	-6526
▁commit	-6527
}]	-6528
сти	-6529
▁Should	-6530
13",	-6531
▁sentence	-6532
▁6,	-6533
▁${{	-6534
orization	-6535
quantize	-6536
theta	-6537
ONE	-6538
agg	-6539
▁Qu	-6540
▁2024	-6541
▁Vector	-6542
ormer	-6543
▁capital	-6544
)。	-6545
▁qkv	-6546
projector	-6547
ene	-6548
ica	-6549
▁có	-6550
▁du	-6551
ション	-6552
▁Dis	-6553
cy	-6554
يل	-6555
974	-6556
Fake	-6557
né	-6558
▁경	-6559
dfn	-6560
way	-6561
Like	-6562
correct	-6563
79,	-6564
Tag	-6565
Pass	-6566
ased	-6567
▁said	-6568
cluster	-6569
selection	-6570
レー	-6571
▁core	-6572
connect	-6573
▁longer	-6574
');	-6575
Sub	-6576
6)	-6577
пи	-6578
mplo	-6579
▁{}),	-6580
tmpdirname	-6581
upy	-6582
scheme	-6583
Loss	-6584
▁Extract	-6585
▁Language	-6586
▁dispatch	-6587
Or	-6588
موذج	-6589
▁shift	-6590
__.__	-6591
)**	-6592
moid	-6593
yaml	-6594
)](	-6595
adding	-6596
▁report	-6597
VisionModel	-6598
ctional	-6599
6-	-6600
ino	-6601
க்க	-6602
ення	-6603
сто	-6604
uniform	-6605
▁direct	-6606
speculative	-6607
▁の	-6608
era	-6609
uned	-6610
}}",	-6611
▁Added	-6612
▁testing	-6613
DF	-6614
データ	-6615
вати	-6616
▁turn	-6617
beta	-6618
forma	-6619
integration	-6620
When	-6621
Azure	-6622
▁talk	-6623
routed	-6624
My	-6625
▁less	-6626
▁modified	-6627
OwnProperty	-6628
▁사용하	-6629
▁keyword	-6630
▁bounding	-6631
uz	-6632
如果	-6633
必要	-6634
Socket	-6635
itation	-6636
filename	-6637
▁normalize	-6638
ka	-6639
thum	-6640
Logger	-6641
▁Multi	-6642
(`	-6643
2_5	-6644
▁что	-6645
Click	-6646
jected	-6647
894	-6648
▁prim	-6649
▁Fake	-6650
▁finish	-6651
beam	-6652
▁There	-6653
ше	-6654
aly	-6655
warm	-6656
arded	-6657
▁viewer	-6658
USE	-6659
vez	-6660
▁пере	-6661
▁chats	-6662
▁guide	-6663
workers	-6664
container	-6665
▁Starlette	-6666
▁permission	-6667
Api	-6668
▁exe	-6669
▁(1	-6670
████	-6671
ength	-6672
▁використ	-6673
▁password	-6674
iglip	-6675
ocr	-6676
▁25	-6677
ately	-6678
piece	-6679
▁axis	-6680
ceiver	-6681
mplex	-6682
stable	-6683
sampled	-6684
▁verbose	-6685
▁revision	-6686
Box	-6687
alpha	-6688
penalt	-6689
CF	-6690
ول	-6691
▁Is	-6692
▁TP	-6693
▁Read	-6694
ga	-6695
AGE	-6696
▁ren	-6697
shard	-6698
Masked	-6699
▁means	-6700
ployment	-6701
▁wrapper	-6702
term	-6703
=5	-6704
CI	-6705
▁**[	-6706
▁too	-6707
ChatModel	-6708
▁5.	-6709
▁في	-6710
parts	-6711
▁concat	-6712
middleware	-6713
EXT	-6714
▁car	-6715
▁deep	-6716
Rotary	-6717
ًا	-6718
rep	-6719
▁MDX	-6720
▁positional	-6721
=-1,	-6722
▁platform	-6723
OW	-6724
ny	-6725
プロ	-6726
jor	-6727
▁agg	-6728
insert	-6729
imation	-6730
git	-6731
▁على	-6732
▁Examples	-6733
ها	-6734
GET	-6735
drant	-6736
▁ق	-6737
irror	-6738
strong	-6739
▁compatible	-6740
3],	-6741
▁diff	-6742
▁indu	-6743
▁snapshot	-6744
▁hard	-6745
cone	-6746
imal	-6747
▁Client	-6748
▁finally	-6749
ット	-6750
CONFIG	-6751
elligence	-6752
bsz	-6753
▁mamba	-6754
91	-6755
985	-6756
ستخد	-6757
▁later	-6758
Do	-6759
236	-6760
System	-6761
Component	-6762
▁learning	-6763
▁Completion	-6764
▁dependencies	-6765
CHE	-6766
раз	-6767
MESS	-6768
upyter	-6769
▁`_	-6770
▁})(	-6771
badge	-6772
nt	-6773
▁е	-6774
por	-6775
```\	-6776
Bearer	-6777
▁curr	-6778
script	-6779
summar	-6780
▁seconds	-6781
peaker	-6782
entrypoints	-6783
▁instructions	-6784
ーク	-6785
Pool	-6786
▁gpt	-6787
885	-6788
▁:=	-6789
▁Red	-6790
▁0.034	-6791
twitter	-6792
AutoModel	-6793
▁RuntimeError	-6794
778	-6795
▁30	-6796
▁`'	-6797
)[0]	-6798
▁exc	-6799
pairs	-6800
▁GitHub	-6801
▁strings	-6802
cli	-6803
▁her	-6804
▁catch	-6805
Vis	-6806
▁Node	-6807
▁With	-6808
▁Docker	-6809
lich	-6810
separ	-6811
▁[0.1.	-6812
▁KVCache	-6813
▁"[	-6814
▁Settings	-6815
▁exception	-6816
INT	-6817
▁Block	-6818
▁dataclasses	-6819
Ter	-6820
▁speed	-6821
▁location	-6822
One	-6823
logit	-6824
▁force	-6825
ets	-6826
sers	-6827
▁2),	-6828
logging	-6829
▁cleanup	-6830
)`.	-6831
14:	-6832
Args	-6833
uses	-6834
TY	-6835
mb	-6836
256,	-6837
Channel	-6838
ression	-6839
▁파	-6840
▁boolean	-6841
▁issues	-6842
MIN	-6843
▁maint	-6844
allowed	-6845
created	-6846
▁Compute	-6847
▁finished	-6848
▁eas	-6849
oauth	-6850
▁cute	-6851
policies	-6852
18:	-6853
Ass	-6854
▁!!	-6855
▁`.	-6856
▁ds	-6857
됩니다	-6858
inecone	-6859
ausalLMOutput	-6860
gs	-6861
ond	-6862
sleep	-6863
▁setup	-6864
0_	-6865
eds	-6866
("--	-6867
iser	-6868
alize	-6869
rogram	-6870
▁due	-6871
▁können	-6872
▁Start	-6873
offload	-6874
petition	-6875
▁separate	-6876
▁questions	-6877
ited	-6878
mxfp	-6879
▁\"{	-6880
Split	-6881
gative	-6882
translation	-6883
"\	-6884
ду	-6885
Export	-6886
ову	-6887
irtual	-6888
pectrogram	-6889
llava	-6890
Commit	-6891
▁insert	-6892
TIME	-6893
Task	-6894
▁HTML	-6895
deprec	-6896
▁videos	-6897
▁computing	-6898
("\	-6899
ially	-6900
Success	-6901
▁작	-6902
late	-6903
▁(0,	-6904
trace	-6905
▁necessary	-6906
:`	-6907
ience	-6908
▁metric	-6909
imageUrl	-6910
benchmark	-6911
▁CH	-6912
isAn	-6913
anged	-6914
ocation	-6915
codebook	-6916
▁für	-6917
▁Spec	-6918
▁effect	-6919
Knowledge	-6920
▁trace	-6921
()}	-6922
hybrid	-6923
Mistral	-6924
isAnimated	-6925
SH	-6926
Top	-6927
TextModel	-6928
mente	-6929
▁provides	-6930
▁transfer	-6931
▁{%	-6932
Label	-6933
рамет	-6934
▁CLIP	-6935
ATCH	-6936
deli	-6937
▁stored	-6938
▁inspect	-6939
▁Generate	-6940
▁predictions	-6941
+)	-6942
SS	-6943
Expected	-6944
▁resource	-6945
▁authentic	-6946
▁fo	-6947
math	-6948
dt	-6949
most	-6950
▁Context	-6951
▁Dynamic	-6952
hot	-6953
▁much	-6954
report	-6955
Dropout	-6956
▁-0.034	-6957
waves	-6958
NUM	-6959
▁데이터	-6960
Action	-6961
logical	-6962
▁ChatResponse	-6963
fine	-6964
rite	-6965
▁flag	-6966
▁evaluation	-6967
1.0,	-6968
icht	-6969
▁System	-6970
patterns	-6971
▁Private	-6972
сть	-6973
bers	-6974
:",	-6975
▁contents	-6976
Bu	-6977
-3-	-6978
▁"11	-6979
unroll	-6980
▁characters	-6981
eviction	-6982
olute	-6983
platforms	-6984
aped	-6985
mi	-6986
ما	-6987
ane	-6988
tokenize	-6989
▁initialized	-6990
grade	-6991
▁higher	-6992
imension	-6993
Union	-6994
MODELS	-6995
whisper	-6996
468	-6997
▁NVML	-6998
▁center	-6999
▁retrieval	-7000
Pr	-7001
aws	-7002
▁ou	-7003
▁Att	-7004
▁suf	-7005
uel	-7006
▁!0),	-7007
aveform	-7008
functions	-7009
na	-7010
512-	-7011
bine	-7012
▁eine	-7013
▁Intermediate	-7014
▁않	-7015
▁pot	-7016
instruct	-7017
[:-1]	-7018
anded	-7019
ENTION	-7020
Be	-7021
779	-7022
▁On	-7023
oring	-7024
▁-0.020	-7025
ün	-7026
roma	-7027
attens	-7028
▁NUM	-7029
Tests	-7030
plies	-7031
▁elements	-7032
ki	-7033
times	-7034
▁같	-7035
▁div	-7036
rants	-7037
▁setUp	-7038
ierarch	-7039
603	-7040
quential	-7041
▁infer	-7042
▁trying	-7043
BED	-7044
gan	-7045
▁maps	-7046
▁external	-7047
ons	-7048
▁Mamba	-7049
▁ş	-7050
Attr	-7051
Self	-7052
rnie	-7053
303	-7054
imi	-7055
Lazy	-7056
▁manually	-7057
Resampling	-7058
CODE	-7059
ение	-7060
TOKENS	-7061
aries	-7062
flashinfer	-7063
▁\"{{	-7064
▁seed	-7065
▁section	-7066
2:	-7067
PRO	-7068
(0),	-7069
delivr	-7070
jsdelivr	-7071
1],	-7072
flo	-7073
▁7,	-7074
▁`[	-7075
await	-7076
▁Additional	-7077
Load	-7078
▁err	-7079
方法	-7080
.\1.	-7081
▁bot	-7082
▁half	-7083
browser	-7084
▁생	-7085
ently	-7086
▁shapes	-7087
duration	-7088
standard	-7089
▁Uvicorn	-7090
amily	-7091
ай	-7092
_1,	-7093
rul	-7094
actual	-7095
Initial	-7096
▁account	-7097
▁preprocess	-7098
.9	-7099
▁"`	-7100
▁lm	-7101
mand	-7102
profile	-7103
▁branch	-7104
▁tokenizers	-7105
▁3)	-7106
section	-7107
OAuth	-7108
▁against	-7109
AND	-7110
Example	-7111
▁gradient	-7112
expanded	-7113
▁thinking	-7114
Ann	-7115
flattens	-7116
RotaryEmbedding	-7117
469	-7118
End	-7119
WEBUI	-7120
=10,	-7121
omic	-7122
1+00:00",	-7123
fx	-7124
CUDA	-7125
[1])	-7126
attrs	-7127
▁Cloud	-7128
▁Sampling	-7129
ris	-7130
Dummy	-7131
▁compilation	-7132
LImageResampling	-7133
URE	-7134
▁"93	-7135
▁pick	-7136
▁rescale	-7137
▁Assistant	-7138
constructor	-7139
specializes	-7140
EP	-7141
ws	-7142
你可以	-7143
▁beta	-7144
▁agents	-7145
▁suffix	-7146
interleave	-7147
895	-7148
▁19	-7149
isting	-7150
▁decor	-7151
▁это	-7152
Checkpoint	-7153
하기	-7154
-12	-7155
3498	-7156
▁4096	-7157
▁Sharing	-7158
19:	-7159
▁Pl	-7160
ções	-7161
▁pop	-7162
epsilon	-7163
▁vectors	-7164
▁FusedMoE	-7165
cfg	-7166
ULTI	-7167
afety	-7168
785	-7169
TEMP	-7170
▁2048	-7171
▁Trainer	-7172
▁dataclass	-7173
ERS	-7174
▁aspect	-7175
cognition	-7176
▁datetime	-7177
ObjectDetection	-7178
/3	-7179
▁🌐	-7180
ffort	-7181
idire	-7182
▁enter	-7183
signature	-7184
▁actually	-7185
하고	-7186
seqs	-7187
▁net	-7188
nvidia	-7189
▁align	-7190
ATTENTION	-7191
stribution	-7192
▁dependency	-7193
assertIsInstance	-7194
\",	-7195
Usage	-7196
▁passing	-7197
操作	-7198
▁cpu	-7199
false	-7200
Dataset	-7201
▁consol	-7202
qdm	-7203
Choice	-7204
▁record	-7205
▁exactly	-7206
▁실	-7207
deltas	-7208
▁begin	-7209
▁comment	-7210
.8	-7211
501	-7212
▁stats	-7213
ynchronous	-7214
▁%}	-7215
iert	-7216
notebooks	-7217
64)	-7218
▁Si	-7219
agentchat	-7220
inja	-7221
usercontent	-7222
exit	-7223
▁gpu	-7224
2"	-7225
▁제	-7226
Look	-7227
▁rms	-7228
▁Work	-7229
Depends	-7230
8)	-7231
жно	-7232
added	-7233
epSeek	-7234
vement	-7235
▁문	-7236
▁raising	-7237
FT	-7238
хо	-7239
文件	-7240
=16,	-7241
Tools	-7242
email	-7243
▁resp	-7244
iliary	-7245
▁never	-7246
▁callbacks	-7247
exce	-7248
▁Fran	-7249
▁doing	-7250
modular	-7251
▁Training	-7252
ev	-7253
oX	-7254
▁Memory	-7255
TA	-7256
IMAGE	-7257
▁perm	-7258
には	-7259
osmos	-7260
posed	-7261
andbox	-7262
bc	-7263
▁보	-7264
DIR	-7265
pil	-7266
ause	-7267
▁say	-7268
あります	-7269
Match	-7270
cording	-7271
▁useful	-7272
database	-7273
▁HumanMessage	-7274
▁Di	-7275
ения	-7276
▁aut	-7277
Jo	-7278
▁și	-7279
bound	-7280
Argument	-7281
▁backends	-7282
nan	-7283
▁"-	-7284
ools	-7285
▁-0.035	-7286
kit	-7287
▁requ	-7288
overlap	-7289
twemoji	-7290
HEAD	-7291
team	-7292
levels	-7293
ンス	-7294
]])	-7295
uan	-7296
__]	-7297
Sync	-7298
nope	-7299
proc	-7300
▁Conv	-7301
spaces	-7302
▁consum	-7303
▁summar	-7304
ndim	-7305
rieval	-7306
▁Schema	-7307
▁disabled	-7308
13:	-7309
adow	-7310
▁"0.	-7311
▁ess	-7312
errors	-7313
address	-7314
▁sampled	-7315
]))	-7316
Import	-7317
Upload	-7318
▁0.020	-7319
▁segment	-7320
idirectional	-7321
784	-7322
If	-7323
▁50	-7324
ある	-7325
ப்ப	-7326
oose	-7327
▁[])	-7328
fd	-7329
ns	-7330
002_	-7331
24":	-7332
Over	-7333
stry	-7334
lab	-7335
▁0.1	-7336
▁things	-7337
variance	-7338
dataclasses	-7339
▁checkpoints	-7340
1":	-7341
sort	-7342
astream	-7343
escribe	-7344
▁placeholder	-7345
▁Т	-7346
((1,	-7347
)."""	-7348
▁avatar	-7349
WithScore	-7350
▁proxy	-7351
bitrary	-7352
ForMasked	-7353
▁س	-7354
▁Form	-7355
▁started	-7356
▁ToolCall	-7357
asr	-7358
▁ear	-7359
advanced	-7360
perimental	-7361
BC	-7362
SV	-7363
▁자	-7364
bil	-7365
▁policy	-7366
лі	-7367
ント	-7368
▁4)	-7369
mplates	-7370
▁프	-7371
hand	-7372
rawl	-7373
tiles	-7374
control	-7375
▁rerank	-7376
BU	-7377
▁방	-7378
TIC	-7379
▁зна	-7380
▁learn	-7381
slo	-7382
argin	-7383
▁-1).	-7384
▁2022	-7385
▁매	-7386
▁-0.011	-7387
оз	-7388
sure	-7389
▁routing	-7390
▁정	-7391
▁exclude	-7392
▁repository	-7393
/4	-7394
унк	-7395
urls	-7396
Script	-7397
';	-7398
された	-7399
▁aplic	-7400
▁adding	-7401
DEVI	-7402
nThe	-7403
▁sch	-7404
▁kind	-7405
▁0.035	-7406
▁parts	-7407
/).	-7408
Runtime	-7409
▁Install	-7410
▁maintain	-7411
tf	-7412
xx	-7413
byte	-7414
▁queue	-7415
需要	-7416
0.5	-7417
ции	-7418
aget	-7419
▁equival	-7420
▁Pipeline	-7421
annotations	-7422
](/	-7423
mcp	-7424
▁${	-7425
048,	-7426
imes	-7427
Multi	-7428
▁\\\"	-7429
▁come	-7430
▁At	-7431
segment	-7432
▁encode	-7433
▁serialized	-7434
▁PrivateAttr	-7435
ться	-7436
▁generator	-7437
icle	-7438
ired	-7439
Depth	-7440
arlin	-7441
dependency	-7442
▁ide	-7443
▁Step	-7444
▁collect	-7445
▁PreTrainedModel	-7446
UNK	-7447
una	-7448
alys	-7449
▁entire	-7450
initialized	-7451
さい	-7452
fic	-7453
curr	-7454
__(**	-7455
ategory	-7456
▁Depends	-7457
ック	-7458
ador	-7459
when	-7460
すること	-7461
Annot	-7462
SM	-7463
_,	-7464
rgb	-7465
▁Event	-7466
Warning	-7467
▁advanced	-7468
▁markdown	-7469
▁17	-7470
▁моде	-7471
Header	-7472
例如	-7473
▁1).	-7474
Scale	-7475
utions	-7476
▁espec	-7477
▁manage	-7478
iterator	-7479
rup	-7480
▁wer	-7481
ENABLE	-7482
Integration	-7483
Ap	-7484
ும்	-7485
ints	-7486
▁aim	-7487
▁inner	-7488
▁Terminal	-7489
Runner	-7490
▁reset	-7491
Generator	-7492
▁persistent	-7493
ATE	-7494
▁profile	-7495
IP	-7496
/1.	-7497
▁industry	-7498
vp	-7499
提供	-7500
silu	-7501
should	-7502
▁round	-7503
Roberta	-7504
▁생성	-7505
▁1000	-7506
▁Skip	-7507
▁Remove	-7508
VE	-7509
ས་	-7510
처리	-7511
▁recomm	-7512
fyUI	-7513
LazyModule	-7514
233	-7515
SIST	-7516
▁Rem	-7517
colwise	-7518
:#	-7519
CPU	-7520
▁pou	-7521
▁모델을	-7522
uffle	-7523
integer	-7524
▁normalized	-7525
384,	-7526
▁dest	-7527
▁rows	-7528
▁important	-7529
?"	-7530
▁3:	-7531
▁few	-7532
▁includes	-7533
────────────────	-7534
]`):	-7535
▁git	-7536
utomatic	-7537
detection	-7538
LOW	-7539
glm	-7540
atios	-7541
▁pairs	-7542
stacked	-7543
`。	-7544
ais	-7545
.0",	-7546
ingLayer	-7547
abstractmethod	-7548
'],	-7549
aj	-7550
▁在	-7551
▁!1,	-7552
▁son	-7553
▁GPUs	-7554
progress	-7555
▁accelerator	-7556
Ref	-7557
ニング	-7558
Read	-7559
▁edge	-7560
▁Chats	-7561
Builder	-7562
skipTest	-7563
▁drivers	-7564
([[	-7565
794	-7566
How	-7567
ali	-7568
slot	-7569
▁mixed	-7570
▁samples	-7571
▁consider	-7572
くだ	-7573
▁24	-7574
▁span	-7575
ください	-7576
▁able	-7577
▁fixed	-7578
▁generating	-7579
irm	-7580
ivo	-7581
coust	-7582
▁Granite	-7583
▁publish	-7584
imports	-7585
▁creating	-7586
NN	-7587
TP	-7588
()]	-7589
_3	-7590
unkt	-7591
▁{})	-7592
▁secret	-7593
/7	-7594
▁함	-7595
lik	-7596
](./	-7597
Evalu	-7598
▁lead	-7599
roberta	-7600
▁때	-7601
ago	-7602
avig	-7603
▁ant	-7604
▁إلى	-7605
chemy	-7606
physics	-7607
---	-7608
-4,	-7609
▁este	-7610
=3	-7611
lmo	-7612
}')	-7613
READ	-7614
▁clip	-7615
effect	-7616
temporal	-7617
safe	-7618
▁READ	-7619
▁First	-7620
▁schem	-7621
▁stand	-7622
prediction	-7623
bre	-7624
▁IP	-7625
=32,	-7626
▁Auth	-7627
▁consolidate	-7628
>=	-7629
15:	-7630
ання	-7631
gether	-7632
holders	-7633
▁は	-7634
16",	-7635
Language	-7636
▁retrieved	-7637
▁convolution	-7638
mk	-7639
▁ré	-7640
cook	-7641
iness	-7642
▁Column	-7643
▁지	-7644
▁SD	-7645
city	-7646
▁MLA	-7647
▁prop	-7648
▁versions	-7649
downsample	-7650
IC	-7651
media	-7652
deepspeed	-7653
har	-7654
START	-7655
Ac	-7656
/4.	-7657
▁bar	-7658
basic	-7659
▁OCR	-7660
tables	-7661
Filters	-7662
▁RMSNorm	-7663
isp	-7664
▁ba	-7665
rick	-7666
▁"64	-7667
▁bug	-7668
▁job	-7669
admin	-7670
▁Password	-7671
▁signific	-7672
்த	-7673
20:	-7674
AGES	-7675
termy	-7676
shift	-7677
oxtral	-7678
▁latest	-7679
"^	-7680
▁여	-7681
ール	-7682
17:	-7683
▁Sha	-7684
Voice	-7685
exceptions	-7686
Post	-7687
▁Self	-7688
▁utiliz	-7689
revision	-7690
▁attempt	-7691
Fl	-7692
ND	-7693
▁PDF	-7694
▁username	-7695
FC	-7696
Sm	-7697
ynthes	-7698
▁fallback	-7699
▁configured	-7700
/19	-7701
Wav	-7702
▁"3	-7703
▁uT	-7704
yper	-7705
alcon	-7706
▁Cross	-7707
eatures	-7708
hasattr	-7709
sup	-7710
▁IMA	-7711
named	-7712
▁Other	-7713
▁sever	-7714
▁1024,	-7715
connection	-7716
ln	-7717
ibi	-7718
▁LLMs	-7719
▁Cohere	-7720
▁inherit	-7721
▁AutoConfig	-7722
▁Fl	-7723
LINE	-7724
▁aggreg	-7725
▁12,	-7726
▁What	-7727
written	-7728
▁operator	-7729
ky	-7730
نا	-7731
▁ح	-7732
▁Tokenizer	-7733
▁computation	-7734
wd	-7735
лу	-7736
LoRA	-7737
visor	-7738
▁resolve	-7739
WS	-7740
▁nv	-7741
coord	-7742
tuning	-7743
▁associ	-7744
▁declar	-7745
Operator	-7746
workflow	-7747
▁general	-7748
/0.	-7749
10.	-7750
4_5_	-7751
some	-7752
kills	-7753
▁tile	-7754
▁alloc	-7755
▁DeepseekV	-7756
plain	-7757
▁Bu	-7758
INFO	-7759
plac	-7760
siniz	-7761
NOT	-7762
▁"9	-7763
warmup	-7764
rs	-7765
スク	-7766
eri	-7767
begin	-7768
▁0.05	-7769
▁0.011	-7770
aloader	-7771
visible	-7772
▁cancellation	-7773
設定	-7774
▁18	-7775
orith	-7776
ridge	-7777
uters	-7778
urable	-7779
success	-7780
Sha	-7781
eric	-7782
▁flatten	-7783
KER	-7784
ції	-7785
()).	-7786
edrock	-7787
dimension	-7788
▁interpolate	-7789
)"	-7790
633	-7791
▁경우	-7792
ように	-7793
2017	-7794
[1:]	-7795
|><|	-7796
/#	-7797
=-1	-7798
=8,	-7799
▁"0	-7800
▁cr	-7801
yg	-7802
serve	-7803
▁share	-7804
Activation	-7805
пу	-7806
▁те	-7807
urbo	-7808
▁الأ	-7809
chine	-7810
odern	-7811
▁!1),	-7812
▁Trans	-7813
▁SizeDict	-7814
ArgumentParser	-7815
Enable	-7816
docker	-7817
Backbone	-7818
scription	-7819
▁accuracy	-7820
attachment	-7821
▁Parameter	-7822
safetensors	-7823
ıl	-7824
best	-7825
rast	-7826
▁paths	-7827
Support	-7828
ве	-7829
WAR	-7830
▁bit	-7831
овать	-7832
packages	-7833
HumanMessage	-7834
Ob	-7835
vo	-7836
تم	-7837
▁어	-7838
2],	-7839
Meta	-7840
export	-7841
parsers	-7842
一個	-7843
EncoderConfig	-7844
postprocessor	-7845
数据	-7846
Pil	-7847
▁Full	-7848
budget	-7849
▁cudagraph	-7850
▁importlib	-7851
▁deprecation	-7852
▁Н	-7853
▁dt	-7854
▁tgt	-7855
wards	-7856
▁join	-7857
▁PromptTemplate	-7858
775	-7859
DING	-7860
▁:::	-7861
encies	-7862
levance	-7863
}_	-7864
ры	-7865
▁ти	-7866
2587	-7867
Flow	-7868
▁Your	-7869
▁container	-7870
▁unsqueeze	-7871
Cal	-7872
uce	-7873
▁mel	-7874
Names	-7875
▁fe	-7876
helper	-7877
▁Channel	-7878
生成	-7879
-8")	-7880
guid	-7881
▁hit	-7882
▁close	-7883
▁problem	-7884
lc	-7885
▁display	-7886
▁handles	-7887
-27	-7888
ALI	-7889
▁fi	-7890
ails	-7891
▁aus	-7892
itors	-7893
па	-7894
ción	-7895
caches	-7896
▁known	-7897
▁MiniMax	-7898
Ocr	-7899
AUTH	-7900
coll	-7901
Static	-7902
ور	-7903
inue	-7904
otive	-7905
▁Make	-7906
▁plan	-7907
alysis	-7908
▁human	-7909
▁configs	-7910
▁avatarUrl	-7911
▁explicitly	-7912
ない	-7913
big	-7914
Scal	-7915
Level	-7916
swers	-7917
нов	-7918
Google	-7919
"`):	-7920
culate	-7921
▁Users	-7922
▁TextNode	-7923
/.	-7924
ート	-7925
при	-7926
▁"3.	-7927
▁2).	-7928
▁Now	-7929
▁determin	-7930
interpolate	-7931
uy	-7932
▁메	-7933
その	-7934
▁Reg	-7935
▁Array	-7936
▁pooler	-7937
▁2]	-7938
▁won	-7939
▁times	-7940
keypoints	-7941
Are	-7942
▁"200	-7943
SEARCH	-7944
▁README	-7945
compatible	-7946
try	-7947
▁bs	-7948
digo	-7949
▁bus	-7950
▁مع	-7951
ongo	-7952
trust	-7953
▁Tests	-7954
Hugging	-7955
capability	-7956
▁ö	-7957
XFP	-7958
ого	-7959
EMBED	-7960
ivers	-7961
wright	-7962
▁Using	-7963
▁String	-7964
▁github	-7965
▁inverse	-7966
▁parsing	-7967
asse	-7968
runs	-7969
Generate	-7970
Selector	-7971
resource	-7972
▁conversion	-7973
FD	-7974
▁구	-7975
参数	-7976
5",	-7977
]",	-7978
▁fon	-7979
▁tre	-7980
icker	-7981
▁azure	-7982
▁media	-7983
▁парамет	-7984
▁automotive	-7985
ază	-7986
▁tok	-7987
apped	-7988
Column	-7989
Op	-7990
WT	-7991
▁qk	-7992
Frame	-7993
divid	-7994
▁York	-7995
▁recurs	-7996
▁weather	-7997
ModelTest	-7998
Reasoning	-7999
ben	-8000
penalty	-8001
▁SamplingParams	-8002
Show	-8003
rong	-8004
sigmoid	-8005
▁faster	-8006
▁kullan	-8007
▁trigger	-8008
▁annotation	-8009
ذا	-8010
DAP	-8011
erial	-8012
hell	-8013
▁!0;	-8014
▁tie	-8015
ez	-8016
,),	-8017
ORS	-8018
schedule	-8019
▁Parallel	-8020
/>	-8021
▁mlp	-8022
994",	-8023
reedy	-8024
Ollama	-8025
engines	-8026
▁Streaming	-8027
▁CallbackManager	-8028
你的	-8029
how	-8030
▁las	-8031
tropy	-8032
shortest	-8033
▁address	-8034
▁execute	-8035
▁AutoModelFor	-8036
AA	-8037
་བ	-8038
795	-8039
Edges	-8040
▁community	-8041
يد	-8042
amlessM	-8043
Callable	-8044
protocol	-8045
▁startup	-8046
hc	-8047
wl	-8048
arrows	-8049
▁executor	-8050
------------	-8051
トレー	-8052
cluded	-8053
▁pathlib	-8054
▁인	-8055
변수	-8056
=5,	-8057
asing	-8058
▁Handle	-8059
▁thought	-8060
Classifier	-8061
acc	-8062
Last	-8063
entru	-8064
Device	-8065
'.	-8066
하세요	-8067
LATE	-8068
reader	-8069
▁complex	-8070
▁care	-8071
▁compile	-8072
ssm	-8073
▁13,	-8074
256":	-8075
regex	-8076
PyTorch	-8077
ForMaskedLM	-8078
▁Parameters	-8079
▁properties	-8080
FB	-8081
VAL	-8082
()))	-8083
▁fall	-8084
▁making	-8085
▁really	-8086
DEPRECATED	-8087
","	-8088
ham	-8089
pin	-8090
▁auf	-8091
▁around	-8092
▁Item	-8093
▁echo	-8094
defics	-8095
▁internal	-8096
:**	-8097
enum	-8098
▁put	-8099
▁contributed	-8100
▁(2	-8101
▁wird	-8102
▁Tools	-8103
ierarchical	-8104
▁토	-8105
anit	-8106
▁1):	-8107
ctools	-8108
Executor	-8109
▁framework	-8110
/2.	-8111
ース	-8112
)],	-8113
▁ViT	-8114
Infer	-8115
plier	-8116
tocol	-8117
▁released	-8118
ين	-8119
OPE	-8120
come	-8121
uedes	-8122
gers	-8123
inst	-8124
▁cost	-8125
▁until	-8126
knowledge	-8127
▁Anthropic	-8128
SW	-8129
alı	-8130
constant	-8131
▁tutorial	-8132
MI	-8133
21:	-8134
Mini	-8135
sert	-8136
▁Dif	-8137
Count	-8138
floor	-8139
ifies	-8140
route	-8141
▁floats	-8142
▁필	-8143
)},	-8144
▁ai	-8145
▁2023	-8146
buckets	-8147
duction	-8148
▁să	-8149
▁dst	-8150
NVIDIA	-8151
▁Vision	-8152
MLA	-8153
▁date	-8154
▁disk	-8155
ically	-8156
▁-0.037	-8157
▁retrieve	-8158
▁resources	-8159
▁verwenden	-8160
DIM	-8161
▁hub	-8162
selector	-8163
▁-=	-8164
▁вс	-8165
align	-8166
pow	-8167
▁envs	-8168
▁phys	-8169
Entropy	-8170
▁Responses	-8171
CrossAttention	-8172
ara	-8173
ları	-8174
▁Then	-8175
▁bucket	-8176
éc	-8177
▁~	-8178
LASH	-8179
seen	-8180
oising	-8181
bedrock	-8182
operationId	-8183
▁DEPRECATED	-8184
▁د	-8185
eep	-8186
▁По	-8187
▁{};	-8188
coustic	-8189
▁-0.0114	-8190
че	-8191
▁37	-8192
then	-8193
Child	-8194
トレーニング	-8195
ised	-8196
CACHE	-8197
があります	-8198
Buffer	-8199
▁coordinates	-8200
до	-8201
Seg	-8202
йте	-8203
iate	-8204
Version	-8205
▁arbitrary	-8206
Connect	-8207
▁safety	-8208
PES	-8209
▁vs	-8210
Blip	-8211
warn	-8212
**-0.	-8213
▁sort	-8214
fps	-8215
claude	-8216
Whether	-8217
matched	-8218
▁concept	-8219
▁getting	-8220
hips	-8221
}}\"	-8222
▁combined	-8223
Div	-8224
jit	-8225
▁Tra	-8226
▁lif	-8227
▁Apply	-8228
decorator	-8229
▁concaten	-8230
()._	-8231
columns	-8232
▁integer	-8233
umentation	-8234
/@	-8235
MAR	-8236
ров	-8237
58267	-8238
ulator	-8239
extensions	-8240
-20	-8241
12:	-8242
LAN	-8243
ula	-8244
іль	-8245
▁6.	-8246
▁leg	-8247
▁não	-8248
overflow	-8249
▁-0.0115	-8250
▁Ne	-8251
мента	-8252
Length	-8253
vectors	-8254
▁starting	-8255
▁Knowledge	-8256
,\	-8257
▁아	-8258
dem	-8259
ные	-8260
▁'{"	-8261
FER	-8262
baz	-8263
axis	-8264
▁Sub	-8265
▁vot	-8266
▁logs	-8267
abilir	-8268
▁regex	-8269
verbose	-8270
docstore	-8271
▁className	-8272
nip	-8273
iones	-8274
OpenAPI	-8275
Semantic	-8276
▁related	-8277
▁використову	-8278
▁확	-8279
(".	-8280
Table	-8281
▁pages	-8282
▁Loader	-8283
▁WebSocket	-8284
)])	-8285
▁1;	-8286
edit	-8287
illa	-8288
▁takes	-8289
▁constructor	-8290
-2,	-8291
トーク	-8292
zy	-8293
ral	-8294
▁hc	-8295
▁ir	-8296
▁made	-8297
ratios	-8298
▁candidate	-8299
してい	-8300
▁-2.	-8301
▁safe	-8302
▁larger	-8303
evaluate	-8304
01.	-8305
CLI	-8306
▁dies	-8307
"][	-8308
corners	-8309
lookups	-8310
previous	-8311
XL	-8312
za	-8313
لا	-8314
vars	-8315
▁Siglip	-8316
▁Content	-8317
ationship	-8318
positional	-8319
OCm	-8320
]);	-8321
ará	-8322
▁'.	-8323
▁sig	-8324
▁codebook	-8325
Properties	-8326
UT	-8327
Asr	-8328
про	-8329
▁0.0114	-8330
▁scheduled	-8331
ير	-8332
arr	-8333
}."	-8334
▁Post	-8335
coords	-8336
▁basic	-8337
shutdown	-8338
▁-0.0112	-8339
▁tokenized	-8340
LD	-8341
кла	-8342
"}],	-8343
SISTANT	-8344
children	-8345
ем	-8346
▁,	-8347
▁TO	-8348
▁io	-8349
▁из	-8350
ponsors	-8351
INK	-8352
▁-0.0100	-8353
フォ	-8354
ana	-8355
tab	-8356
adat	-8357
uilt	-8358
▁pen	-8359
▁"7116	-8360
▁Deep	-8361
▁power	-8362
▁several	-8363
▁implemented	-8364
imits	-8365
▁TensorType	-8366
▁requirements	-8367
▁"(	-8368
+).	-8369
[1:	-8370
▁OP	-8371
native	-8372
randint	-8373
swagger	-8374
▁expand	-8375
▁-0.0116	-8376
.1	-8377
]["	-8378
588999	-8379
0000000	-8380
▁checks	-8381
▁counts	-8382
FIX	-8383
▁처리	-8384
Number	-8385
Timeout	-8386
▁"#3498	-8387
▁"9313",	-8388
Attribute	-8389
58267994",	-8390
▁"7116588999	-8391
uc	-8392
▁있는	-8393
UPPOR	-8394
accelerate	-8395
▁に	-8396
22:	-8397
MOD	-8398
Each	-8399
track	-8400
argmax	-8401
▁fully	-8402
▁ре	-8403
loom	-8404
▁dass	-8405
▁overlap	-8406
▁ConfigTester	-8407
▁vers	-8408
▁alias	-8409
▁código	-8410
Splitter	-8411
▁li	-8412
▁ма	-8413
OCRV	-8414
▁understanding	-8415
рі	-8416
ggle	-8417
fixed	-8418
Raises	-8419
unique	-8420
▁choose	-8421
▁waveform	-8422
STD	-8423
zip	-8424
prop	-8425
▁red	-8426
▁"#97	-8427
itions	-8428
▁intro	-8429
ationships	-8430
torchvision	-8431
23:	-8432
anks	-8433
CTION	-8434
alone	-8435
Reference	-8436
▁captured	-8437
zp	-8438
Manage	-8439
pooled	-8440
▁Fixed	-8441
▁review	-8442
TEMPLATE	-8443
▁더	-8444
123	-8445
()["	-8446
sd	-8447
zh	-8448
mis	-8449
urity	-8450
distil	-8451
ClassifierOutput	-8452
YS	-8453
lr	-8454
▁lik	-8455
udios	-8456
AIMessage	-8457
▁detection	-8458
▁optimizer	-8459
▁probability	-8460
Mon	-8461
arx	-8462
show	-8463
numel	-8464
actions	-8465
UID	-8466
real	-8467
▁according	-8468
CallbackHandler	-8469
Sam	-8470
Bart	-8471
CALL	-8472
▁está	-8473
▁Build	-8474
▁piece	-8475
▁Struct	-8476
▁це	-8477
RANS	-8478
39769	-8479
BaseNode	-8480
▁일	-8481
cols	-8482
datetime	-8483
▁namespace	-8484
CallbackManager	-8485
。",	-8486
▁foc	-8487
LMHead	-8488
two	-8489
▁offs	-8490
▁0.0118	-8491
ía	-8492
ein	-8493
ста	-8494
[-1].	-8495
props	-8496
▁512,	-8497
▁modè	-8498
izable	-8499
▁pointer	-8500
▁terminal	-8501
ள்	-8502
ura	-8503
▁(*	-8504
▁pg	-8505
▁dot	-8506
▁합니다	-8507
lying	-8508
▁werden	-8509
Dimension	-8510
assertRaises	-8511
buf	-8512
hit	-8513
-03,	-8514
-04,	-8515
▁respon	-8516
▁representation	-8517
/5	-8518
GS	-8519
="",	-8520
▁cat	-8521
▁-0.0119	-8522
actor	-8523
aggreg	-8524
va	-8525
су	-8526
Line	-8527
ably	-8528
▁cuda	-8529
panded	-8530
▁adjust	-8531
▁button	-8532
MESSAGES	-8533
▁Pe	-8534
▁[0	-8535
▁tree	-8536
▁completed	-8537
ائ	-8538
tie	-8539
▁이미	-8540
AMPLE	-8541
marlin	-8542
ecurity	-8543
markdown	-8544
192	-8545
cis	-8546
sep	-8547
uck	-8548
specs	-8549
▁simp	-8550
▁pouvez	-8551
▁skipped	-8552
▁smaller	-8553
Annotated	-8554
▁progress	-8555
▁requested	-8556
8",	-8557
▁cop	-8558
ember	-8559
▁Mark	-8560
orders	-8561
orithm	-8562
▁Layout	-8563
▁together	-8564
rich	-8565
▁his	-8566
crawl	-8567
▁stores	-8568
▁Chinese	-8569
▁replacement	-8570
▁28	-8571
bins	-8572
iles	-8573
shields	-8574
▁oc	-8575
illion	-8576
▁nicht	-8577
▁"200":	-8578
▁distance	-8579
Shape	-8580
price	-8581
▁didn	-8582
ستخدام	-8583
decoded	-8584
كن	-8585
以下	-8586
ales	-8587
eplb	-8588
▁pod	-8589
esome	-8590
scopes	-8591
▁Proxy	-8592
▁0.0012	-8593
▁processes	-8594
_.	-8595
اب	-8596
せん	-8597
パラ	-8598
imv	-8599
▁`@	-8600
ません	-8601
FORM	-8602
пера	-8603
dified	-8604
▁-0.0038	-8605
getLogger	-8606
▁extracted	-8607
pa	-8608
[3]	-8609
emu	-8610
▁"16	-8611
▁1.0,	-8612
▁Meta	-8613
ightly	-8614
▁Delta	-8615
▁instanti	-8616
rops	-8617
Found	-8618
▁-0.0117	-8619
placement	-8620
__:	-8621
▁mk	-8622
▁flat	-8623
ination	-8624
▁-0.0118	-8625
`],	-8626
▁추가	-8627
▁Blip	-8628
aspect	-8629
atural	-8630
strings	-8631
segments	-8632
▁actions	-8633
deprecated	-8634
si	-8635
iency	-8636
▁duplic	-8637
timestamps	-8638
Me	-8639
ér	-8640
REGI	-8641
delay	-8642
▁pipe	-8643
▁0.0015	-8644
▁0.0100	-8645
andbytes	-8646
formable	-8647
▁softmax	-8648
Prediction	-8649
VectorIndex	-8650
GU	-8651
▁Jo	-8652
ptrs	-8653
emini	-8654
Hybrid	-8655
▁pentru	-8656
_8	-8657
RAG	-8658
dst	-8659
cake	-8660
▁End	-8661
▁che	-8662
ECTOR	-8663
Write	-8664
▁Mobile	-8665
▁plugin	-8666
2_5_	-8667
asus	-8668
▁hap	-8669
Rerank	-8670
▁google	-8671
ASS	-8672
パラメ	-8673
logo	-8674
ragma	-8675
パラメータ	-8676
detach	-8677
▁Raises	-8678
Initialize	-8679
EncoderLayer	-8680
EW	-8681
stra	-8682
▁как	-8683
convers	-8684
▁reshape	-8685
cheduling	-8686
Successful	-8687
'{	-8688
":"	-8689
fficiency	-8690
▁동	-8691
Ver	-8692
ria	-8693
ных	-8694
▁vo	-8695
(1),	-8696
unds	-8697
generic	-8698
▁instances	-8699
-2)	-8700
▁Ab	-8701
akeet	-8702
Iterator	-8703
validator	-8704
sf	-8705
்ட	-8706
11:	-8707
▁fav	-8708
uages	-8709
sorted	-8710
▁Expect	-8711
▁-0.0039	-8712
▁persist	-8713
▁precision	-8714
vt	-8715
-11	-8716
ASK	-8717
▁13	-8718
pages	-8719
▁Exec	-8720
▁sim	-8721
(-1).	-8722
▁Llava	-8723
▁rather	-8724
▁trained	-8725
▁ModelRequest	-8726
lue	-8727
▁pid	-8728
▁dense	-8729
▁0.0019	-8730
▁Labels	-8731
▁filtered	-8732
▁signature	-8733
.2	-8734
fra	-8735
▁35	-8736
Folder	-8737
▁Tokens	-8738
▁servers	-8739
▁property	-8740
▁equivalent	-8741
!")	-8742
mixed	-8743
lossary	-8744
▁0.0039	-8745
▁included	-8746
Val	-8747
atis	-8748
resp	-8749
amingo	-8750
▁Graph	-8751
`),	-8752
▁three	-8753
aracter	-8754
equival	-8755
ès	-8756
.1.	-8757
zon	-8758
▁Whisper	-8759
▁keepdim	-8760
mtp	-8761
18",	-8762
▁bbox	-8763
Dynamic	-8764
changed	-8765
MessageRole	-8766
0.0",	-8767
onn	-8768
yml	-8769
▁위해	-8770
▁attr	-8771
lished	-8772
oncake	-8773
predicted	-8774
って	-8775
▁ho	-8776
▁mu	-8777
▁дан	-8778
▁scen	-8779
▁stmt	-8780
▁compare	-8781
▁various	-8782
▁extractor	-8783
nT	-8784
(2)	-8785
oop	-8786
▁DP	-8787
▁"15	-8788
dicts	-8789
▁LangChain	-8790
▁remaining	-8791
mq	-8792
rase	-8793
Worker	-8794
▁0.0034	-8795
▁-0.0113	-8796
Conformer	-8797
▁encodings	-8798
Range	-8799
▁0.0116	-8800
▁-0.0014	-8801
▁concurrent	-8802
▁frequencies	-8803
leaved	-8804
lookup	-8805
▁0.037	-8806
▁votre	-8807
▁evaluate	-8808
▁particip	-8809
▁또	-8810
적으로	-8811
amos	-8812
▁play	-8813
▁extension	-8814
▁timestamp	-8815
LogitsProcessor	-8816
ді	-8817
lst	-8818
▁Est	-8819
▁від	-8820
:#007	-8821
▁Back	-8822
166"><	-8823
upload	-8824
▁accum	-8825
▁security	-8826
:#007166"><	-8827
Ren	-8828
ato	-8829
32),	-8830
chie	-8831
icial	-8832
Bundle	-8833
▁0.0032	-8834
▁CONFIG	-8835
dividual	-8836
▁-0.0032	-8837
▁improve	-8838
▁notebook	-8839
kg	-8840
вер	-8841
▁:].	-8842
develo	-8843
▁resize	-8844
▁network	-8845
▁credentials	-8846
ueue	-8847
▁bel	-8848
POINT	-8849
▁uuid	-8850
desc	-8851
ranks	-8852
▁region	-8853
hasOwnProperty	-8854
}{	-8855
▁با	-8856
▁admin	-8857
caching	-8858
mission	-8859
compress	-8860
▁-0.0037	-8861
utomation	-8862
Leave	-8863
accum	-8864
▁0.0112	-8865
▁feedback	-8866
Hf	-8867
MO	-8868
▁zn	-8869
▁building	-8870
]"	-8871
fg	-8872
aily	-8873
ceil	-8874
PARAM	-8875
spans	-8876
splits	-8877
exports	-8878
▁associated	-8879
ད་	-8880
▁С	-8881
ULL	-8882
▁Li	-8883
1111	-8884
repr	-8885
▁tech	-8886
▁alpha	-8887
deployment	-8888
▁О	-8889
tied	-8890
exc	-8891
▁dp	-8892
▁Act	-8893
▁0.5,	-8894
▁HTTPS	-8895
OmniMoe	-8896
unktion	-8897
▁DynamicCache	-8898
ებ	-8899
From	-8900
topic	-8901
warded	-8902
▁However	-8903
▁Pooling	-8904
VideoProcessor	-8905
^^^^	-8906
▁dog	-8907
▁так	-8908
▁enough	-8909
▁유	-8910
ファ	-8911
dos	-8912
BATCH	-8913
▁Ensure	-8914
▁compet	-8915
websocket	-8916
実行	-8917
▁Gu	-8918
NeoX	-8919
▁Man	-8920
▁sil	-8921
されます	-8922
andex	-8923
▁-0.038	-8924
▁Assert	-8925
üm	-8926
ги	-8927
حد	-8928
kan	-8929
artifact	-8930
▁respect	-8931
それ	-8932
▁face	-8933
39769.	-8934
▁prior	-8935
▁0.0132	-8936
▁choices	-8937
▁processors	-8938
000000039769.	-8939
▁<|	-8940
▁RE	-8941
imate	-8942
▁native	-8943
glossary	-8944
▁т	-8945
▁선	-8946
.(\	-8947
arp	-8948
dest	-8949
ison	-8950
▁!!!	-8951
bnail	-8952
ixtral	-8953
▁depend	-8954
bal	-8955
▁gc	-8956
DTYPE	-8957
▁-0.0034	-8958
fun	-8959
{\"	-8960
▁لل	-8961
lias	-8962
▁seek	-8963
**-0.5	-8964
slices	-8965
▁-0.0015	-8966
▁-0.0018	-8967
RT	-8968
Rel	-8969
▁big	-8970
▁foo	-8971
epSpeed	-8972
Deep	-8973
eces	-8974
▁CLI	-8975
▁ile	-8976
▁qui	-8977
▁grad	-8978
mu	-8979
注意	-8980
peg	-8981
コード	-8982
▁Rec	-8983
▁Date	-8984
▁utils	-8985
▁0.0115	-8986
Multiple	-8987
LC	-8988
ல்	-8989
').	-8990
ZED	-8991
plugin	-8992
▁-0.0019	-8993
▁-0.0132	-8994
▁efficiency	-8995
га	-8996
CHAT	-8997
hren	-8998
▁(2,	-8999
catch	-9000
▁Files	-9001
▁freqs	-9002
undingBox	-9003
DirectoryReader	-9004
-6	-9005
தி	-9006
Dist	-9007
▁wie	-9008
...")	-9009
▁-100	-9010
▁100,	-9011
▁fails	-9012
External	-9013
Transfer	-9014
`-	-9015
ის	-9016
▁단	-9017
men	-9018
▁ін	-9019
Common	-9020
ensive	-9021
usicgen	-9022
▁hybrid	-9023
▁reorder	-9024
LMv	-9025
ári	-9026
▁4096,	-9027
dan	-9028
06",	-9029
\\\"	-9030
▁BERT	-9031
▁char	-9032
Encoding	-9033
interval	-9034
▁-0.0012	-9035
truncation	-9036
:"	-9037
tc	-9038
ез	-9039
iou	-9040
lse	-9041
xml	-9042
▁dep	-9043
undant	-9044
▁0.0018	-9045
▁registered	-9046
ți	-9047
3_5	-9048
DOC	-9049
fpn	-9050
▁0.9	-9051
▁1))	-9052
▁html	-9053
▁Hello	-9054
▁Store	-9055
▁components	-9056
▁corresponds	-9057
IM	-9058
omt	-9059
Close	-9060
▁reach	-9061
LinearKernel	-9062
tic	-9063
=100	-9064
gpus	-9065
otal	-9066
▁Inst	-9067
▁-0.0110	-9068
我们	-9069
via	-9070
▁minimum	-9071
▁obtained	-9072
modalities	-9073
▁ج	-9074
Hel	-9075
\"]	-9076
▁"32	-9077
Cannot	-9078
adatas	-9079
▁achie	-9080
▁routed	-9081
conversion	-9082
fü	-9083
11.	-9084
32_	-9085
▁hype	-9086
▁mult	-9087
ormalize	-9088
▁Component	-9089
/000000039769.	-9090
▁Box	-9091
▁"1":	-9092
▁flex	-9093
▁функ	-9094
▁tracer	-9095
setdefault	-9096
▁ImageInput	-9097
12.	-9098
▁48	-9099
hover	-9100
expect	-9101
▁product	-9102
Description	-9103
credentials	-9104
4]	-9105
اد	-9106
▁클	-9107
▁포	-9108
10:	-9109
ido	-9110
MEAN	-9111
▁Let	-9112
▁Ernie	-9113
uncased	-9114
▁deploy	-9115
retrieval	-9116
▁ئ	-9117
▁如果	-9118
mesh	-9119
sequ	-9120
▁Ford	-9121
▁mais	-9122
versions	-9123
itectures	-9124
▁resolved	-9125
지만	-9126
__}	-9127
▁실행	-9128
[-1],	-9129
tures	-9130
urther	-9131
Assistant	-9132
equivalence	-9133
ProcessingInfo	-9134
次の	-9135
ien	-9136
▁Zh	-9137
Feed	-9138
rest	-9139
▁2026	-9140
alchemy	-9141
normalized	-9142
▁construct	-9143
environment	-9144
_2_	-9145
▁La	-9146
▁tc	-9147
?"},	-9148
outube	-9149
▁going	-9150
▁makes	-9151
してください	-9152
comment	-9153
▁0.0038	-9154
▁0.0119	-9155
)(	-9156
ディ	-9157
"}]	-9158
Foo	-9159
UUUU	-9160
alth	-9161
aten	-9162
▁mes	-9163
TYPES	-9164
bridge	-9165
variable	-9166
dataloader	-9167
코드	-9168
▁Top	-9169
monstr	-9170
resnet	-9171
▁wrong	-9172
▁Triton	-9173
▁changed	-9174
modelName	-9175
regression	-9176
عد	-9177
▁[\"	-9178
▁logit	-9179
▁-0.0035	-9180
Multimodal	-9181
TC	-9182
▁ш	-9183
ori	-9184
same	-9185
▁hab	-9186
incip	-9187
▁Phi	-9188
ーション	-9189
eagle	-9190
▁URLs	-9191
▁cover	-9192
indexes	-9193
▁-0.0065	-9194
▁'<	-9195
▁lot	-9196
▁0.0113	-9197
UPPORTED	-9198
▁Padding	-9199
▁numbers	-9200
assertIsNot	-9201
また	-9202
AIL	-9203
개변수	-9204
jobs	-9205
Delta	-9206
finet	-9207
termine	-9208
cellationToken	-9209
fm	-9210
直接	-9211
DIO	-9212
LOC	-9213
issue	-9214
forces	-9215
shadow	-9216
▁0.0014	-9217
▁efficient	-9218
▁SystemMessage	-9219
HF	-9220
▁^	-9221
16.	-9222
job	-9223
▁ln	-9224
▁фай	-9225
cumsum	-9226
rection	-9227
▁0.0110	-9228
▁中	-9229
Big	-9230
IGH	-9231
entro	-9232
transforms	-9233
▁AsyncMock	-9234
UR	-9235
|>"	-9236
▁cum	-9237
Dense	-9238
Think	-9239
▁proj	-9240
▁seen	-9241
Pointer	-9242
▁parallelism	-9243
▁Off	-9244
andas	-9245
Access	-9246
▁resolution	-9247
ージ	-9248
PON	-9249
vol	-9250
▁dos	-9251
trainedConfig	-9252
OUR	-9253
2019	-9254
disk	-9255
モデルを	-9256
ertex	-9257
found	-9258
▁Layer	-9259
▁lists	-9260
splitter	-9261
▁communic	-9262
▁"2023-01-	-9263
▁repetition	-9264
/",	-9265
10734	-9266
beams	-9267
guide	-9268
Sparse	-9269
button	-9270
▁email	-9271
ational	-9272
▁0.0016	-9273
assertIn	-9274
▁-0.0017	-9275
multiplier	-9276
▁authentication	-9277
ela	-9278
003_	-9279
more	-9280
▁"2":	-9281
▁pull	-9282
▁commands	-9283
FlashAttention	-9284
assertIsNotNone	-9285
dif	-9286
MULTI	-9287
product	-9288
▁private	-9289
▁Processor	-9290
са	-9291
DOM	-9292
bur	-9293
demo	-9294
logy	-9295
tity	-9296
redis	-9297
kvstore	-9298
▁caching	-9299
▁appropri	-9300
peft	-9301
▁48,	-9302
▁whole	-9303
▁-0.0068	-9304
▁entries	-9305
groupings	-9306
▁negative	-9307
▁broadcast	-9308
ici	-9309
arse	-9310
relu	-9311
▁매개변수	-9312
▁-0.0069	-9313
▁imported	-9314
▁keypoints	-9315
▁Configuration	-9316
OCM	-9317
▁MA	-9318
▁0.0117	-9319
▁positive	-9320
ée	-9321
ティ	-9322
▁58	-9323
▁Mer	-9324
1.0",	-9325
▁perf	-9326
▁이미지	-9327
cally	-9328
filer	-9329
ixture	-9330
lations	-9331
кумента	-9332
accepted	-9333
▁-0.0064	-9334
2+00:00",	-9335
optimizer	-9336
gy	-9337
hl	-9338
kl	-9339
blog	-9340
clus	-9341
perf	-9342
toml	-9343
▁[![	-9344
▁men	-9345
inuous	-9346
▁├	-9347
CPM	-9348
▁710	-9349
dinov	-9350
parsed	-9351
▁route	-9352
▁-0.0016	-9353
▁kullanı	-9354
[1,	-9355
▁au	-9356
prim	-9357
▁más	-9358
indows	-9359
▁2048,	-9360
setattr	-9361
▁fusion	-9362
▁having	-9363
▁decorator	-9364
"}}	-9365
▁[(	-9366
▁설정	-9367
gated	-9368
▁Task	-9369
Paddle	-9370
▁Patch	-9371
Unknown	-9372
▁batches	-9373
SelfAttention	-9374
▁ú	-9375
"/>	-9376
}\0	-9377
▁Row	-9378
Button	-9379
chunked	-9380
▁gather	-9381
▁accessible	-9382
Hey	-9383
▁4:	-9384
atron	-9385
▁warm	-9386
windows	-9387
handlers	-9388
▁GenerationMixin	-9389
.)	-9390
8-	-9391
venv	-9392
▁dur	-9393
▁ranks	-9394
▁Iterator	-9395
`"	-9396
fs	-9397
해야	-9398
▁ро	-9399
Drop	-9400
▁사용할	-9401
INFER	-9402
login	-9403
▁Single	-9404
3+00:00",	-9405
▁conversations	-9406
abe	-9407
мер	-9408
PROC	-9409
▁RAM	-9410
ynamo	-9411
aviate	-9412
}\0{\"	-9413
▁quick	-9414
▁0.0035	-9415
▁0.0065	-9416
ya	-9417
▁100%	-9418
problem	-9419
completed	-9420
retrievers	-9421
입력	-9422
▁bf	-9423
▁├──	-9424
▁cook	-9425
ollama	-9426
missions	-9427
▁personal	-9428
▁tokenization	-9429
CES	-9430
▁nu	-9431
════	-9432
(-1))	-9433
▁France	-9434
▁reverse	-9435
Parameters	-9436
より	-9437
tier	-9438
TRANS	-9439
Weights	-9440
](../../	-9441
жи	-9442
▁ep	-9443
Title	-9444
shake	-9445
▁exit	-9446
▁named	-9447
▁strip	-9448
▁preser	-9449
Settings	-9450
▁offsets	-9451
▁ப	-9452
すべ	-9453
("-	-9454
han	-9455
144,	-9456
▁кон	-9457
Using	-9458
▁Fire	-9459
dimensions	-9460
ей	-9461
▁स	-9462
080	-9463
Skip	-9464
tein	-9465
Stats	-9466
AutoGen	-9467
▁altern	-9468
▁utilis	-9469
QueryEngine	-9470
=8	-9471
So	-9472
dic	-9473
▁20,	-9474
されてい	-9475
Scaled	-9476
▁Bytes	-9477
routers	-9478
▁-0.0067	-9479
▁pytorch	-9480
hfoptions	-9481
▁Required	-9482
▁"1.	-9483
ament	-9484
eners	-9485
▁flow	-9486
loaders	-9487
▁0.0037	-9488
▁-0.0013	-9489
▁anything	-9490
Termination	-9491
Pos	-9492
ilt	-9493
1024	-9494
arrow	-9495
▁Some	-9496
▁columns	-9497
precision	-9498
▁ToolMessage	-9499
bi	-9500
يب	-9501
▁خ	-9502
1),	-9503
sys	-9504
▁`__	-9505
▁ben	-9506
▁Structured	-9507
▁(0	-9508
▁Long	-9509
updates	-9510
construct	-9511
▁received	-9512
00\	-9513
swin	-9514
▁Rel	-9515
▁ast	-9516
▁tamb	-9517
mistralai	-9518
▁business	-9519
пов	-9520
▁코드	-9521
nvfp	-9522
tllm	-9523
Embed	-9524
utlass	-9525
▁Chunk	-9526
▁Upload	-9527
▁online	-9528
▁duration	-9529
▁patterns	-9530
▁AIMessageChunk	-9531
]]]	-9532
och	-9533
▁!(	-9534
▁RT	-9535
▁со	-9536
▁early	-9537
▁significant	-9538
клю	-9539
▁함수	-9540
Teemu	-9541
pment	-9542
▁-0.039	-9543
▁recent	-9544
▁statement	-9545
▁functionality	-9546
▁З	-9547
Bird	-9548
aone	-9549
ircle	-9550
policy	-9551
Connection	-9552
64_	-9553
▁모든	-9554
▁토큰	-9555
ATTN	-9556
icon	-9557
▁ten	-9558
▁буд	-9559
▁Timeout	-9560
▁failure	-9561
plications	-9562
|>\	-9563
▁입력	-9564
ativ	-9565
inds	-9566
▁MCP	-9567
▁San	-9568
Cluster	-9569
▁0.0068	-9570
ymmetric	-9571
▁demonstr	-9572
▁Accessing	-9573
▁identifier	-9574
bidirectional	-9575
CrossAttentions	-9576
▁중	-9577
which	-9578
▁0.0067	-9579
▁docker	-9580
▁answers	-9581
)|	-9582
1](	-9583
COD	-9584
oom	-9585
▁ча	-9586
▁0.4	-9587
ipulation	-9588
▁accelerate	-9589
OCO	-9590
▁Sm	-9591
▁Mar	-9592
▁XLM	-9593
▁difference	-9594
▁`{	-9595
Remove	-9596
cohere	-9597
fallback	-9598
Unsupported	-9599
▁overwritten	-9600
يف	-9601
CRI	-9602
375,	-9603
card	-9604
into	-9605
▁"</	-9606
▁Pres	-9607
▁desc	-9608
perform	-9609
ilingual	-9610
▁compressed	-9611
/9	-9612
400	-9613
het	-9614
nixl	-9615
roke	-9616
▁{}}	-9617
▁Rout	-9618
▁organ	-9619
persist	-9620
▁primary	-9621
▁확인	-9622
solr	-9623
▁acc	-9624
QUEST	-9625
plore	-9626
▁area	-9627
▁switch	-9628
requirements	-9629
sa	-9630
▁의	-9631
追加	-9632
하여	-9633
fan	-9634
was	-9635
▁[-	-9636
▁작업	-9637
▁]),	-9638
▁blank	-9639
Describe	-9640
▁greater	-9641
▁managing	-9642
▁Integration	-9643
fsdp	-9644
▁Big	-9645
123",	-9646
chars	-9647
▁ROCm	-9648
▁topic	-9649
2587479	-9650
strides	-9651
▁0.0010	-9652
10734389	-9653
107343892587479	-9654
6]	-9655
ty	-9656
、[	-9657
包含	-9658
所有	-9659
flag	-9660
▁раз	-9661
ellen	-9662
links	-9663
▁individual	-9664
got	-9665
."},	-9666
168,	-9667
POST	-9668
appro	-9669
▁Dire	-9670
▁знач	-9671
▁seems	-9672
KVCache	-9673
Inference	-9674
クラ	-9675
652	-9676
sampler	-9677
▁binary	-9678
▁targets	-9679
▁visible	-9680
Transform	-9681
▁개	-9682
idxs	-9683
ouch	-9684
льно	-9685
currency	-9686
▁-0.0010	-9687
Mk	-9688
Est	-9689
olr	-9690
▁'#	-9691
bottom	-9692
istency	-9693
▁inline	-9694
postgres	-9695
priority	-9696
Make	-9697
rust	-9698
▁imm	-9699
Files	-9700
GENET	-9701
failed	-9702
variant	-9703
▁launch	-9704
▁Nemotron	-9705
▁successful	-9706
▁capabilities	-9707
▁representing	-9708
▁değ	-9709
awesome	-9710
▁extraction	-9711
006	-9712
01:	-9713
▁ta	-9714
14",	-9715
|>",	-9716
FLASH	-9717
avily	-9718
DEVICE	-9719
Namespace	-9720
efficient	-9721
thumbnail	-9722
distilbert	-9723
▁classifier	-9724
сь	-9725
ORE	-9726
mek	-9727
mid	-9728
tle	-9729
DSML	-9730
▁:],	-9731
▁0.0064	-9732
▁indexing	-9733
プリ	-9734
▁EN	-9735
▁MM	-9736
▁방법	-9737
▁0.0017	-9738
▁bottom	-9739
▁designed	-9740
14.	-9741
▁cT	-9742
125,	-9743
ratch	-9744
served	-9745
▁0.038	-9746
cutlass	-9747
BaseMessage	-9748
32.	-9749
ena	-9750
NetV	-9751
rece	-9752
ınız	-9753
▁"#9	-9754
▁beam	-9755
▁serving	-9756
starlette	-9757
▁Expectations	-9758
CK	-9759
イル	-9760
CLS	-9761
NEL	-9762
▁RAG	-9763
▁eje	-9764
apture	-9765
synthes	-9766
cocodataset	-9767
Eval	-9768
plet	-9769
what	-9770
power	-9771
combin	-9772
Gradient	-9773
vailable	-9774
numtokens	-9775
▁nullable	-9776
▁functools	-9777
テキ	-9778
cape	-9779
テキスト	-9780
"][0]	-9781
,\\\"	-9782
Adapt	-9783
PONSE	-9784
Tuple	-9785
WebUI	-9786
astic	-9787
espan	-9788
▁Adapt	-9789
▁Split	-9790
▁marlin	-9791
Discover	-9792
▁modelos	-9793
ASSISTANT	-9794
tokenized	-9795
=%	-9796
훈련	-9797
▁ready	-9798
kipedia	-9799
extension	-9800
▁increase	-9801
▁요	-9802
DER	-9803
▁са	-9804
ders	-9805
ques	-9806
Local	-9807
▁After	-9808
én	-9809
Obj	-9810
▁[{	-9811
▁bad	-9812
▁ваш	-9813
larak	-9814
▁days	-9815
Indices	-9816
EntropyLoss	-9817
▁KVConnector	-9818
▁같은	-9819
indu	-9820
Reset	-9821
▁give	-9822
batches	-9823
network	-9824
▁absolute	-9825
▁MultiModalData	-9826
画像	-9827
unu	-9828
/210	-9829
▁nom	-9830
TIMEOUT	-9831
▁71011,	-9832
fixtures	-9833
▁speaker	-9834
istration	-9835
▁Connection	-9836
7-	-9837
ба	-9838
▁Kd	-9839
pres	-9840
unny	-9841
arding	-9842
serving	-9843
▁automaker	-9844
▁divisible	-9845
3"	-9846
Ab	-9847
пе	-9848
▁А	-9849
}},	-9850
▁light	-9851
compressed	-9852
-4)	-9853
PDF	-9854
ensure	-9855
▁shows	-9856
compiled	-9857
▁expanded	-9858
validations	-9859
13.	-9860
arı	-9861
Fine	-9862
tune	-9863
▁255	-9864
▁App	-9865
loops	-9866
▁Fast	-9867
Models	-9868
idence	-9869
▁datos	-9870
▁"2025-	-9871
▁Messages	-9872
▁termination	-9873
sentencepiece	-9874
▁cfg	-9875
forEach	-9876
[_	-9877
▁ow	-9878
▁Vous	-9879
▁shown	-9880
FusedMoE	-9881
▁uniform	-9882
▁consistent	-9883
06:	-9884
64-	-9885
sel	-9886
ました	-9887
▁pur	-9888
▁{%-	-9889
▁detected	-9890
!":	-9891
Glm	-9892
▁amd	-9893
coring	-9894
BytesIO	-9895
ificial	-9896
TEM	-9897
ков	-9898
▁これ	-9899
[2],	-9900
рабо	-9901
▁"".	-9902
▁ray	-9903
=128,	-9904
[-1])	-9905
iento	-9906
▁sugg	-9907
ToText	-9908
▁enforce	-9909
versation	-9910
tz	-9911
ید	-9912
08:	-9913
346	-9914
lan	-9915
typ	-9916
▁使用	-9917
Lite	-9918
▁мож	-9919
Could	-9920
public	-9921
decodes	-9922
▁approval	-9923
資料	-9924
](#	-9925
лов	-9926
Your	-9927
GENER	-9928
▁INFO	-9929
ulators	-9930
▁Idefics	-9931
\"]}\0{\"	-9932
キュ	-9933
04:	-9934
Min	-9935
]).	-9936
ngram	-9937
▁Torch	-9938
▁0.0069	-9939
▁machine	-9940
▁character	-9941
▁selection	-9942
DN	-9943
自動	-9944
▁ye	-9945
▁파일	-9946
▁필요	-9947
alab	-9948
Llava	-9949
region	-9950
▁legacy	-9951
▁BytesIO	-9952
framework	-9953
quantizer	-9954
undefined	-9955
▁Attribute	-9956
interpreter	-9957
▁intelligence	-9958
▁스	-9959
pub	-9960
ğin	-9961
Rout	-9962
Source	-9963
extras	-9964
ulated	-9965
opacity	-9966
▁-0.033	-9967
▁Result	-9968
▁mirror	-9969
ye	-9970
002	-9971
Link	-9972
OCAB	-9973
\.(\	-9974
ante	-9975
nums	-9976
வும்	-9977
▁Sin	-9978
/1059	-9979
hooks	-9980
▁goal	-9981
▁actor	-9982
▁favor	-9983
▁attach	-9984
Collator	-9985
▁physical	-9986
▁spectrogram	-9987
▁đ	-9988
056	-9989
MAT	-9990
?](../	-9991
▁0.0013	-9992
▁instanceof	-9993
SR	-9994
ود	-9995
03:	-9996
hre	-9997
ocs	-9998
ugg	-9999
▁27	-10000
▁DN	-10001
▁다른	-10002
Pers	-10003
▁-3.	-10004
=0.1,	-10005
▁stud	-10006
▁produce	-10007
activations	-10008
ık	-10009
ilv	-10010
ira	-10011
▁この	-10012
heel	-10013
▁39,	-10014
Control	-10015
batching	-10016
▁globals	-10017
▁Features	-10018
▁RunnableConfig	-10019
9]	-10020
(?:	-10021
2.0	-10022
686	-10023
▁Yd	-10024
AUTO	-10025
▁mot	-10026
built	-10027
itsAnd	-10028
▁ModelConfig	-10029
ains	-10030
zone	-10031
optic	-10032
▁World	-10033
▁suite	-10034
"][0]["	-10035
▁olarak	-10036
▁replic	-10037
Renaming	-10038
▁minutes	-10039
▁auxiliary	-10040
itsAndBytes	-10041
hierarchical	-10042
ita	-10043
▁훈련	-10044
apan	-10045
cons	-10046
uples	-10047
▁sich	-10048
medium	-10049
▁نموذج	-10050
▁Public	-10051
3:	-10052
hä	-10053
ві	-10054
-3,	-10055
sharded	-10056
▁OPENAI	-10057
▁indent	-10058
NodeWithScore	-10059
▁applications	-10060
▁비	-10061
-2.	-10062
1319	-10063
STRY	-10064
scan	-10065
▁2020	-10066
atever	-10067
placed	-10068
▁Evalu	-10069
▁today	-10070
percent	-10071
routing	-10072
336,	-10073
3988	-10074
={},	-10075
click	-10076
▁кото	-10077
▁0.036	-10078
(-	-10079
▁ம	-10080
▁해	-10081
)}"	-10082
aug	-10083
として	-10084
")],	-10085
"}},	-10086
255,	-10087
thed	-10088
▁Seq	-10089
anies	-10090
README	-10091
REQUEST	-10092
targets	-10093
▁ensuring	-10094
DP	-10095
`."	-10096
mony	-10097
wend	-10098
トークン	-10099
metro	-10100
guides	-10101
▁Redis	-10102
itations	-10103
▁average	-10104
▁refresh	-10105
مة	-10106
▁없	-10107
('/	-10108
UST	-10109
ige	-10110
▁3]	-10111
ために	-10112
LOAD	-10113
▁Seg	-10114
▁Table	-10115
▁overwrite	-10116
▁recommended	-10117
▁CausalLMOutput	-10118
kw	-10119
▁ris	-10120
▁merges	-10121
Di	-10122
INO	-10123
izz	-10124
すべて	-10125
fers	-10126
Pixel	-10127
httpx	-10128
inting	-10129
▁itself	-10130
collator	-10131
▁workers	-10132
▁splitting	-10133
▁normalization	-10134
gi	-10135
▁"96	-10136
ernet	-10137
▁Admin	-10138
▁debug	-10139
▁Jupyter	-10140
作成	-10141
▁"'	-10142
nccl	-10143
change	-10144
thedocs	-10145
Ids	-10146
win	-10147
Clip	-10148
Hero	-10149
▁ones	-10150
▁unit	-10151
History	-10152
اف	-10153
CCL	-10154
08",	-10155
nées	-10156
モデルの	-10157
margin	-10158
▁einen	-10159
▁logical	-10160
iteration	-10161
▁Position	-10162
PreTraining	-10163
なり	-10164
gro	-10165
▁*=	-10166
▁7.	-10167
sink	-10168
▁bas	-10169
▁emit	-10170
▁fact	-10171
▁sets	-10172
shuffle	-10173
▁NVIDIA	-10174
▁Maximum	-10175
resources	-10176
lru	-10177
зна	-10178
▁أن	-10179
uation	-10180
refresh	-10181
▁Remote	-10182
00000000	-10183
inductor	-10184
▁insight	-10185
BackendEnum	-10186
▁ty	-10187
Stop	-10188
VLMoe	-10189
turbo	-10190
unded	-10191
▁"2048	-10192
library	-10193
reshaped	-10194
Authorization	-10195
phi	-10196
}),	-10197
▁")	-10198
inct	-10199
angle	-10200
riven	-10201
ugins	-10202
finalize	-10203
▁complet	-10204
▁extends	-10205
▁backward	-10206
readthedocs	-10207
0,0,0,0,0,0,0,0,	-10208
▁내	-10209
500	-10210
PAD	-10211
+)\.	-10212
NING	-10213
▁11,	-10214
Drive	-10215
▁"128	-10216
▁tell	-10217
cookie	-10218
siglip	-10219
▁-0.036	-10220
▁seqlen	-10221
grouping	-10222
initialize	-10223
oriz	-10224
▁[2,	-10225
started	-10226
polation	-10227
▁uploaded	-10228
processors	-10229
▁Otherwise	-10230
▁Scheduler	-10231
▁및	-10232
ட்ட	-10233
MENT	-10234
addr	-10235
faces	-10236
jinja	-10237
▁comme	-10238
▁happen	-10239
▁scaled	-10240
▁Dataset	-10241
▁overrides	-10242
HuggingFace	-10243
▁everything	-10244
▁dT	-10245
stem	-10246
ected	-10247
lender	-10248
option	-10249
▁Multiple	-10250
FunctionCall	-10251
ilvus	-10252
scatter	-10253
ultimask	-10254
▁chunked	-10255
▁endpoints	-10256
▁で	-10257
dered	-10258
▁edits	-10259
mappings	-10260
▁документа	-10261
sim	-10262
▁'"	-10263
▁',	-10264
▁여러	-10265
=64,	-10266
▁[];	-10267
anyOf	-10268
▁city	-10269
▁Qdrant	-10270
operator	-10271
▁분	-10272
=\"	-10273
CONTEXT	-10274
essions	-10275
elements	-10276
6+00:00",	-10277
architecture	-10278
:0	-10279
"]]	-10280
blip	-10281
▁MLP	-10282
▁dem	-10283
▁conn	-10284
▁Leave	-10285
▁edges	-10286
▁middle	-10287
retrieve	-10288
▁appropriate	-10289
===	-10290
jay	-10291
})"	-10292
▁ба	-10293
Part	-10294
beit	-10295
ette	-10296
voke	-10297
utoff	-10298
▁[0.5	-10299
abling	-10300
enshot	-10301
▁Prepare	-10302
namespace	-10303
correction	-10304
▁پ	-10305
程式	-10306
▁ur	-10307
▁пов	-10308
ファイル	-10309
▁HEAD	-10310
▁{}).	-10311
Render	-10312
Download	-10313
▁IMAGENET	-10314
ém	-10315
12-	-10316
▁Dummy	-10317
▁cause	-10318
▁delay	-10319
Program	-10320
cleanup	-10321
▁External	-10322
▁packages	-10323
'`	-10324
cmd	-10325
0234	-10326
▁cent	-10327
▁0.039	-10328
▁redis	-10329
▁callable	-10330
▁implementations	-10331
其他	-10332
лен	-10333
DETR	-10334
▁bal	-10335
share	-10336
incipal	-10337
toString	-10338
ypedDict	-10339
▁further	-10340
bitsandbytes	-10341
бы	-10342
▁–	-10343
2")	-10344
udc	-10345
-202	-10346
▁Don	-10347
ecret	-10348
▁APIs	-10349
rastive	-10350
▁appear	-10351
▁cancel	-10352
▁editor	-10353
conditional	-10354
▁connections	-10355
fad	-10356
▁де	-10357
▁프로	-10358
▁10)	-10359
major	-10360
▁glob	-10361
assign	-10362
chains	-10363
ipient	-10364
▁8192,	-10365
003	-10366
Sign	-10367
▁opt	-10368
▁UUID	-10369
egasus	-10370
▁0.033	-10371
▁assum	-10372
▁puedes	-10373
▁compress	-10374
▁algorithm	-10375
BI	-10376
LY	-10377
dep	-10378
rpc	-10379
лож	-10380
▁60	-10381
leri	-10382
▁-4.	-10383
▁Hel	-10384
Docker	-10385
▁subsequ	-10386
setOptions	-10387
▁FlashInfer	-10388
1-1	-10389
сли	-10390
define	-10391
manual	-10392
Private	-10393
EXPECTED	-10394
manipulation	-10395
▁QueryBundle	-10396
";	-10397
يق	-10398
いて	-10399
▁Ze	-10400
タスク	-10401
▁har	-10402
scalar	-10403
▁splits	-10404
▁companies	-10405
07:	-10406
\"\	-10407
_1.	-10408
umb	-10409
▁пу	-10410
135,	-10411
View	-10412
ainer	-10413
icion	-10414
▁nvml	-10415
▁Answer	-10416
▁anyone	-10417
▁Generic	-10418
▁MiniMaxM	-10419
▁sqlalchemy	-10420
XX	-10421
كل	-10422
402	-10423
dia	-10424
sor	-10425
neox	-10426
▁pan	-10427
losed	-10428
▁reli	-10429
activate	-10430
BertModel	-10431
▁languages	-10432
▁Ви	-10433
1.0]	-10434
ında	-10435
matching	-10436
▁accepts	-10437
▁pending	-10438
Evaluator	-10439
▁whatever	-10440
▁truncated	-10441
.'	-10442
cv	-10443
DEX	-10444
ips	-10445
▁Pr	-10446
▁Wh	-10447
")),	-10448
▁din	-10449
▁gra	-10450
▁mut	-10451
▁"512	-10452
▁Link	-10453
▁live	-10454
▁exemplo	-10455
▁variant	-10456
APIRouter	-10457
answering	-10458
▁artificial	-10459
ор	-10460
▁»	-10461
クト	-10462
학습	-10463
630	-10464
Mer	-10465
▁TH	-10466
SDPA	-10467
asci	-10468
exto	-10469
fuse	-10470
▁day	-10471
▁пре	-10472
Skill	-10473
andid	-10474
▁Depth	-10475
▁raises	-10476
snapshot	-10477
▁ejemplo	-10478
▁artifact	-10479
Car	-10480
Tam	-10481
_1_	-10482
▁??	-10483
ging	-10484
▁(["	-10485
▁:])	-10486
▁wir	-10487
entries	-10488
selectionHandler	-10489
BM	-10490
ibe	-10491
вто	-10492
DATA	-10493
▁(3,	-10494
▁768	-10495
▁eng	-10496
▁Flex	-10497
▁affect	-10498
▁GPTSimple	-10499
▁speculative	-10500
ley	-10501
▁gö	-10502
"}),	-10503
-100	-10504
ount	-10505
▁sit	-10506
servers	-10507
▁mistral	-10508
▁underlying	-10509
த்த	-10510
▁WE	-10511
(...	-10512
32",	-10513
ENCE	-10514
adam	-10515
▁year	-10516
ComfyUI	-10517
REGISTRY	-10518
▁locally	-10519
isinstance	-10520
!"	-10521
து	-10522
▁포함	-10523
(1).	-10524
each	-10525
ului	-10526
popup	-10527
solid	-10528
▁Colab	-10529
sponsors	-10530
▁priority	-10531
▁projected	-10532
coordinates	-10533
▁downsample	-10534
uu	-10535
▁반	-10536
sem	-10537
itude	-10538
▁Olmo	-10539
▁gemm	-10540
▁Super	-10541
▁overflow	-10542
iB	-10543
wi	-10544
1249	-10545
dictor	-10546
▁starts	-10547
SP	-10548
UE	-10549
ERY	-10550
セット	-10551
1235	-10552
bart	-10553
▁tqdm	-10554
member	-10555
replic	-10556
warnings	-10557
▁regular	-10558
835	-10559
مكن	-10560
chen	-10561
chor	-10562
upper	-10563
▁lock	-10564
Deepseek	-10565
ARD	-10566
сту	-10567
▁-5.	-10568
Queue	-10569
rules	-10570
▁oder	-10571
▁author	-10572
DecoderConfig	-10573
▁Д	-10574
152	-10575
}}/	-10576
aves	-10577
▁3),	-10578
▁als	-10579
▁Play	-10580
Change	-10581
▁China	-10582
▁strong	-10583
atermark	-10584
▁calculate	-10585
▁partition	-10586
convolution	-10587
ون	-10588
02.	-10589
ний	-10590
▁EP	-10591
텍스트	-10592
54",	-10593
▁-6.	-10594
mrope	-10595
▁Swin	-10596
▁month	-10597
▁lookup	-10598
aceholder	-10599
processes	-10600
▁production	-10601
%,	-10602
Fin	-10603
▁47	-10604
amma	-10605
imin	-10606
ание	-10607
anner	-10608
effort	-10609
display	-10610
▁latency	-10611
ContentBlock	-10612
DU	-10613
MT	-10614
سب	-10615
通常	-10616
-4-	-10617
▁Es	-10618
576,	-10619
▁click	-10620
▁enforces	-10621
▁modalities	-10622
▁AttributeError	-10623
ığ	-10624
ênc	-10625
32).	-10626
ROCM	-10627
eren	-10628
scrib	-10629
andidates	-10630
▁runnable	-10631
▁【	-10632
266	-10633
eta	-10634
три	-10635
165,	-10636
1888	-10637
ITON	-10638
▁wins	-10639
Tracker	-10640
lestore	-10641
▁Delete	-10642
▁arrows	-10643
Sentence	-10644
ranscript	-10645
▁selector	-10646
css	-10647
▁Id	-10648
anus	-10649
rupt	-10650
ashes	-10651
agemaker	-10652
determin	-10653
resample	-10654
▁Current	-10655
▁indexes	-10656
▁secrets	-10657
encodings	-10658
اء	-10659
15.	-10660
Des	-10661
ること	-10662
Reduce	-10663
minutes	-10664
tracker	-10665
▁descri	-10666
▁WeightRenaming	-10667
:{	-10668
aba	-10669
ный	-10670
0597	-10671
oyage	-10672
▁That	-10673
▁Wenn	-10674
Missing	-10675
keyword	-10676
▁offload	-10677
▁Research	-10678
ForPreTraining	-10679
▁44	-10680
▁대한	-10681
695,	-10682
envs	-10683
hind	-10684
vided	-10685
▁move	-10686
▁sist	-10687
▁çalı	-10688
differ	-10689
▁Scale	-10690
failure	-10691
▁AutoGen	-10692
▁Semantic	-10693
▁distribution	-10694
DEN	-10695
smo	-10696
adas	-10697
▁swa	-10698
▁handled	-10699
▁ر	-10700
參數	-10701
xlm	-10702
3412	-10703
▁ima	-10704
ranges	-10705
▁undone	-10706
category	-10707
▁expects	-10708
án	-10709
▁📝	-10710
/")	-10711
_2,	-10712
aim	-10713
}.{	-10714
/107	-10715
1435	-10716
клад	-10717
enate	-10718
pilot	-10719
divisor	-10720
▁Header	-10721
▁likely	-10722
Location	-10723
████████	-10724
pyproject	-10725
▁fonction	-10726
▁प	-10727
路径	-10728
02:	-10729
32:	-10730
▁80	-10731
ceed	-10732
вання	-10733
▁links	-10734
▁compar	-10735
▁modèle	-10736
▁refine	-10737
▁cluster	-10738
lenderbot	-10739
▁performing	-10740
CausalLMOutput	-10741
1`	-10742
oi	-10743
_2.	-10744
roy	-10745
вля	-10746
▁бы	-10747
recv	-10748
▁"19	-10749
Basic	-10750
▁dims	-10751
▁"4096	-10752
▁owner	-10753
wrapped	-10754
▁DeepSeek	-10755
▁AssistantAgent	-10756
eck	-10757
Arch	-10758
_202	-10759
Symbol	-10760
VECTOR	-10761
epochs	-10762
virtual	-10763
▁copied	-10764
▁scheme	-10765
▁tables	-10766
Provider	-10767
▁compiled	-10768
▁Benchmark	-10769
▁ChatOpenAI	-10770
하지	-10771
tgt	-10772
▁depends	-10773
▁BaseReader	-10774
cbc	-10775
▁cp	-10776
earn	-10777
▁sep	-10778
▁stuff	-10779
▁Intern	-10780
mro	-10781
▁제공	-10782
leon	-10783
▁([`	-10784
▁mai	-10785
▁sie	-10786
iving	-10787
notes	-10788
Height	-10789
tracer	-10790
modified	-10791
▁frontend	-10792
▁mismatch	-10793
▁DB	-10794
iler	-10795
▁"48	-10796
ration	-10797
Adapter	-10798
▁-0.0202	-10799
▁devices	-10800
▁Reasoning	-10801
▁SeamlessM	-10802
▁Description	-10803
20,	-10804
coders	-10805
▁Allow	-10806
▁Basic	-10807
▁Modern	-10808
▁beginning	-10809
関数	-10810
uge	-10811
idad	-10812
мати	-10813
▁Dist	-10814
▁tier	-10815
Mobile	-10816
PREFIX	-10817
▁modello	-10818
▁keywords	-10819
applications	-10820
▁최	-10821
1")	-10822
nel	-10823
ция	-10824
22",	-10825
Note	-10826
onsh	-10827
metros	-10828
middle	-10829
Pooling	-10830
▁Sentence	-10831
evaluation	-10832
▁published	-10833
MultipleChoice	-10834
▁![	-10835
▁학습	-10836
0.0.	-10837
INTER	-10838
▁kept	-10839
▁resh	-10840
▁person	-10841
testclient	-10842
▁accessing	-10843
▁sequential	-10844
▁AsyncSession	-10845
▁EncoderDecoder	-10846
``.	-10847
▁El	-10848
▁why	-10849
Tokens	-10850
setenv	-10851
square	-10852
unknown	-10853
avaScript	-10854
-{	-10855
同じ	-10856
3":	-10857
320	-10858
▁He	-10859
▁си	-10860
ookie	-10861
▁Conf	-10862
▁gets	-10863
▁slen	-10864
▁exper	-10865
sources	-10866
▁PPOCRV	-10867
▁double	-10868
visitors	-10869
)[	-10870
/8	-10871
5]	-10872
ག་	-10873
▁И	-10874
など	-10875
려면	-10876
)."	-10877
2](	-10878
fit	-10879
nAs	-10880
▁9,	-10881
Step	-10882
▁CSV	-10883
▁Por	-10884
pring	-10885
▁impl	-10886
imiter	-10887
▁notes	-10888
logprob	-10889
combined	-10890
▁iteration	-10891
summarization	-10892
CC	-10893
wt	-10894
"`,	-10895
ika	-10896
▁Hf	-10897
/209	-10898
ASON	-10899
TENT	-10900
▁[0]	-10901
quick	-10902
▁"307	-10903
atting	-10904
mapper	-10905
ridden	-10906
LayoutV	-10907
▁[0.1.0]	-10908
▁certain	-10909
Microsoft	-10910
▁approach	-10911
▁convolutional	-10912
ker	-10913
▁./	-10914
▁<<	-10915
({},	-10916
1768	-10917
▁vol	-10918
▁whose	-10919
▁assign	-10920
▁"4096":	-10921
▁Instruct	-10922
postprocess	-10923
عل	-10924
\")	-10925
cee	-10926
195,	-10927
GEMM	-10928
▁rocm	-10929
munity	-10930
▁"2048":	-10931
▁FilterOperator	-10932
nh	-10933
ты	-10934
▁м	-10935
▁ह	-10936
176	-10937
NONE	-10938
ycle	-10939
▁unk	-10940
anitize	-10941
▁-0.0047	-10942
ི་	-10943
应用	-10944
ENG	-10945
▁(_	-10946
675,	-10947
▁[1]	-10948
onshine	-10949
Anthropic	-10950
SUPPORTED	-10951
▁clipboard	-10952
/12	-10953
пра	-10954
([1,	-10955
refine	-10956
▁invest	-10957
▁English	-10958
Converter	-10959
developer	-10960
▁controls	-10961
▁determine	-10962
▁subprocess	-10963
▁placeholders	-10964
라이	-10965
Host	-10966
lems	-10967
▁emp	-10968
▁squ	-10969
▁сер	-10970
▁Notes	-10971
Predictor	-10972
▁capability	-10973
▁downloading	-10974
(4	-10975
进行	-10976
-10	-10977
RST	-10978
VAR	-10979
▁tf	-10980
▁3))	-10981
▁Deb	-10982
▁Edge	-10983
▁Accept	-10984
▁usando	-10985
▁flashinfer	-10986
ERE	-10987
Pol	-10988
メント	-10989
стан	-10990
Final	-10991
peated	-10992
unused	-10993
▁Local	-10994
ionError	-10995
Execution	-10996
єте	-10997
▁під	-10998
merged	-10999
depends	-11000
▁sandbox	-11001
▁entities	-11002
▁timestamps	-11003
▁г	-11004
工具	-11005
558	-11006
GUF	-11007
isa	-11008
▁96	-11009
(2).	-11010
▁3],	-11011
▁Ray	-11012
Command	-11013
▁raised	-11014
▁données	-11015
▁splitter	-11016
▁Microsoft	-11017
▁preserved	-11018
▁president	-11019
tu	-11020
är	-11021
033	-11022
Fire	-11023
ours	-11024
rave	-11025
rule	-11026
▁2],	-11027
human	-11028
linux	-11029
▁Você	-11030
▁bits	-11031
deepcopy	-11032
OpenAIServer	-11033
یں	-11034
าร	-11035
▁Ob	-11036
▁문서	-11037
ного	-11038
CODER	-11039
echan	-11040
nWhat	-11041
vised	-11042
granite	-11043
▁Storage	-11044
finetuned	-11045
boundingBox	-11046
labelModule	-11047
MAE	-11048
22":	-11049
9507	-11050
▁Arg	-11051
Alias	-11052
BERTa	-11053
ouses	-11054
▁"8":	-11055
▁[]),	-11056
▁использу	-11057
▁MetadataFilters	-11058
/`	-11059
8]	-11060
类型	-11061
DIS	-11062
apas	-11063
clar	-11064
▁pdf	-11065
468-1	-11066
469-1	-11067
▁2019	-11068
Sample	-11069
iSpeech	-11070
uilding	-11071
▁scalar	-11072
▁-0.0027	-11073
▁[0.5.0]	-11074
▁builder	-11075
broadcast	-11076
▁movement	-11077
()(	-11078
med	-11079
лях	-11080
igen	-11081
▁-7.	-11082
▁Bel	-11083
▁под	-11084
grids	-11085
▁Prom	-11086
▁clos	-11087
Pooler	-11088
online	-11089
▁Imple	-11090
▁endif	-11091
▁0.0027	-11092
▁-0.0007	-11093
▁-0.0057	-11094
▁creation	-11095
overflowing	-11096
ModelTesterMixin	-11097
hw	-11098
عة	-11099
03.	-11100
04.	-11101
6749	-11102
note	-11103
▁slo	-11104
(".")	-11105
thought	-11106
criteria	-11107
itespace	-11108
▁-0.0028	-11109
capturing	-11110
escriptors	-11111
▁flattened	-11112
ProcessorKwargs	-11113
سل	-11114
▁특	-11115
201	-11116
anh	-11117
erU	-11118
105,	-11119
keit	-11120
refs	-11121
▁[3,	-11122
Offset	-11123
▁independ	-11124
3/	-11125
提示	-11126
ска	-11127
▁vi	-11128
2414	-11129
iera	-11130
▁enh	-11131
Gemini	-11132
nThere	-11133
▁"32":	-11134
ategies	-11135
▁([#209	-11136
▁paramè	-11137
Listeners	-11138
LanguageModel	-11139
▁조	-11140
训练	-11141
ERN	-11142
RGB	-11143
cpp	-11144
OUND	-11145
rink	-11146
▁'')	-11147
▁far	-11148
convs	-11149
▁Ihre	-11150
Toggle	-11151
▁"512":	-11152
▁Generator	-11153
▁использовать	-11154
05.	-11155
939	-11156
="<	-11157
Dec	-11158
106,	-11159
63",	-11160
needs	-11161
▁pará	-11162
Decode	-11163
▁"256":	-11164
▁cursor	-11165
ENDPOINT	-11166
FieldConfig	-11167
▁businesses	-11168
▁MessageRole	-11169
▁transcription	-11170
642	-11171
2458	-11172
HTML	-11173
eros	-11174
▁Iss	-11175
▁bil	-11176
▁mix	-11177
inite	-11178
▁Stop	-11179
Border	-11180
▁thing	-11181
wendung	-11182
▁0.0007	-11183
▁"3072":	-11184
▁particular	-11185
▁테	-11186
072	-11187
▁ao	-11188
▁nb	-11189
CKEN	-11190
endo	-11191
Piece	-11192
freqs	-11193
hrough	-11194
▁terms	-11195
entially	-11196
▁management	-11197
8:	-11198
La	-11199
PC	-11200
164,	-11201
inel	-11202
tlen	-11203
feats	-11204
▁Save	-11205
apiens	-11206
grants	-11207
▁"16":	-11208
▁"64":	-11209
resized	-11210
▁"128":	-11211
Examples	-11212
Flamingo	-11213
QueryResult	-11214
▁오	-11215
路徑	-11216
들어	-11217
ROM	-11218
▁ин	-11219
(0).	-11220
1298	-11221
border	-11222
cancel	-11223
sharing	-11224
▁"1024":	-11225
▁Swagger	-11226
Retrieval	-11227
▁batching	-11228
monkeypatch	-11229
▁Intelligence	-11230
入力	-11231
64.	-11232
_0,	-11233
6499	-11234
▁"24	-11235
metry	-11236
▁GPTQ	-11237
CLIENT	-11238
family	-11239
greedy	-11240
masking	-11241
▁Paddle	-11242
▁warmup	-11243
ibeVoice	-11244
▁percent	-11245
▁direction	-11246
函数	-11247
;">	-11248
pat	-11249
136,	-11250
344,	-11251
atted	-11252
pragma	-11253
ameleon	-11254
▁design	-11255
▁scopes	-11256
▁seeking	-11257
EMBEDDING	-11258
allreduce	-11259
codebooks	-11260
▁Gradient	-11261
(\"	-11262
-5.	-11263
750	-11264
GLM	-11265
SYS	-11266
▁39	-11267
▁LM	-11268
()):	-11269
36":	-11270
Send	-11271
Swin	-11272
trim	-11273
front	-11274
▁guid	-11275
▁million	-11276
Functions	-11277
▁Overview	-11278
tos	-11279
gged	-11280
=512,	-11281
▁"^1.	-11282
▁dados	-11283
▁visit	-11284
▁proces	-11285
▁Voxtral	-11286
reduction	-11287
replacement	-11288
configurable	-11289
▁FunctionTool	-11290
ང་	-11291
処理	-11292
160	-11293
▁(.	-11294
ドキュ	-11295
0669	-11296
decay	-11297
eploy	-11298
▁"4":	-11299
▁idea	-11300
nippet	-11301
Unified	-11302
▁losses	-11303
DeepSeek	-11304
expectation	-11305
▁这	-11306
创建	-11307
-3)	-11308
-4.	-11309
[__	-11310
awn	-11311
)}")	-11312
655,	-11313
Json	-11314
break	-11315
vices	-11316
▁They	-11317
▁byte	-11318
nables	-11319
▁clone	-11320
Testing	-11321
▁docstore	-11322
гу	-11323
Son	-11324
▁mé	-11325
0547	-11326
345,	-11327
("/")	-11328
▁0.030	-11329
▁simply	-11330
renderer	-11331
▁Retrieval	-11332
▁returning	-11333
HTTPException	-11334
gb	-11335
CRE	-11336
iod	-11337
ême	-11338
olds	-11339
timm	-11340
▁Age	-11341
▁vent	-11342
umpify	-11343
▁haben	-11344
▁tmpdirname	-11345
06-	-11346
21.	-11347
atom	-11348
iggs	-11349
ungen	-11350
▁Need	-11351
Redraw	-11352
trtllm	-11353
▁-0.0008	-11354
#########	-11355
ند	-11356
09:	-11357
LEN	-11358
blk	-11359
▁FA	-11360
ポート	-11361
-224	-11362
100.	-11363
512,	-11364
MODE	-11365
iglu	-11366
ITHUB	-11367
rozen	-11368
▁sobre	-11369
backward	-11370
▁Windows	-11371
fusionGemma	-11372
NE	-11373
▁도	-11374
LED	-11375
Sym	-11376
▁36	-11377
または	-11378
185,	-11379
2.5-	-11380
385,	-11381
__",	-11382
▁valor	-11383
scripts	-11384
▁0.0057	-11385
▁impact	-11386
Identity	-11387
▁receive	-11388
로드	-11389
(0.	-11390
467	-11391
=16	-11392
=__	-11393
las	-11394
▁EX	-11395
▁Los	-11396
▁zur	-11397
▁пот	-11398
[-2:]	-11399
under	-11400
thumbs	-11401
▁Roberta	-11402
identifier	-11403
▁LogitsProcessor	-11404
BR	-11405
ASE	-11406
▁TLS	-11407
▁ing	-11408
ansion	-11409
branch	-11410
stdout	-11411
▁будет	-11412
tleneck	-11413
▁origin	-11414
runnable	-11415
▁combine	-11416
mageProcessor	-11417
(3,	-11418
App	-11419
MIS	-11420
lif	-11421
▁Fp	-11422
▁pi	-11423
__"]	-11424
isto	-11425
AITER	-11426
Ratio	-11427
asure	-11428
▁Cons	-11429
▁النموذج	-11430
▁configurable	-11431
مي	-11432
TRA	-11433
175,	-11434
need	-11435
Cloud	-11436
▁lazy	-11437
▁Daten	-11438
▁sched	-11439
▁"422":	-11440
▁mechan	-11441
TextNode	-11442
▁Adapted	-11443
assignment	-11444
serialized	-11445
BE	-11446
ें	-11447
%20	-11448
imp	-11449
145,	-11450
▁объ	-11451
FILES	-11452
ações	-11453
▁told	-11454
▁codes	-11455
ASONING	-11456
upgrade	-11457
▁joining	-11458
▁outside	-11459
▁abstract	-11460
▁unexpected	-11461
(?	-11462
Bo	-11463
ན་	-11464
▁ش	-11465
▁변	-11466
кти	-11467
Bool	-11468
▁Ign	-11469
▁license	-11470
▁internally	-11471
4(	-11472
lb	-11473
vF	-11474
▁と	-11475
?")	-11476
XLM	-11477
▁8.	-11478
Span	-11479
Vllm	-11480
onic	-11481
▁usu	-11482
▁테스트	-11483
▁auch	-11484
▁"48":	-11485
Summary	-11486
▁Images	-11487
▁virtual	-11488
MD	-11489
]`.	-11490
▁pt	-11491
アプリ	-11492
12",	-11493
194,	-11494
685,	-11495
▁SDK	-11496
=100,	-11497
▁Lisp	-11498
▁"24":	-11499
▁great	-11500
▁neces	-11501
Extract	-11502
lemetry	-11503
offline	-11504
▁forced	-11505
▁respond	-11506
GroupChat	-11507
▁subclass	-11508
%2	-11509
▁У	-11510
968	-11511
▁Side	-11512
▁arqu	-11513
covery	-11514
aligned	-11515
▁0.0202	-11516
▁buffers	-11517
▁hardware	-11518
▁AsyncGenerator	-11519
gfx	-11520
134,	-11521
645,	-11522
many	-11523
Small	-11524
autoc	-11525
osite	-11526
▁adds	-11527
symbol	-11528
through	-11529
▁modify	-11530
▁nothing	-11531
sagemaker	-11532
▁truncate	-11533
899	-11534
csv	-11535
▁42	-11536
▁Ak	-11537
neck	-11538
▁SAM	-11539
▁الب	-11540
rieve	-11541
▁Send	-11542
▁Bloom	-11543
▁State	-11544
▁series	-11545
existing	-11546
▁website	-11547
pipelines	-11548
▁effective	-11549
▁potential	-11550
NO	-11551
<--	-11552
WEB	-11553
▁29	-11554
1528	-11555
maid	-11556
offs	-11557
دريب	-11558
▁fig	-11559
▁ssm	-11560
▁0.99	-11561
▁Details	-11562
▁TypeVar	-11563
avigation	-11564
abilirsiniz	-11565
OG	-11566
usr	-11567
vlm	-11568
▁На	-11569
155,	-11570
1887	-11571
64",	-11572
8<--	-11573
raps	-11574
▁wor	-11575
▁без	-11576
QUERY	-11577
▁LDAP	-11578
▁Will	-11579
▁diag	-11580
▁[0.3.	-11581
▁Module	-11582
▁"1536":	-11583
▁dilation	-11584
conversation	-11585
{%	-11586
不是	-11587
特定	-11588
'])	-11589
(("	-11590
05:	-11591
}',	-11592
▁tw	-11593
Mamba	-11594
arios	-11595
▁font	-11596
▁"96":	-11597
▁0.0077	-11598
▁RTDetr	-11599
▁canvas	-11600
▁moment	-11601
accuracy	-11602
▁answering	-11603
▁autopilot	-11604
▁각	-11605
레이	-11606
кий	-11607
095,	-11608
fire	-11609
▁MAX	-11610
▁mcp	-11611
datab	-11612
usoid	-11613
▁keeps	-11614
apanese	-11615
▁--8<--	-11616
▁mapbox	-11617
▁stable	-11618
▁preprocessing	-11619
Fa	-11620
代码	-11621
Dino	-11622
lack	-11623
▁роз	-11624
AUDIO	-11625
INPUT	-11626
poses	-11627
vious	-11628
▁dump	-11629
()["__	-11630
adjust	-11631
▁Rotary	-11632
multipart	-11633
▁synchron	-11634
▁ModelResponse	-11635
IntegrationTest	-11636
(/	-11637
vs	-11638
اس	-11639
環境	-11640
ién	-11641
▁pd	-11642
▁기본	-11643
smos	-11644
▁وال	-11645
uuids	-11646
▁2021	-11647
einsum	-11648
Selected	-11649
▁retries	-11650
VQ	-11651
hh	-11652
▁й	-11653
-2-	-11654
915	-11655
0205	-11656
536,	-11657
656,	-11658
Save	-11659
ется	-11660
CHUNK	-11661
▁0.0047	-11662
MoeBackend	-11663
▁regulators	-11664
▁authorization	-11665
▁serialization	-11666
kn	-11667
에는	-11668
.0)	-11669
Out	-11670
("./	-11671
104,	-11672
jpeg	-11673
ygul	-11674
▁aims	-11675
ierung	-11676
▁plain	-11677
▁driven	-11678
▁starlette	-11679
)["	-11680
404	-11681
948	-11682
tty	-11683
ming	-11684
▁MXFP	-11685
▁über	-11686
rained	-11687
станов	-11688
▁epoch	-11689
▁limits	-11690
ız	-11691
ря	-11692
Lat	-11693
▁MI	-11694
0.0"	-11695
184,	-11696
25",	-11697
стру	-11698
▁aio	-11699
▁2024-	-11700
▁utiliser	-11701
▁Embeddings	-11702
BY	-11703
zi	-11704
任何	-11705
적인	-11706
▁49	-11707
▁55	-11708
1100	-11709
115,	-11710
▁Vis	-11711
Build	-11712
binary	-11713
▁cloud	-11714
▁0.0028	-11715
ChatStore	-11716
EventType	-11717
direction	-11718
redundant	-11719
uj	-11720
кт	-11721
依存	-11722
ples	-11723
▁-9.	-11724
packs	-11725
▁사용하여	-11726
▁Total	-11727
skipped	-11728
ordinate	-11729
▁counter	-11730
▁baseline	-11731
▁quantize	-11732
roundingDino	-11733
AttentionSpec	-11734
文档	-11735
▁1`	-11736
Serial	-11737
ainvoke	-11738
▁depart	-11739
ScaledMM	-11740
keyPatch	-11741
redirect	-11742
▁respons	-11743
TRANSFORM	-11744
recurrent	-11745
assertFalse	-11746
kr	-11747
pm	-11748
コン	-11749
래스	-11750
>',	-11751
166,	-11752
1948	-11753
▁Dec	-11754
▁Lud	-11755
▁Owl	-11756
▁다음과	-11757
▁fuel	-11758
indptr	-11759
▁creates	-11760
▁asynchronous	-11761
0:	-11762
8(	-11763
WQ	-11764
ップ	-11765
9",	-11766
=7,	-11767
OST	-11768
dee	-11769
ius	-11770
роб	-11771
113,	-11772
357,	-11773
396,	-11774
PDoc	-11775
▁"1"	-11776
▁)),	-11777
▁cada	-11778
▁Modal	-11779
contents	-11780
▁perfect	-11781
servation	-11782
PDocLayoutV	-11783
▁상	-11784
处理	-11785
156	-11786
IZE	-11787
dom	-11788
lit	-11789
▁Um	-11790
([])	-11791
147,	-11792
ماذج	-11793
▁0.7	-11794
cisco	-11795
unset	-11796
▁years	-11797
KVStore	-11798
Payload	-11799
aciones	-11800
iversal	-11801
▁0.0008	-11802
▁tuples	-11803
▁usually	-11804
▁boundary	-11805
▁downloaded	-11806
sr	-11807
▁미	-11808
zel	-11809
3300	-11810
395,	-11811
origin	-11812
▁Since	-11813
▁-0.030	-11814
▁Github	-11815
▁socket	-11816
hs	-11817
ər	-11818
▁주	-11819
ste	-11820
you	-11821
9999	-11822
WORK	-11823
apis	-11824
izar	-11825
typed	-11826
▁(#18	-11827
▁cell	-11828
CONTENT	-11829
▁deltas	-11830
▁papers	-11831
▁epsilon	-11832
denoising	-11833
▁configure	-11834
▁BaseMessage	-11835
▁அ	-11836
應用	-11837
1732	-11838
[1]["	-11839
▁Stat	-11840
▁draw	-11841
▁-0.0077	-11842
Perplexity	-11843
▁ConfigDict	-11844
▁MaskFormer	-11845
도록	-11846
ete	-11847
▁지원	-11848
085,	-11849
berg	-11850
rier	-11851
▁224	-11852
▁dir	-11853
▁fit	-11854
▁medi	-11855
▁parâ	-11856
▁prefer	-11857
▁though	-11858
Security	-11859
▁development	-11860
200010622873741/	-11861
"[	-11862
CS	-11863
▁만	-11864
因此	-11865
136	-11866
=""	-11867
できる	-11868
196,	-11869
▁Lin	-11870
▁tanı	-11871
radius	-11872
rotate	-11873
▁...],	-11874
▁green	-11875
▁-0.0048	-11876
▁identical	-11877
▁К	-11878
▁통	-11879
依赖	-11880
476	-11881
174,	-11882
355,	-11883
heus	-11884
tqdm	-11885
▁Case	-11886
▁tried	-11887
Messages	-11888
NotFound	-11889
communic	-11890
▁indexer	-11891
HA	-11892
lı	-11893
yo	-11894
クエ	-11895
Mem	-11896
TTS	-11897
uda	-11898
▁65	-11899
▁9.	-11900
INIT	-11901
acing	-11902
Iterable	-11903
▁„	-11904
하면	-11905
3797	-11906
Real	-11907
]]):	-11908
labs	-11909
week	-11910
icles	-11911
▁يمكن	-11912
depths	-11913
resume	-11914
▁occur	-11915
ドキュメント	-11916
cluding	-11917
reenshot	-11918
▁Validation	-11919
▁MetadataFilter	-11920
фи	-11921
527	-11922
BLE	-11923
RUN	-11924
yon	-11925
▁je	-11926
▁✅︎	-11927
PASS	-11928
inger	-11929
▁ASGI	-11930
atomic	-11931
▁0.0048	-11932
ots	-11933
Tree	-11934
cion	-11935
▁Cor	-11936
Route	-11937
anger	-11938
white	-11939
etheus	-11940
▁Setup	-11941
▁moved	-11942
fileSize	-11943
▁-0.0078	-11944
▁-0.0087	-11945
▁highlight	-11946
▁overridden	-11947
▁subsequent	-11948
sy	-11949
ํา	-11950
ステ	-11951
場合は	-11952
143,	-11953
REAM	-11954
▁Para	-11955
▁integ	-11956
Maximum	-11957
indexer	-11958
generations	-11959
▁உ	-11960
Gpt	-11961
aky	-11962
odi	-11963
дер	-11964
112,	-11965
6447	-11966
▁шлях	-11967
▁zeros	-11968
MiniMax	-11969
startup	-11970
▁BigBird	-11971
▁synthes	-11972
▁resizing	-11973
transcription	-11974
▁MoEActivation	-11975
جة	-11976
20.	-11977
iqu	-11978
▁کر	-11979
/217	-11980
245,	-11981
386,	-11982
677,	-11983
▁DETR	-11984
burgers	-11985
▁Falcon	-11986
▁cosine	-11987
▁SpeechT	-11988
▁natural	-11989
QueryMode	-11990
▁저	-11991
COL	-11992
MCP	-11993
ORT	-11994
▁57	-11995
0434	-11996
133,	-11997
ZURE	-11998
toks	-11999
Cohere	-12000
astype	-12001
onical	-12002
▁Incre	-12003
▁Static	-12004
fileName	-12005
stopping	-12006
▁contextlib	-12007
▁torchvision	-12008
응답	-12009
114,	-12010
▁">=	-12011
▁вер	-12012
▁щоб	-12013
▁Copy	-12014
▁Uses	-12015
▁Util	-12016
Window	-12017
▁often	-12018
latency	-12019
InputsBuilder	-12020
HQ	-12021
/22	-12022
ско	-12023
▁fs	-12024
LECT	-12025
MODAL	-12026
Mixer	-12027
▁Look	-12028
▁Scal	-12029
▁tipo	-12030
ForCTC	-12031
bosity	-12032
istics	-12033
ponsor	-12034
clients	-12035
grammar	-12036
▁Permissions	-12037
fileSizeBytes	-12038
5/	-12039
xT	-12040
ンド	-12041
的な	-12042
다면	-12043
-21	-12044
PTY	-12045
▁Tr	-12046
."),	-12047
154,	-12048
luşt	-12049
▁Fin	-12050
FIRST	-12051
▁ROPE	-12052
▁book	-12053
porate	-12054
vertex	-12055
пример	-12056
▁-0.05	-12057
▁Embed	-12058
▁pione	-12059
Pattern	-12060
DeviceGet	-12061
▁probably	-12062
▁activations	-12063
WeightsLoader	-12064
4"	-12065
ще	-12066
▁✨	-12067
354,	-12068
673,	-12069
9753	-12070
▁JWT	-12071
▁PSE	-12072
ahead	-12073
allen	-12074
attle	-12075
ivate	-12076
stral	-12077
▁[-0.	-12078
▁life	-12079
を使用して	-12080
▁reuse	-12081
▁0.0009	-12082
▁pixels	-12083
▁matched	-12084
▁venture	-12085
Tokenized	-12086
GENERATION	-12087
▁benchmarks	-12088
定义	-12089
425	-12090
dio	-12091
▁pu	-12092
333,	-12093
Page	-12094
abot	-12095
alar	-12096
ALLOW	-12097
Admin	-12098
IDDEN	-12099
▁tail	-12100
▁-0.0029	-12101
decoration	-12102
▁Compression	-12103
▁から	-12104
テスト	-12105
());	-12106
275,	-12107
prod	-12108
unct	-12109
▁Mcp	-12110
▁jobs	-12111
SERVER	-12112
▁-----	-12113
▁backing	-12114
appendChild	-12115
PS	-12116
ரு	-12117
ück	-12118
▁BC	-12119
176,	-12120
324,	-12121
=20,	-12122
_000	-12123
lify	-12124
▁Got	-12125
▁she	-12126
ijing	-12127
▁coords	-12128
▁signal	-12129
autocast	-12130
negative	-12131
▁allowing	-12132
Automation	-12133
▁continuous	-12134
▁deployment	-12135
▁DeltaMessage	-12136
ASR	-12137
684,	-12138
SING	-12139
cost	-12140
hoto	-12141
▁30,	-12142
▁AND	-12143
▁Jina	-12144
▁Share	-12145
▁domain	-12146
▁Parakeet	-12147
106	-12148
2-1	-12149
SDP	-12150
")])	-12151
156,	-12152
==0.	-12153
SeqLM	-12154
iters	-12155
▁tied	-12156
primary	-12157
▁exemple	-12158
▁dispatcher	-12159
RAM	-12160
but	-12161
▁또는	-12162
/202	-12163
▁baş	-12164
▁""",	-12165
esting	-12166
▁dicts	-12167
minimax	-12168
speaker	-12169
▁scoring	-12170
▁pioneers	-12171
▁standalone	-12172
`'	-12173
dy	-12174
yi	-12175
வி	-12176
되었	-12177
uke	-12178
126,	-12179
▁2))	-12180
exact	-12181
▁Keep	-12182
Direct	-12183
gemini	-12184
Fixture	-12185
▁append	-12186
▁assume	-12187
Database	-12188
overload	-12189
▁-0.0058	-12190
▁official	-12191
▁President	-12192
ImageProcessing	-12193
>`	-12194
/24	-12195
ası	-12196
car	-12197
107,	-12198
295,	-12199
374,	-12200
frequ	-12201
▁term	-12202
recurs	-12203
scribe	-12204
▁Common	-12205
Password	-12206
blocking	-12207
▁-0.0108	-12208
▁Sidebar	-12209
▁quality	-12210
▁sections	-12211
llamaindex	-12212
AV	-12213
ağ	-12214
lv	-12215
yt	-12216
▁க	-12217
16]	-12218
▁Ag	-12219
▁CT	-12220
▁Me	-12221
045,	-12222
285,	-12223
34",	-12224
373,	-12225
694,	-12226
home	-12227
kind	-12228
▁CHAN	-12229
ALIZED	-12230
▁1000,	-12231
▁loads	-12232
▁saving	-12233
▁looking	-12234
▁reshaped	-12235
▁regression	-12236
▁differences	-12237
Na	-12238
'`:	-12239
される	-12240
137,	-12241
derr	-12242
mixin	-12243
▁News	-12244
▁timm	-12245
Images	-12246
icrous	-12247
▁diese	-12248
▁wanted	-12249
Required	-12250
▁renamed	-12251
▁wrapped	-12252
▁Ludicrous	-12253
▁recursive	-12254
щи	-12255
LID	-12256
ano	-12257
▁df	-12258
0309	-12259
116,	-12260
387,	-12261
COMPI	-12262
aware	-12263
freeze	-12264
graphs	-12265
Loading	-12266
atively	-12267
ernetes	-12268
converse	-12269
ubernetes	-12270
▁CacheConfig	-12271
pb	-12272
aff	-12273
emp	-12274
вор	-12275
▁cb	-12276
005,	-12277
026,	-12278
153,	-12279
Init	-12280
john	-12281
▁OPT	-12282
owner	-12283
audios	-12284
▁ENABLE	-12285
▁constra	-12286
BoolTensor	-12287
スタ	-12288
646	-12289
sch	-12290
....	-12291
3894	-12292
644,	-12293
672,	-12294
Inst	-12295
Parse	-12296
▁авто	-12297
DECODE	-12298
▁difer	-12299
▁enables	-12300
▁written	-12301
▁deepspeed	-12302
CO	-12303
сі	-12304
396	-12305
shm	-12306
▁Ref	-12307
▁amb	-12308
river	-12309
▁тако	-12310
Single	-12311
cursor	-12312
▁propag	-12313
iterable	-12314
highlight	-12315
▁Application	-12316
бу	-12317
ར་	-12318
06.	-12319
120	-12320
386	-12321
AMA	-12322
dcp	-12323
don	-12324
ida	-12325
▁들어	-12326
1499	-12327
does	-12328
виси	-12329
▁bsz	-12330
▁seu	-12331
EXTRA	-12332
Learn	-12333
tuned	-12334
launch	-12335
clusive	-12336
threads	-12337
▁0.0058	-12338
Recorder	-12339
▁-0.0049	-12340
▁exported	-12341
▁LayoutLMv	-12342
▁relationships	-12343
YY	-12344
请求	-12345
되어	-12346
-6,	-12347
ctc	-12348
}],	-12349
"></	-12350
044,	-12351
393,	-12352
6802	-12353
anız	-12354
pick	-12355
▁클래스	-12356
Arrow	-12357
slots	-12358
wwise	-12359
▁Must	-12360
▁prom	-12361
Shared	-12362
▁simpl	-12363
▁Rerank	-12364
▁decide	-12365
failures	-12366
▁indicates	-12367
▁providers	-12368
-0	-12369
126	-12370
oro	-12371
▁ay	-12372
lide	-12373
▁sind	-12374
Record	-12375
configure	-12376
▁frequency	-12377
▁participant	-12378
TokenizedInput	-12379
டு	-12380
▁ச	-12381
ライ	-12382
hei	-12383
jec	-12384
146,	-12385
643,	-12386
aint	-12387
▁isn	-12388
する必要	-12389
olved	-12390
Active	-12391
Forward	-12392
Youtube	-12393
latents	-12394
decoding	-12395
▁Boolean	-12396
▁ensures	-12397
▁roiling	-12398
runnables	-12399
▁Community	-12400
7]	-12401
>.	-12402
SC	-12403
Sc	-12404
函式	-12405
確認	-12406
部分	-12407
'))	-12408
272	-12409
415	-12410
:":	-12411
}/{	-12412
▁(4	-12413
▁BT	-12414
▁_.	-12415
383,	-12416
=-1).	-12417
duced	-12418
incre	-12419
▁Pers	-12420
▁fich	-12421
▁запу	-12422
lastic	-12423
mitted	-12424
timezone	-12425
▁deserial	-12426
BertConfig	-12427
▁optionally	-12428
572	-12429
Dif	-12430
amd	-12431
ema	-12432
▁56	-12433
(100	-12434
696,	-12435
697,	-12436
▁все	-12437
ascii	-12438
▁0.0)	-12439
▁gere	-12440
▁пути	-12441
Follow	-12442
lectra	-12443
luştur	-12444
utable	-12445
▁"1095	-12446
inherit	-12447
▁0.0088	-12448
▁helper	-12449
disabled	-12450
▁criteria	-12451
▁memories	-12452
QuantConfig	-12453
▁conditions	-12454
رة	-12455
ンプ	-12456
296	-12457
[-3	-12458
▁"*	-12459
11",	-12460
347,	-12461
тель	-12462
▁AWS	-12463
▁USE	-12464
▁akt	-12465
▁lit	-12466
crops	-12467
▁qwen	-12468
cosine	-12469
verify	-12470
dependabot	-12471
▁AsyncIterator	-12472
مل	-12473
▁서	-12474
326	-12475
hard	-12476
rives	-12477
Lambda	-12478
▁probs	-12479
▁опера	-12480
▁attend	-12481
▁-0.0009	-12482
Condition	-12483
▁filtering	-12484
accumulation	-12485
▁세	-12486
しい	-12487
.',	-12488
Ext	-12489
▁동일	-12490
646,	-12491
Unit	-12492
häng	-12493
▁4),	-12494
=1.0,	-12495
Props	-12496
▁GGUF	-12497
Canvas	-12498
arters	-12499
▁inher	-12500
▁tower	-12501
▁засто	-12502
estions	-12503
RESPONSE	-12504
▁threads	-12505
className	-12506
vironment	-12507
▁Endpoint	-12508
▁shutdown	-12509
Additional	-12510
▁TensorFlow	-12511
[-	-12512
03-	-12513
ULE	-12514
iki	-12515
imm	-12516
▁ek	-12517
0508	-12518
055,	-12519
1275	-12520
296,	-12521
=30,	-12522
▁fri	-12523
▁텍스트	-12524
-3.5-	-12525
Logits	-12526
▁Fixes	-12527
▁major	-12528
▁invoke	-12529
▁прилож	-12530
Starting	-12531
rispeech	-12532
▁unified	-12533
interleaved	-12534
▁contiguous	-12535
NotFoundError	-12536
xl	-12537
ál	-12538
▁أو	-12539
▁0.8	-12540
▁doğ	-12541
FOUND	-12542
nical	-12543
▁Oper	-12544
▁même	-12545
▁Linear	-12546
FUNCTION	-12547
OWN	-12548
ран	-12549
чно	-12550
▁bi	-12551
686,	-12552
jects	-12553
thers	-12554
▁:3],	-12555
▁Wait	-12556
retain	-12557
▁Large	-12558
▁unsupported	-12559
ом	-12560
0],	-12561
_="	-12562
iMo	-12563
ibm	-12564
▁-%	-12565
▁Fr	-12566
▁од	-12567
(`${	-12568
654,	-12569
▁Sch	-12570
▁sua	-12571
[:-1],	-12572
mapped	-12573
restore	-12574
▁0.0005	-12575
▁headqu	-12576
▁implic	-12577
▁-0.0107	-12578
separator	-12579
▁BaseNode	-12580
▁failures	-12581
▁produces	-12582
▁itertools	-12583
spectrogram	-12584
Configuration	-12585
BaseModelOutput	-12586
:4	-12587
NV	-12588
ーマ	-12589
'):	-12590
orth	-12591
▁"{%	-12592
▁QKV	-12593
▁(#19	-12594
▁Vari	-12595
Verify	-12596
recogn	-12597
writer	-12598
▁Match	-12599
▁controll	-12600
▁relation	-12601
MonkeyPatch	-12602
▁specifying	-12603
ua	-12604
อง	-12605
▁Э	-12606
-23	-12607
186	-12608
350	-12609
=("	-12610
ima	-12611
การ	-12612
▁dö	-12613
-05,	-12614
083,	-12615
127,	-12616
595,	-12617
Shot	-12618
▁你可以	-12619
Prism	-12620
Share	-12621
noise	-12622
▁comb	-12623
▁것입니다	-12624
▁0.0078	-12625
▁Option	-12626
▁которы	-12627
execution	-12628
▁indicate	-12629
ük	-12630
▁ط	-12631
dır	-12632
isi	-12633
reh	-12634
▁Sp	-12635
▁br	-12636
004_	-12637
124,	-12638
325,	-12639
▁Map	-12640
▁deb	-12641
▁fed	-12642
▁tvF	-12643
icago	-12644
mental	-12645
▁bench	-12646
rowwise	-12647
▁0.0108	-12648
▁параметр	-12649
Nv	-12650
30,	-12651
fff	-12652
hal	-12653
}}'	-12654
▁FI	-12655
▁WH	-12656
▁ko	-12657
0027	-12658
076,	-12659
103,	-12660
674,	-12661
▁Alt	-12662
achat	-12663
▁Down	-12664
amiento	-12665
Distance	-12666
GraphMode	-12667
▁stopping	-12668
▁Classification	-12669
42)	-12670
294,	-12671
93",	-12672
Stri	-12673
▁"26	-12674
▁"77	-12675
▁adv	-12676
▁fps	-12677
▁Float	-12678
▁})();	-12679
Mapping	-12680
Results	-12681
▁0.0098	-12682
▁funcion	-12683
▁utility	-12684
BatchNorm	-12685
]}	-12686
قة	-12687
▁배	-12688
▁ls	-12689
▁mi	-12690
376,	-12691
glob	-12692
remo	-12693
▁Try	-12694
▁yap	-12695
▁alle	-12696
▁0.0087	-12697
▁tracing	-12698
▁calendar	-12699
▁replaced	-12700
▁இ	-12701
▁ub	-12702
188,	-12703
193,	-12704
356,	-12705
emin	-12706
▁300	-12707
▁الر	-12708
Style	-12709
▁cars	-12710
▁photo	-12711
▁шляху	-12712
reverse	-12713
▁0.0059	-12714
Calendar	-12715
auxiliary	-12716
Extraction	-12717
▁Processing	-12718
contextmanager	-12719
dl	-12720
ют	-12721
▁마	-12722
▁🤓	-12723
えば	-12724
06/	-12725
7",	-12726
729	-12727
DEO	-12728
Don	-12729
сті	-12730
[2].	-12731
imet	-12732
▁Ger	-12733
▁bur	-12734
Tower	-12735
▁From	-12736
lapping	-12737
panoptic	-12738
▁templates	-12739
▁적	-12740
版本	-12741
adb	-12742
クラス	-12743
/216	-12744
163,	-12745
aria	-12746
Proto	-12747
▁사용하는	-12748
висимо	-12749
▁spaces	-12750
allocate	-12751
entities	-12752
▁clients	-12753
▁company	-12754
▁generic	-12755
candidate	-12756
▁InMemory	-12757
▁applying	-12758
▁concatenated	-12759
Sp	-12760
rd	-12761
▁म	-12762
346,	-12763
653,	-12764
Date	-12765
PORT	-12766
otes	-12767
Sonar	-12768
learn	-12769
paged	-12770
▁Norm	-12771
▁[0.4.	-12772
returns	-12773
▁([#217	-12774
▁Secret	-12775
▁-0.0098	-12776
▁schedule	-12777
physicsBody	-12778
▁TextMessage	-12779
EncoderDecoder	-12780
MB	-12781
TF	-12782
το	-12783
▁“	-12784
らの	-12785
429	-12786
odb	-12787
▁1])	-12788
▁hyp	-12789
every	-12790
ENGINE	-12791
filing	-12792
rammar	-12793
▁passes	-12794
Feedback	-12795
▁Connect	-12796
TypeError	-12797
▁handlers	-12798
%3	-12799
_:	-12800
"`.	-12801
ccl	-12802
eli	-12803
moz	-12804
пол	-12805
075,	-12806
388,	-12807
anto	-12808
cord	-12809
olmo	-12810
▁dok	-12811
poser	-12812
egatron	-12813
▁Distil	-12814
▁-0.0059	-12815
▁-0.0079	-12816
▁MiniCPM	-12817
▁applies	-12818
edExperts	-12819
▁segments	-12820
Structured	-12821
▁reduction	-12822
▁threading	-12823
=7	-12824
656	-12825
hex	-12826
▁Ri	-12827
▁[4	-12828
186,	-12829
gptq	-12830
▁(#17	-12831
▁erst	-12832
▁Calif	-12833
▁clamp	-12834
▁preds	-12835
science	-12836
▁tested	-12837
▁Bedrock	-12838
▁ComfyUI	-12839
▁Perform	-12840
diffusion	-12841
▁Computes	-12842
▁represents	-12843
JSONResponse	-12844
▁capitalists	-12845
▁headquarters	-12846
SU	-12847
र्	-12848
▁你	-12849
VAE	-12850
__`	-12851
▁kw	-12852
、**	-12853
`]):	-12854
▁Edit	-12855
STRING	-12856
▁guard	-12857
▁Format	-12858
▁aiming	-12859
▁corporate	-12860
▁sentences	-12861
▁İ	-12862
同的	-12863
▁MB	-12864
▁pT	-12865
123,	-12866
343,	-12867
▁cam	-12868
▁모델은	-12869
datas	-12870
▁""):	-12871
▁easy	-12872
uvicorn	-12873
▁improvement	-12874
τε	-12875
▁참	-12876
538	-12877
Sim	-12878
254,	-12879
5459	-12880
High	-12881
Prop	-12882
être	-12883
▁50,	-12884
acked	-12885
houses	-12886
remain	-12887
▁einem	-12888
▁чтобы	-12889
Listener	-12890
▁-0.0088	-12891
layerdrop	-12892
templates	-12893
▁Validate	-12894
BT	-12895
xt	-12896
▁М	-12897
▁따	-12898
▁언	-12899
TRI	-12900
pas	-12901
sdk	-12902
693,	-12903
▁baz	-12904
genai	-12905
redoc	-12906
▁hook	-12907
domain	-12908
osable	-12909
▁VOCAB	-12910
▁0.0029	-12911
prefills	-12912
thumbsup	-12913
▁follows	-12914
▁addition	-12915
▁constant	-12916
▁deterministic	-12917
ிய	-12918
运行	-12919
이션	-12920
]`:	-12921
/213	-12922
326,	-12923
lict	-12924
star	-12925
vale	-12926
▁[1.	-12927
すべての	-12928
COMPLE	-12929
TRITON	-12930
▁Vocab	-12931
tracing	-12932
▁Select	-12933
▁unused	-12934
Nemotron	-12935
▁protocol	-12936
▁scenario	-12937
▁NodeWithScore	-12938
rf	-12939
つの	-12940
这些	-12941
配置	-12942
504	-12943
▁ok	-12944
024,	-12945
084,	-12946
173,	-12947
394,	-12948
MXFP	-12949
▁(!0	-12950
MATIC	-12951
▁Also	-12952
▁fair	-12953
sonnet	-12954
▁India	-12955
enforce	-12956
▁atware	-12957
izations	-12958
▁meaning	-12959
▁iterator	-12960
TextSplitter	-12961
▁instruction	-12962
دل	-12963
696	-12964
ете	-12965
10",	-12966
152,	-12967
377,	-12968
544,	-12969
echo	-12970
▁sam	-12971
▁ком	-12972
Limit	-12973
flags	-12974
00000,	-12975
ussion	-12976
▁EdgeTam	-12977
▁blocked	-12978
summarize	-12979
AutoTokenizer	-12980
▁atwarehouses	-12981
/_	-12982
تب	-12983
486	-12984
▁За	-12985
025,	-12986
054,	-12987
09",	-12988
118,	-12989
545,	-12990
555,	-12991
\.":	-12992
▁???	-12993
▁Find	-12994
▁peft	-12995
Fields	-12996
qdrant	-12997
pression	-12998
▁Learning	-12999
▁providing	-13000
▁CreateResult	-13001
нг	-13002
نى	-13003
09.	-13004
ENV	-13005
whl	-13006
142,	-13007
1688	-13008
248,	-13009
▁18,	-13010
▁vez	-13011
▁{**	-13012
`."""	-13013
arant	-13014
▁near	-13015
Helper	-13016
SYSTEM	-13017
duplic	-13018
▁"1087	-13019
usoidal	-13020
▁0.0049	-13021
▁rating	-13022
streamed	-13023
▁DeepSpeed	-13024
▁PaddleOCR	-13025
▁JavaScript	-13026
instructions	-13027
▁vectorstore	-13028
mə	-13029
▁표	-13030
ジェ	-13031
Gre	-13032
Opt	-13033
▁99	-13034
▁Net	-13035
▁사용자	-13036
▁wenn	-13037
dynamo	-13038
WARNING	-13039
boolean	-13040
absolute	-13041
▁systems	-13042
▁Inference	-13043
▁experience	-13044
getOwnProperty	-13045
▁configurations	-13046
/6	-13047
>:	-13048
ää	-13049
▁Ц	-13050
如何	-13051
用于	-13052
376	-13053
508	-13054
них	-13055
▁Ph	-13056
▁lr	-13057
roken	-13058
▁site	-13059
leases	-13060
▁voice	-13061
▁amount	-13062
▁cutlass	-13063
temporary	-13064
truncated	-13065
dispatcher	-13066
зи	-13067
122	-13068
apa	-13069
ety	-13070
ête	-13071
Func	-13072
WORD	-13073
голов	-13074
▁1]`.	-13075
arying	-13076
▁Force	-13077
▁0.0089	-13078
classify	-13079
includes	-13080
▁depending	-13081
▁metadatas	-13082
▁departments	-13083
▁experimental	-13084
Vi	-13085
▁Ö	-13086
ザー	-13087
094,	-13088
327,	-13089
Hash	-13090
andb	-13091
quer	-13092
▁Bug	-13093
▁[10	-13094
▁kon	-13095
▁Ange	-13096
▁cats	-13097
▁solo	-13098
merges	-13099
▁writer	-13100
prefetch	-13101
waitable	-13102
placeholders	-13103
Go	-13104
中的	-13105
###	-13106
Exp	-13107
▁87	-13108
▁hi	-13109
▁mö	-13110
▁이는	-13111
)));	-13112
005_	-13113
023,	-13114
Sets	-13115
_1",	-13116
xfer	-13117
ário	-13118
▁:3,	-13119
finfo	-13120
ється	-13121
▁conten	-13122
▁servid	-13123
▁reduced	-13124
formatted	-13125
▁children	-13126
ifications	-13127
unexpected	-13128
utilization	-13129
41	-13130
DD	-13131
cn	-13132
cı	-13133
رى	-13134
183	-13135
LAY	-13136
ías	-13137
ついて	-13138
072,	-13139
074,	-13140
117,	-13141
274,	-13142
683,	-13143
▁500	-13144
▁bes	-13145
saved	-13146
teger	-13147
BertFor	-13148
combine	-13149
Scheduler	-13150
automatic	-13151
installation	-13152
▁InstructBlip	-13153
▁但	-13154
043	-13155
CALE	-13156
well	-13157
▁(((	-13158
encia	-13159
▁aiter	-13160
▁stale	-13161
Visitor	-13162
edNodes	-13163
▁adicion	-13164
▁article	-13165
▁longest	-13166
frequency	-13167
verbosity	-13168
▁BitsAndBytes	-13169
▁integrations	-13170
▁DiffusionGemma	-13171
4/	-13172
YX	-13173
コー	-13174
456	-13175
xim	-13176
046,	-13177
197,	-13178
__`]	-13179
drag	-13180
pApi	-13181
なります	-13182
obert	-13183
▁Rope	-13184
▁Sunny	-13185
BaseTool	-13186
PY	-13187
Tv	-13188
▁が	-13189
定義	-13190
되는	-13191
465	-13192
▁تح	-13193
006,	-13194
043,	-13195
0928	-13196
LDAP	-13197
rown	-13198
STAND	-13199
apsed	-13200
▁[0.2.	-13201
▁todos	-13202
▁others	-13203
▁shutil	-13204
calculate	-13205
▁Workflow	-13206
ToolParser	-13207
registered	-13208
设置	-13209
리고	-13210
/15	-13211
18.	-13212
22.	-13213
`、`	-13214
utc	-13215
▁mü	-13216
еред	-13217
entes	-13218
Confirm	-13219
alesforce	-13220
ponential	-13221
▁accepted	-13222
▁anthropic	-13223
▁consistency	-13224
жа	-13225
(""	-13226
448	-13227
:],	-13228
=3)	-13229
JWT	-13230
▁반환	-13231
1467	-13232
167,	-13233
=10)	-13234
vels	-13235
▁GLM	-13236
Const	-13237
voice	-13238
▁mass	-13239
igkeit	-13240
▁Score	-13241
handles	-13242
▁Define	-13243
▁effort	-13244
▁immedi	-13245
▁mapped	-13246
stringify	-13247
▁BaseTool	-13248
▁websocket	-13249
JS	-13250
▁값	-13251
/23	-13252
196	-13253
5726	-13254
6813	-13255
ango	-13256
rypt	-13257
▁Jobs	-13258
Policy	-13259
Target	-13260
▁Count	-13261
▁Email	-13262
▁caller	-13263
▁diction	-13264
▁Compilation	-13265
ChannelDimension	-13266
SA	-13267
672	-13268
adi	-13269
swa	-13270
مات	-13271
▁AR	-13272
▁ST	-13273
0447	-13274
366,	-13275
COCO	-13276
cial	-13277
▁Val	-13278
▁smo	-13279
wares	-13280
ypher	-13281
▁Arch	-13282
GITHUB	-13283
market	-13284
▁proto	-13285
▁taken	-13286
▁texto	-13287
▁truth	-13288
▁easily	-13289
truncate	-13290
▁Calculate	-13291
▁workbench	-13292
reportPrivate	-13293
-|	-13294
▁검	-13295
▁공	-13296
およ	-13297
言語	-13298
kin	-13299
▁во	-13300
177,	-13301
2014	-13302
372,	-13303
ugar	-13304
▁вам	-13305
touch	-13306
Picker	-13307
▁leave	-13308
▁uygul	-13309
▁pinned	-13310
▁-0.0099	-13311
▁-0.0208	-13312
▁formats	-13313
NodeParser	-13314
▁experiment	-13315
?.	-13316
▁這	-13317
檔案	-13318
066	-13319
102	-13320
528	-13321
LIN	-13322
inz	-13323
007,	-13324
036,	-13325
244,	-13326
6564	-13327
hero	-13328
osed	-13329
▁Pad	-13330
▁inf	-13331
flush	-13332
▁daha	-13333
▁-100.	-13334
ributes	-13335
▁exceeds	-13336
▁analysis	-13337
▁proposed	-13338
continuous	-13339
ridgeTower	-13340
▁Perplexity	-13341
▁Connections	-13342
gl	-13343
ση	-13344
一些	-13345
声明	-13346
011	-13347
502	-13348
ACC	-13349
DED	-13350
フォル	-13351
/200	-13352
0365	-13353
097,	-13354
iers	-13355
▁'',	-13356
▁Moe	-13357
Clear	-13358
▁Wash	-13359
▁2023-	-13360
▁Voice	-13361
▁flush	-13362
Whisper	-13363
▁Unused	-13364
▁-0.0097	-13365
▁Feature	-13366
▁Prompts	-13367
▁allNodes	-13368
▁Awaitable	-13369
▁Sunnyvale	-13370
6_	-13371
SK	-13372
eh	-13373
تو	-13374
्र	-13375
()\	-13376
LAB	-13377
▁40	-13378
▁Vi	-13379
▁이를	-13380
0319	-13381
047,	-13382
1313	-13383
148,	-13384
ibli	-13385
ivos	-13386
agers	-13387
osing	-13388
Insert	-13389
thresh	-13390
▁gives	-13391
▁{}}},	-13392
Realtime	-13393
▁detailed	-13394
Descriptor	-13395
Ph	-13396
ьо	-13397
通过	-13398
640	-13399
942	-13400
bas	-13401
fwd	-13402
および	-13403
1522	-13404
257,	-13405
353,	-13406
4528	-13407
alyt	-13408
dash	-13409
olab	-13410
olve	-13411
osen	-13412
▁0).	-13413
▁Ben	-13414
▁fac	-13415
INDEX	-13416
ateur	-13417
studi	-13418
▁rule	-13419
consum	-13420
layoutlm	-13421
ConvLayer	-13422
converted	-13423
▁sometimes	-13424
▁EngineCore	-13425
▁FunctionCall	-13426
,"	-13427
WA	-13428
876	-13429
ORA	-13430
062,	-13431
1824	-13432
3799	-13433
397,	-13434
John	-13435
vLLM	-13436
vend	-13437
мент	-13438
▁({{	-13439
▁14,	-13440
▁Raw	-13441
▁При	-13442
ernie	-13443
▁)[0]	-13444
▁conc	-13445
▁qual	-13446
▁запи	-13447
ianfan	-13448
orator	-13449
▁0.0097	-13450
▁Source	-13451
Markdown	-13452
▁-0.0089	-13453
sentences	-13454
▁stability	-13455
ін	-13456
082	-13457
Phi	-13458
▁EM	-13459
▁예를	-13460
▁응답	-13461
▁전달	-13462
에서는	-13463
1200	-13464
203,	-13465
zoom	-13466
▁0):	-13467
▁VLM	-13468
▁pin	-13469
dating	-13470
legacy	-13471
▁mrope	-13472
▁noise	-13473
account	-13474
▁0.0107	-13475
▁Sample	-13476
▁UserMessage	-13477
MY	-13478
▁和	-13479
▁디	-13480
0":	-13481
mps	-13482
▁CN	-13483
077,	-13484
087,	-13485
323,	-13486
duct	-13487
mime	-13488
▁600	-13489
arxng	-13490
▁Port	-13491
▁SDPA	-13492
▁stay	-13493
▁Flask	-13494
related	-13495
▁embeds	-13496
▁extern	-13497
▁-0.0127	-13498
▁Standard	-13499
▁checking	-13500
▁services	-13501
Positional	-13502
▁interpreter	-13503
parameterized	-13504
▁significantly	-13505
ku	-13506
fik	-13507
ère	-13508
▁'[	-13509
▁가능	-13510
1058	-13511
108,	-13512
1459	-13513
aise	-13514
unci	-13515
▁hop	-13516
888",	-13517
accès	-13518
arily	-13519
gamma	-13520
odide	-13521
ricks	-13522
▁Chen	-13523
▁More	-13524
▁bind	-13525
atives	-13526
Keyword	-13527
▁0.0079	-13528
▁0.0099	-13529
▁automá	-13530
▁school	-13531
Authentic	-13532
▁TextBlock	-13533
▁indicating	-13534
▁pretraining	-13535
3")	-13536
pik	-13537
1829	-13538
1984	-13539
3857	-13540
652,	-13541
666,	-13542
687,	-13543
=0),	-13544
INOv	-13545
ilir	-13546
ivit	-13547
klar	-13548
▁fpn	-13549
▁如果你	-13550
▁"1097	-13551
▁member	-13552
learning	-13553
synchron	-13554
verified	-13555
▁Chicago	-13556
studiolab	-13557
▁references	-13558
دخ	-13559
▁알	-13560
セス	-13561
非常	-13562
417	-13563
See	-13564
odo	-13565
▁TR	-13566
▁Вы	-13567
05",	-13568
0832	-13569
086,	-13570
382,	-13571
6228	-13572
▁Both	-13573
▁Park	-13574
Prefix	-13575
▁Fused	-13576
▁twice	-13577
▁Chroma	-13578
▁Service	-13579
deredDict	-13580
scheduling	-13581
▁Perceiver	-13582
▁compression	-13583
表示	-13584
=4)	-13585
▁SE	-13586
▁의존	-13587
162,	-13588
2158	-13589
352,	-13590
Olmo	-13591
Port	-13592
apps	-13593
atol	-13594
bile	-13595
▁0.3	-13596
▁aws	-13597
59995	-13598
Ernie	-13599
about	-13600
lated	-13601
lerance	-13602
waiting	-13603
▁-0.0200	-13604
▁Requests	-13605
Credential	-13606
▁undefined	-13607
▁downstream	-13608
利用	-13609
**2	-13610
2798	-13611
6487	-13612
Rank	-13613
аних	-13614
▁Page	-13615
▁[0.0	-13616
azione	-13617
bboxes	-13618
posals	-13619
▁focus	-13620
▁-0.0109	-13621
fireworks	-13622
BS	-13623
もの	-13624
567	-13625
Cre	-13626
ULT	-13627
VID	-13628
▁ze	-13629
063,	-13630
0929	-13631
187,	-13632
276,	-13633
Glue	-13634
INST	-13635
msgs	-13636
untu	-13637
▁-8.	-13638
▁cour	-13639
Modern	-13640
arDown	-13641
▁flags	-13642
alytics	-13643
▁0.0128	-13644
▁arrays	-13645
▁aiohttp	-13646
▁Expected	-13647
▁embedded	-13648
Projection	-13649
▁OutputRecorder	-13650
返回	-13651
532	-13652
IXL	-13653
cas	-13654
▁11	-13655
▁же	-13656
004,	-13657
027,	-13658
183,	-13659
236,	-13660
IGHT	-13661
cher	-13662
▁sen	-13663
=256,	-13664
▁0.0127	-13665
▁Control	-13666
REASONING	-13667
▁pinecone	-13668
LlamaIndex	-13669
▁Efficient	-13670
▁optimized	-13671
▁translate	-13672
сс	-13673
▁버	-13674
ダー	-13675
方式	-13676
関係	-13677
04-	-13678
Mik	-13679
▁कर	-13680
"]],	-13681
172,	-13682
198,	-13683
658,	-13684
▁%}"	-13685
▁воз	-13686
ジェクト	-13687
outine	-13688
routes	-13689
▁Paris	-13690
▁`-100	-13691
▁([#216	-13692
▁denied	-13693
STANDARD	-13694
epresent	-13695
Selection	-13696
▁mechanism	-13697
▁projector	-13698
termination	-13699
conditioning	-13700
▁BasePydantic	-13701
>[	-13702
▁CB	-13703
▁선언	-13704
Math	-13705
PIEC	-13706
enet	-13707
must	-13708
oman	-13709
▁ger	-13710
▁است	-13711
33058	-13712
▁файл	-13713
BACKEN	-13714
chroma	-13715
double	-13716
▁Linux	-13717
Boolean	-13718
▁Exaone	-13719
▁-0.0004	-13720
Available	-13721
:5	-13722
型別	-13723
我們	-13724
146	-13725
Oss	-13726
aur	-13727
▁1}	-13728
▁Sc	-13729
▁है	-13730
1112	-13731
485,	-13732
647,	-13733
692,	-13734
Drag	-13735
Full	-13736
MASK	-13737
▁evi	-13738
▁или	-13739
-2642-	-13740
libaba	-13741
▁asked	-13742
alignment	-13743
ategories	-13744
grounding	-13745
▁assigned	-13746
▁Installation	-13747
0/	-13748
▁타	-13749
内容	-13750
2.5	-13751
569	-13752
>")	-13753
يان	-13754
▁va	-13755
▁Те	-13756
がある	-13757
1802	-13758
FULL	-13759
logs	-13760
▁Des	-13761
PARSE	-13762
▁Last	-13763
▁NCCL	-13764
escape	-13765
nindex	-13766
▁hello	-13767
numeric	-13768
▁`-100`	-13769
▁margin	-13770
▁market	-13771
lifespan	-13772
deepstack	-13773
▁produced	-13774
▁Temporary	-13775
▁extensions	-13776
▁AssertionError	-13777
]\	-13778
ск	-13779
▁결	-13780
HOL	-13781
_2)	-13782
676,	-13783
elly	-13784
▁الخ	-13785
▁الص	-13786
▁1516	-13787
▁0.0205	-13788
▁відпов	-13789
Supported	-13790
TestMixin	-13791
▁variance	-13792
▁Reference	-13793
Postprocessor	-13794
рт	-13795
اص	-13796
▁Е	-13797
few	-13798
iro	-13799
пре	-13800
0799	-13801
67",	-13802
iano	-13803
ougou	-13804
▁Enum	-13805
curate	-13806
▁Beisp	-13807
▁MULTI	-13808
▁become	-13809
subclass	-13810
-\	-13811
建立	-13812
/14	-13813
pkg	-13814
сте	-13815
▁시작	-13816
266,	-13817
について	-13818
[0]),	-13819
ulner	-13820
▁CTRL	-13821
▁TEXT	-13822
-2640-	-13823
:8000/	-13824
▁marks	-13825
▁spans	-13826
MESSAGE	-13827
attempt	-13828
identity	-13829
sthrough	-13830
▁Angeles	-13831
▁Construct	-13832
▁Presidentjay	-13833
[3	-13834
宣告	-13835
添加	-13836
362	-13837
676	-13838
kpt	-13839
▁хо	-13840
392,	-13841
642,	-13842
inci	-13843
oshi	-13844
▁Cre	-13845
blank	-13846
▁Bart	-13847
▁oauth	-13848
▁Hidden	-13849
▁replay	-13850
Criteria	-13851
citation	-13852
filtered	-13853
▁shifted	-13854
Responses	-13855
▁declarar	-13856
▁EngineArgs	-13857
▁safetensors	-13858
▁직	-13859
356	-13860
=2.	-13861
CTC	-13862
TAG	-13863
nic	-13864
▁ме	-13865
052,	-13866
073,	-13867
lazy	-13868
▁ele	-13869
▁iou	-13870
▁wel	-13871
▁모델의	-13872
▁dele	-13873
▁podr	-13874
SAMPLE	-13875
▁Deter	-13876
▁-100.,	-13877
▁0.0207	-13878
▁Method	-13879
relation	-13880
▁-0.0137	-13881
▁Backend	-13882
Interface	-13883
▁excluded	-13884
▁refactor	-13885
▁Bloomberg	-13886
▁ChatGeneration	-13887
kk	-13888
▁த	-13889
▁계	-13890
▁활	-13891
事前	-13892
286	-13893
457	-13894
ynı	-13895
▁98	-13896
098,	-13897
1119	-13898
157,	-13899
3287	-13900
Some	-13901
TIVE	-13902
achu	-13903
▁`0.	-13904
▁med	-13905
SIONS	-13906
lists	-13907
▁CNBC	-13908
▁City	-13909
editor	-13910
▁Marker	-13911
▁taking	-13912
Validate	-13913
▁consists	-13914
▁tracking	-13915
HfExamples	-13916
vectorstores	-13917
▁conditional	-13918
▁dictionaries	-13919
HfExamplesInfo	-13920
▁architectures	-13921
instrumentation	-13922
>'	-13923
تى	-13924
모리	-13925
162	-13926
496	-13927
:")	-13928
ani	-13929
uns	-13930
▁لت	-13931
626,	-13932
roit	-13933
}.")	-13934
▁GEM	-13935
26598	-13936
▁([#2	-13937
Capture	-13938
relevant	-13939
▁Replace	-13940
▁numpify	-13941
▁OneDrive	-13942
▁customer	-13943
benchmarks	-13944
perplexity	-13945
▁Supported	-13946
▁└	-13947
的に	-13948
自动	-13949
Cap	-13950
cam	-13951
dra	-13952
пер	-13953
▁pp	-13954
▁模型	-13955
,)`,	-13956
182,	-13957
2958	-13958
3869	-13959
arxiv	-13960
early	-13961
▁Role	-13962
▁recv	-13963
▁-0.0128	-13964
▁-0.0147	-13965
▁astream	-13966
▁oluştur	-13967
allocated	-13968
▁allocated	-13969
▁alternative	-13970
TImageProcessor	-13971
El	-13972
[(	-13973
لي	-13974
არ	-13975
输入	-13976
407	-13977
ORY	-13978
ına	-13979
▁34	-13980
ロード	-13981
1698	-13982
495,	-13983
AZURE	-13984
Stack	-13985
▁einer	-13986
Enabled	-13987
destroy	-13988
pikachu	-13989
▁dispon	-13990
▁extras	-13991
▁também	-13992
ingModel	-13993
▁-0.0204	-13994
▁category	-13995
▁chunking	-13996
Estimation	-13997
▁TokenizerLike	-13998
ща	-13999
▁ц	-14000
▁⬆	-14001
宣言	-14002
测试	-14003
10]	-14004
rer	-14005
ція	-14006
102,	-14007
284,	-14008
uede	-14009
▁kod	-14010
▁tit	-14011
▁vit	-14012
ectara	-14013
callable	-14014
▁-0.0215	-14015
▁declare	-14016
▁ClassVar	-14017
▁compared	-14018
▁research	-14019
▁alignment	-14020
▁specifies	-14021
▁installation	-14022
qq	-14023
зу	-14024
/20	-14025
424	-14026
524	-14027
hop	-14028
ltk	-14029
цію	-14030
▁Et	-14031
053,	-14032
056,	-14033
3777	-14034
=[0.	-14035
ands	-14036
Mikko	-14037
Pegasus	-14038
qformer	-14039
▁0.0157	-14040
▁Modell	-14041
▁period	-14042
▁reflect	-14043
▁sampler	-14044
▁waiting	-14045
330589753	-14046
▁UniSpeech	-14047
▁AddedToken	-14048
▁ModelOutput	-14049
▁DataCollator	-14050
59995330589753	-14051
WW	-14052
執行	-14053
rão	-14054
▁AU	-14055
▁cd	-14056
▁را	-14057
066,	-14058
253,	-14059
3408	-14060
3465	-14061
362,	-14062
=128	-14063
▁0.2	-14064
▁Das	-14065
しています	-14066
Metric	-14067
▁Optim	-14068
Project	-14069
Thought	-14070
preview	-14071
▁Parser	-14072
▁-0.0209	-14073
▁باستخدام	-14074
▁APIRouter	-14075
ModelConfig	-14076
▁두	-14077
▁크	-14078
036	-14079
432	-14080
Bar	-14081
REQ	-14082
ito	-14083
648,	-14084
▁"${	-14085
▁occ	-14086
▁Это	-14087
geben	-14088
ravit	-14089
▁(#15	-14090
▁ejec	-14091
Finish	-14092
marker	-14093
stored	-14094
DEVICES	-14095
lorence	-14096
▁0.0137	-14097
bilinear	-14098
▁Account	-14099
▁ConfigVar	-14100
▁denoising	-14101
▁formatting	-14102
▁probabilities	-14103
响应	-14104
4":	-14105
525	-14106
=20	-14107
BUG	-14108
тер	-14109
▁ja	-14110
すると	-14111
078,	-14112
1044	-14113
1448	-14114
Pfad	-14115
amax	-14116
лько	-14117
First	-14118
jango	-14119
Option	-14120
ussions	-14121
▁audios	-14122
continue	-14123
▁Keyword	-14124
▁largest	-14125
▁Override	-14126
[`	-14127
تا	-14128
`]:	-14129
▁ws	-14130
358,	-14131
▁Die	-14132
▁Imp	-14133
▁fol	-14134
▁van	-14135
exist	-14136
▁1.0)	-14137
ができます	-14138
ZATION	-14139
altern	-14140
detect	-14141
studio	-14142
▁"1098	-14143
▁Entity	-14144
▁assist	-14145
adapters	-14146
▁-0.0217	-14147
▁explain	-14148
▁masking	-14149
▁certific	-14150
distribution	-14151
DocumentStore	-14152
AP	-14153
GN	-14154
ょう	-14155
("<	-14156
382	-14157
666	-14158
gge	-14159
057,	-14160
1488	-14161
6789	-14162
GELOG	-14163
SIZES	-14164
olver	-14165
ستخدم	-14166
データセット	-14167
▁dépend	-14168
▁içinde	-14169
andwidth	-14170
repetition	-14171
▁verwendet	-14172
▁confidence	-14173
/"	-14174
:8	-14175
Ni	-14176
zt	-14177
▁번	-14178
チャ	-14179
437	-14180
_2(	-14181
aby	-14182
しょう	-14183
).__	-14184
1857	-14185
aman	-14186
hnsw	-14187
kite	-14188
lody	-14189
дите	-14190
▁dar	-14191
▁hinz	-14192
phrase	-14193
▁defer	-14194
▁looks	-14195
▁proje	-14196
▁sleep	-14197
managed	-14198
nonzero	-14199
nvmlGet	-14200
private	-14201
▁0.0204	-14202
▁Decode	-14203
▁budget	-14204
▁termin	-14205
embedder	-14206
NetConfig	-14207
▁combination	-14208
ác	-14209
▁Я	-14210
▁나	-14211
086	-14212
30)	-14213
342	-14214
vor	-14215
003,	-14216
158,	-14217
363,	-14218
Util	-14219
fics	-14220
oder	-14221
▁15,	-14222
▁1},	-14223
▁suc	-14224
aster	-14225
▁255,	-14226
orizont	-14227
▁-0.0148	-14228
requested	-14229
FLASHINFER	-14230
▁pipelines	-14231
▁separated	-14232
(5	-14233
142	-14234
682	-14235
IMP	-14236
SEP	-14237
ște	-14238
▁대해	-14239
1997	-14240
▁Mem	-14241
ility	-14242
ptune	-14243
▁rota	-14244
▁vars	-14245
▁Clean	-14246
▁sense	-14247
Prepare	-14248
▁0.0200	-14249
▁Visual	-14250
▁данных	-14251
02349507	-14252
Register	-14253
convnext	-14254
istogram	-14255
▁-0.0139	-14256
▁Command	-14257
▁records	-14258
▁setattr	-14259
LOCALIZED	-14260
concurrency	-14261
0234950726598	-14262
ej	-14263
mn	-14264
▁출	-14265
1))	-14266
539	-14267
cnt	-14268
▁자동	-14269
657,	-14270
688,	-14271
7868	-14272
_2",	-14273
голо	-14274
/0.2/	-14275
Intro	-14276
plets	-14277
uther	-14278
▁TEST	-14279
▁rich	-14280
▁outer	-14281
▁pract	-14282
▁slots	-14283
arrange	-14284
▁fronting	-14285
▁PPDocLayoutV	-14286
*)	-14287
BO	-14288
ən	-14289
لغ	-14290
ッド	-14291
046	-14292
Row	-14293
дин	-14294
▁бо	-14295
▁저장	-14296
122,	-14297
1374	-14298
efik	-14299
pypi	-14300
▁dig	-14301
Empty	-14302
▁Body	-14303
▁bash	-14304
▁went	-14305
onnect	-14306
▁-0.0205	-14307
▁markets	-14308
▁reading	-14309
▁unknown	-14310
▁Converts	-14311
▁torchify	-14312
iterations	-14313
Quantization	-14314
▁Conversation	-14315
▁використовувати	-14316
ユー	-14317
rav	-14318
022,	-14319
093,	-14320
1035	-14321
1132	-14322
283,	-14323
310/	-14324
698,	-14325
=1).	-14326
ades	-14327
▁Exp	-14328
路径操作	-14329
SIBLE	-14330
cepts	-14331
drive	-14332
mkdir	-14333
recap	-14334
▁Json	-14335
▁Nixl	-14336
▁fresh	-14337
greater	-14338
idefics	-14339
▁Second	-14340
Skipping	-14341
nemotron	-14342
▁Seattle	-14343
Documents	-14344
▁"3.1.0",	-14345
GraphStore	-14346
parallelism	-14347
synchronize	-14348
FunctionPointer	-14349
▁	-14350
e	-14351
t	-14352
s	-14353
o	-14354
a	-14355
n	-14356
i	-14357
r	-14358
l	-14359
d	-14360
_	-14361
c	-14362
p	-14363
"	-14364
m	-14365
u	-14366
.	-14367
,	-14368
f	-14369
h	-14370
g	-14371
0	-14372
:	-14373
=	-14374
)	-14375
(	-14376
1	-14377
2	-14378
b	-14379
y	-14380
-	-14381
k	-14382
3	-14383
v	-14384
4	-14385
5	-14386
6	-14387
8	-14388
w	-14389
7	-14390
9	-14391
x	-14392
T	-14393
/	-14394
[	-14395
]	-14396
`	-14397
E	-14398
I	-14399
N	-14400
A	-14401
#	-14402
C	-14403
S	-14404
L	-14405
z	-14406
M	-14407
P	-14408
q	-14409
*	-14410
{	-14411
}	-14412
O	-14413
F	-14414
R	-14415
D	-14416
>	-14417
'	-14418
B	-14419
U	-14420
j	-14421
|	-14422
G	-14423
V	-14424
\	-14425
K	-14426
H	-14427
;	-14428
W	-14429
о	-14430
+	-14431
а	-14432
<	-14433
е	-14434
и	-14435
@	-14436
т	-14437
Y	-14438
н	-14439
Z	-14440
!	-14441
Q	-14442
🚨	-14443
?	-14444
&	-14445
ا	-14446
р	-14447
в	-14448
X	-14449
с	-14450
ل	-14451
к	-14452
л	-14453
м	-14454
J	-14455
д	-14456
п	-14457
у	-14458
م	-14459
。	-14460
ı	-14461
é	-14462
ت	-14463
і	-14464
%	-14465
з	-14466
の	-14467
ي	-14468
я	-14469
す	-14470
、	-14471
$	-14472
다	-14473
ー	-14474
ن	-14475
ь	-14476
的	-14477
を	-14478
─	-14479
б	-14480
ر	-14481
و	-14482
이	-14483
د	-14484
니	-14485
し	-14486
に	-14487
ま	-14488
á	-14489
用	-14490
ü	-14491
하	-14492
ب	-14493
ч	-14494
ç	-14495
で	-14496
는	-14497
ン	-14498
ы	-14499
й	-14500
は	-14501
る	-14502
்	-14503
г	-14504
ة	-14505
에	-14506
ж	-14507
를	-14508
을	-14509
ト	-14510
ع	-14511
س	-14512
ス	-14513
로	-14514
ó	-14515
て	-14516
ö	-14517
使	-14518
れ	-14519
と	-14520
х	-14521
^	-14522
ف	-14523
ц	-14524
ك	-14525
ى	-14526
ä	-14527
い	-14528
ج	-14529
ш	-14530
ル	-14531
í	-14532
ă	-14533
ق	-14534
た	-14535
が	-14536
་	-14537
수	-14538
가	-14539
ی	-14540
ю	-14541
な	-14542
의	-14543
ه	-14544
ã	-14545
こ	-14546
ş	-14547
서	-14548
デ	-14549
ク	-14550
一	-14551
습	-14552
在	-14553
지	-14554
사	-14555
용	-14556
모	-14557
~	-14558
க	-14559
以	-14560
있	-14561
ê	-14562
ğ	-14563
さ	-14564
ح	-14565
可	-14566
기	-14567
你	-14568
한	-14569
イ	-14570
ு	-14571
스	-14572
خ	-14573
り	-14574
은	-14575
ッ	-14576
합	-14577
리	-14578
щ	-14579
数	-14580
أ	-14581
—	-14582
中	-14583
ش	-14584
✅	-14585
是	-14586
プ	-14587
ə	-14588
タ	-14589
ф	-14590
ذ	-14591
リ	-14592
要	-14593
ி	-14594
해	-14595
할	-14596
ド	-14597
트	-14598
型	-14599
델	-14600
த	-14601
ப	-14602
고	-14603
어	-14604
ラ	-14605
モ	-14606
有	-14607
є	-14608
è	-14609
ص	-14610
行	-14611
시	-14612
’	-14613
성	-14614
如	-14615
인	-14616
か	-14617
à	-14618
ز	-14619
き	-14620
能	-14621
정	-14622
定	-14623
요	-14624
으	-14625
ら	-14626
ა	-14627
テ	-14628
个	-14629
文	-14630
あ	-14631
도	-14632
模	-14633
،	-14634
作	-14635
П	-14636
드	-14637
例	-14638
❌	-14639
입	-14640
よ	-14641
ட	-14642
█	-14643
ک	-14644
ط	-14645
إ	-14646
세	-14647
ம	-14648
不	-14649
く	-14650
成	-14651
ú	-14652
う	-14653
В	-14654
ئ	-14655
여	-14656
क	-14657
า	-14658
전	-14659
일	-14660
合	-14661
️	-14662
자	-14663
同	-14664
シ	-14665
제	-14666
它	-14667
グ	-14668
ア	-14669
α	-14670
ε	-14671
フ	-14672
ი	-14673
ा	-14674
も	-14675
メ	-14676
ロ	-14677
レ	-14678
과	-14679
ș	-14680
면	-14681
理	-14682
대	-14683
적	-14684
र	-14685
🤗	-14686
コ	-14687
式	-14688
வ	-14689
め	-14690
自	-14691
터	-14692
入	-14693
ை	-14694
下	-14695
그	-14696
ο	-14697
ས	-14698
方	-14699
τ	-14700
라	-14701
这	-14702
되	-14703
경	-14704
分	-14705
そ	-14706
ე	-14707
î	-14708
े	-14709
キ	-14710
ர	-14711
्	-14712
ї	-14713
ι	-14714
つ	-14715
パ	-14716
前	-14717
提	-14718
อ	-14719
上	-14720
示	-14721
문	-14722
ད	-14723
为	-14724
ث	-14725
보	-14726
多	-14727
加	-14728
器	-14729
了	-14730
위	-14731
작	-14732
個	-14733
프	-14734
「	-14735
」	-14736
э	-14737
와	-14738
만	-14739
ț	-14740
개	-14741
미	-14742
件	-14743
데	-14744
õ	-14745
ร	-14746
ە	-14747
ض	-14748
것	-14749
場	-14750
ジ	-14751
必	-14752
→	-14753
接	-14754
ள	-14755
ョ	-14756
ィ	-14757
ல	-14758
น	-14759
้	-14760
生	-14761
果	-14762
最	-14763
ν	-14764
セ	-14765
到	-14766
화	-14767
나	-14768
예	-14769
함	-14770
â	-14771
러	-14772
동	-14773
ག	-14774
่	-14775
法	-14776
우	-14777
だ	-14778
བ	-14779
更	-14780
음	-14781
σ	-14782
和	-14783
程	-14784
된	-14785
»	-14786
回	-14787
ா	-14788
เ	-14789
ய	-14790
크	-14791
«	-14792
들	-14793
ً	-14794
本	-14795
化	-14796
│	-14797
會	-14798
存	-14799
پ	-14800
出	-14801
み	-14802
변	-14803
ற	-14804
“	-14805
常	-14806
依	-14807
═	-14808
ρ	-14809
チ	-14810
其	-14811
部	-14812
Н	-14813
性	-14814
처	-14815
バ	-14816
将	-14817
ブ	-14818
구	-14819
ི	-14820
新	-14821
ि	-14822
ュ	-14823
포	-14824
次	-14825
設	-14826
サ	-14827
意	-14828
通	-14829
추	-14830
설	-14831
게	-14832
会	-14833
स	-14834
些	-14835
我	-14836
マ	-14837
動	-14838
غ	-14839
っ	-14840
파	-14841
参	-14842
您	-14843
需	-14844
ก	-14845
न	-14846
प	-14847
像	-14848
ม	-14849
치	-14850
エ	-14851
于	-14852
더	-14853
含	-14854
大	-14855
⚠	-14856
ོ	-14857
생	-14858
所	-14859
ง	-14860
ポ	-14861
這	-14862
内	-14863
분	-14864
Т	-14865
ニ	-14866
반	-14867
ს	-14868
η	-14869
建	-14870
ं	-14871
取	-14872
코	-14873
ā	-14874
실	-14875
実	-14876
ன	-14877
아	-14878
상	-14879
路	-14880
μ	-14881
ē	-14882
或	-14883
부	-14884
置	-14885
せ	-14886
関	-14887
О	-14888
장	-14889
此	-14890
ん	-14891
ེ	-14892
应	-14893
력	-14894
С	-14895
š	-14896
ด	-14897
행	-14898
됩	-14899
任	-14900
중	-14901
時	-14902
†	-14903
相	-14904
ล	-14905
并	-14906
时	-14907
།	-14908
オ	-14909
능	-14910
们	-14911
같	-14912
け	-14913
為	-14914
注	-14915
않	-14916
환	-14917
ど	-14918
🌐	-14919
공	-14920
ྱ	-14921
何	-14922
방	-14923
ۇ	-14924
也	-14925
토	-14926
代	-14927
야	-14928
단	-14929
容	-14930
供	-14931
ъ	-14932
言	-14933
え	-14934
类	-14935
언	-14936
操	-14937
特	-14938
お	-14939
因	-14940
解	-14941
션	-14942
包	-14943
ச	-14944
他	-14945
ར	-14946
რ	-14947
力	-14948
매	-14949
오	-14950
유	-14951
ั	-14952
확	-14953
ム	-14954
저	-14955
字	-14956
对	-14957
据	-14958
업	-14959
체	-14960
表	-14961
메	-14962
明	-14963
應	-14964
来	-14965
ल	-14966
래	-14967
때	-14968
마	-14969
”	-14970
მ	-14971
원	-14972
全	-14973
但	-14974
π	-14975
З	-14976
重	-14977
ء	-14978
求	-14979
म	-14980
비	-14981
函	-14982
请	-14983
ё	-14984
ह	-14985
్	-14986
ན	-14987
開	-14988
別	-14989
與	-14990
त	-14991
ダ	-14992
持	-14993
ۈ	-14994
گ	-14995
ケ	-14996
ェ	-14997
필	-14998
선	-14999
Д	-15000
ბ	-15001
འ	-15002
چ	-15003
境	-15004
계	-15005
正	-15006
外	-15007
者	-15008
И	-15009
而	-15010
工	-15011
ლ	-15012
А	-15013
본	-15014
া	-15015
조	-15016
록	-15017
내	-15018
며	-15019
度	-15020
소	-15021
指	-15022
ო	-15023
บ	-15024
ो	-15025
後	-15026
直	-15027
ུ	-15028
數	-15029
υ	-15030
র	-15031
ว	-15032
또	-15033
Ġ	-15034
情	-15035
려	-15036
語	-15037
큰	-15038
ォ	-15039
值	-15040
等	-15041
进	-15042
든	-15043
К	-15044
ς	-15045
ے	-15046
디	-15047
列	-15048
ค	-15049
른	-15050
λ	-15051
保	-15052
具	-15053
名	-15054
ང	-15055
码	-15056
å	-15057
然	-15058
べ	-15059
確	-15060
ে	-15061
基	-15062
버	-15063
之	-15064
य	-15065
得	-15066
返	-15067
与	-15068
У	-15069
ば	-15070
식	-15071
클	-15072
ž	-15073
ベ	-15074
레	-15075
출	-15076
查	-15077
테	-15078
–	-15079
后	-15080
ต	-15081
པ	-15082
্	-15083
量	-15084
키	-15085
γ	-15086
完	-15087
ལ	-15088
端	-15089
ნ	-15090
법	-15091
資	-15092
플	-15093
κ	-15094
련	-15095
ί	-15096
М	-15097
ी	-15098
ন	-15099
ہ	-15100
ァ	-15101
宣	-15102
目	-15103
주	-15104
ี	-15105
整	-15106
並	-15107
就	-15108
각	-15109
མ	-15110
安	-15111
体	-15112
ส	-15113
事	-15114
変	-15115
信	-15116
ظ	-15117
案	-15118
看	-15119
ந	-15120
텍	-15121
や	-15122
非	-15123
값	-15124
只	-15125
配	-15126
қ	-15127
├	-15128
來	-15129
知	-15130
ُ	-15131
ห	-15132
追	-15133
Р	-15134
ī	-15135
அ	-15136
じ	-15137
ვ	-15138
わ	-15139
送	-15140
点	-15141
დ	-15142
子	-15143
推	-15144
料	-15145
画	-15146
신	-15147
过	-15148
두	-15149
ή	-15150
び	-15151
간	-15152
명	-15153
务	-15154
결	-15155
đ	-15156
ท	-15157
타	-15158
立	-15159
想	-15160
ป	-15161
已	-15162
ே	-15163
ザ	-15164
发	-15165
훈	-15166
ெ	-15167
都	-15168
없	-15169
高	-15170
ิ	-15171
由	-15172
έ	-15173
面	-15174
动	-15175
們	-15176
ャ	-15177
認	-15178
序	-15179
학	-15180
ñ	-15181
声	-15182
ক	-15183
參	-15184
始	-15185
論	-15186
및	-15187
设	-15188
ช	-15189
カ	-15190
告	-15191
ি	-15192
機	-15193
호	-15194
ں	-15195
형	-15196
உ	-15197
달	-15198
類	-15199
複	-15200
व	-15201
【	-15202
】	-15203
被	-15204
ट	-15205
İ	-15206
除	-15207
ô	-15208
ø	-15209
ナ	-15210
존	-15211
📝	-15212
통	-15213
学	-15214
现	-15215
ย	-15216
답	-15217
č	-15218
単	-15219
었	-15220
ウ	-15221
இ	-15222
·	-15223
ו	-15224
傳	-15225
번	-15226
处	-15227
於	-15228
آ	-15229
최	-15230
„	-15231
样	-15232
支	-15233
输	-15234
브	-15235
位	-15236
ソ	-15237
装	-15238
实	-15239
ਾ	-15240
표	-15241
請	-15242
แ	-15243
径	-15244
現	-15245
値	-15246
功	-15247
특	-15248
운	-15249
服	-15250
✨	-15251
標	-15252
🤓	-15253
ి	-15254
ข	-15255
현	-15256
制	-15257
当	-15258
ใ	-15259
안	-15260
期	-15261
ڭ	-15262
ड	-15263
ै	-15264
換	-15265
ł	-15266
거	-15267
且	-15268
创	-15269
小	-15270
ę	-15271
集	-15272
碼	-15273
每	-15274
処	-15275
접	-15276
练	-15277
속	-15278
対	-15279
索	-15280
训	-15281
თ	-15282
徑	-15283
版	-15284
测	-15285
‐	-15286
该	-15287
义	-15288
構	-15289
试	-15290
ए	-15291
先	-15292
응	-15293
직	-15294
步	-15295
利	-15296
户	-15297
당	-15298
档	-15299
द	-15300
ß	-15301
ý	-15302
开	-15303
ち	-15304
딩	-15305
地	-15306
把	-15307
项	-15308
ř	-15309
適	-15310
배	-15311
ワ	-15312
Ö	-15313
間	-15314
ื	-15315
環	-15316
标	-15317
結	-15318
Э	-15319
︎	-15320
各	-15321
再	-15322
ά	-15323
元	-15324
词	-15325
引	-15326
赖	-15327
י	-15328
ํ	-15329
音	-15330
ज	-15331
ず	-15332
히	-15333
调	-15334
選	-15335
양	-15336
항	-15337
활	-15338
ண	-15339
임	-15340
見	-15341
ې	-15342
关	-15343
载	-15344
바	-15345
점	-15346
ユ	-15347
限	-15348
ą	-15349
δ	-15350
ό	-15351
问	-15352
ტ	-15353
연	-15354
向	-15355
起	-15356
主	-15357
론	-15358
Е	-15359
息	-15360
効	-15361
确	-15362
认	-15363
ు	-15364
速	-15365
।	-15366
单	-15367
库	-15368
했	-15369
Ц	-15370
ھ	-15371
細	-15372
გ	-15373
შ	-15374
য	-15375
న	-15376
檔	-15377
χ	-15378
증	-15379
æ	-15380
จ	-15381
ྲ	-15382
微	-15383
人	-15384
ర	-15385
발	-15386
ў	-15387
უ	-15388
运	-15389
참	-15390
관	-15391
์	-15392
种	-15393
系	-15394
검	-15395
問	-15396
재	-15397
測	-15398
따	-15399
ไ	-15400
ग	-15401
呼	-15402
류	-15403
从	-15404
Б	-15405
Я	-15406
ת	-15407
โ	-15408
ズ	-15409
義	-15410
패	-15411
ɣ	-15412
好	-15413
及	-15414
算	-15415
込	-15416
令	-15417
ě	-15418
受	-15419
케	-15420
텐	-15421
密	-15422
语	-15423
태	-15424
係	-15425
准	-15426
ư	-15427
ה	-15428
져	-15429
照	-15430
ల	-15431
传	-15432
พ	-15433
响	-15434
选	-15435
組	-15436
등	-15437
ా	-15438
ะ	-15439
알	-15440
將	-15441
ؤ	-15442
ś	-15443
考	-15444
커	-15445
복	-15446
ল	-15447
很	-15448
산	-15449
😎	-15450
ब	-15451
對	-15452
티	-15453
ਰ	-15454
公	-15455
詳	-15456
識	-15457
技	-15458
添	-15459
애	-15460
答	-15461
執	-15462
└	-15463
検	-15464
⬆	-15465
מ	-15466
ู	-15467
🚀	-15468
ங	-15469
ょ	-15470
ω	-15471
청	-15472
收	-15473
ビ	-15474
열	-15475
진	-15476
ל	-15477
স	-15478
ხ	-15479
習	-15480
θ	-15481
內	-15482
比	-15483
많	-15484
ć	-15485
ピ	-15486
準	-15487
處	-15488
管	-15489
調	-15490
默	-15491
ٹ	-15492
ਕ	-15493
므	-15494
ả	-15495
ガ	-15496
那	-15497
环	-15498
計	-15499
記	-15500
택	-15501
改	-15502
ۆ	-15503
블	-15504
Ε	-15505
І	-15506
될	-15507
새	-15508
該	-15509
템	-15510
ボ	-15511
목	-15512
状	-15513
ோ	-15514
编	-15515
워	-15516
格	-15517
ڈ	-15518
ạ	-15519
링	-15520
ّ	-15521
際	-15522
준	-15523
搜	-15524
発	-15525
證	-15526
후	-15527
ট	-15528
ハ	-15529
空	-15530
间	-15531
ุ	-15532
받	-15533
启	-15534
象	-15535
겠	-15536
ం	-15537
樣	-15538
応	-15539
渡	-15540
ネ	-15541
切	-15542
노	-15543
채	-15544
書	-15545
簡	-15546
進	-15547
🔧	-15548
ব	-15549
ீ	-15550
預	-15551
క	-15552
試	-15553
题	-15554
너	-15555
इ	-15556
প	-15557
無	-15558
팅	-15559
連	-15560
初	-15561
약	-15562
做	-15563
립	-15564
ù	-15565
श	-15566
述	-15567
预	-15568
료	-15569
段	-15570
ম	-15571
效	-15572
还	-15573
助	-15574
形	-15575
节	-15576
ר	-15577
流	-15578
共	-15579
역	-15580
ु	-15581
符	-15582
統	-15583
检	-15584
率	-15585
命	-15586
少	-15587
属	-15588
结	-15589
過	-15590
發	-15591
ệ	-15592
复	-15593
验	-15594
질	-15595
ཡ	-15596
未	-15597
某	-15598
ਲ	-15599
ツ	-15600
介	-15601
ש	-15602
ノ	-15603
ậ	-15604
題	-15605
객	-15606
ু	-15607
É	-15608
Ф	-15609
आ	-15610
備	-15611
构	-15612
况	-15613
証	-15614
베	-15615
ļ	-15616
집	-15617
ཚ	-15618
輸	-15619
렬	-15620
✓	-15621
串	-15622
待	-15623
手	-15624
ì	-15625
活	-15626
ż	-15627
ཁ	-15628
무	-15629
ミ	-15630
啟	-15631
失	-15632
证	-15633
향	-15634
उ	-15635
實	-15636
驗	-15637
अ	-15638
ॉ	-15639
單	-15640
長	-15641
即	-15642
导	-15643
里	-15644
味	-15645
옵	-15646
ể	-15647
🕙	-15648
Ċ	-15649
む	-15650
ੋ	-15651
ペ	-15652
放	-15653
🎉	-15654
च	-15655
变	-15656
态	-15657
ヘ	-15658
无	-15659
當	-15660
录	-15661
께	-15662
ộ	-15663
초	-15664
互	-15665
没	-15666
源	-15667
எ	-15668
找	-15669
研	-15670
範	-15671
許	-15672
話	-15673
架	-15674
物	-15675
般	-15676
별	-15677
×	-15678
็	-15679
ཆ	-15680
付	-15681
規	-15682
読	-15683
순	-15684
ཀ	-15685
మ	-15686
予	-15687
줄	-15688
ਸ	-15689
態	-15690
წ	-15691
转	-15692
異	-15693
究	-15694
説	-15695
올	-15696
팁	-15697
효	-15698
Ч	-15699
א	-15700
ほ	-15701
给	-15702
道	-15703
ť	-15704
略	-15705
第	-15706
简	-15707
終	-15708
ḍ	-15709
似	-15710
原	-15711
롬	-15712
르	-15713
름	-15714
색	-15715
Α	-15716
產	-15717
获	-15718
括	-15719
许	-15720
머	-15721
Ç	-15722
否	-15723
퀀	-15724
헤	-15725
组	-15726
규	-15727
외	-15728
域	-15729
记	-15730
ò	-15731
换	-15732
望	-15733
様	-15734
ో	-15735
차	-15736
统	-15737
평	-15738
Ü	-15739
快	-15740
種	-15741
计	-15742
백	-15743
仍	-15744
ড	-15745
స	-15746
ế	-15747
己	-15748
教	-15749
종	-15750
ώ	-15751
图	-15752
填	-15753
移	-15754
런	-15755
展	-15756
況	-15757
机	-15758
概	-15759
컨	-15760
へ	-15761
便	-15762
允	-15763
ۋ	-15764
ქ	-15765
ū	-15766
ྒ	-15767
么	-15768
報	-15769
़	-15770
밀	-15771
ప	-15772
裝	-15773
좋	-15774
ట	-15775
Ş	-15776
φ	-15777
ू	-15778
消	-15779
డ	-15780
ợ	-15781
写	-15782
执	-15783
止	-15784
項	-15785
떤	-15786
割	-15787
错	-15788
體	-15789
렇	-15790
ד	-15791
身	-15792
頭	-15793
영	-15794
ழ	-15795
ấ	-15796
章	-15797
增	-15798
節	-15799
庫	-15800
署	-15801
ů	-15802
완	-15803
측	-15804
天	-15805
ত	-15806
真	-15807
근	-15808
客	-15809
界	-15810
約	-15811
続	-15812
经	-15813
至	-15814
視	-15815
ਿ	-15816
層	-15817
日	-15818
让	-15819
關	-15820
则	-15821
希	-15822
從	-15823
訊	-15824
另	-15825
Г	-15826
ொ	-15827
ཐ	-15828
ྤ	-15829
精	-15830
變	-15831
質	-15832
ჩ	-15833
评	-15834
框	-15835
ҳ	-15836
త	-15837
带	-15838
럼	-15839
య	-15840
伺	-15841
权	-15842
网	-15843
ύ	-15844
翻	-15845
페	-15846
■	-15847
ご	-15848
援	-15849
话	-15850
턴	-15851
Î	-15852
়	-15853
ਮ	-15854
号	-15855
著	-15856
點	-15857
싶	-15858
ण	-15859
ੀ	-15860
ཞ	-15861
景	-15862
術	-15863
ב	-15864
ਤ	-15865
ј	-15866
ਨ	-15867
ც	-15868
찾	-15869
ụ	-15870
细	-15871
稱	-15872
빠	-15873
头	-15874
編	-15875
령	-15876
ź	-15877
低	-15878
口	-15879
估	-15880
決	-15881
ই	-15882
చ	-15883
仅	-15884
択	-15885
길	-15886
병	-15887
ớ	-15888
豆	-15889
享	-15890
辑	-15891
✏	-15892
修	-15893
권	-15894
β	-15895
램	-15896
ष	-15897
렉	-15898
잘	-15899
ਹ	-15900
ถ	-15901
套	-15902
닝	-15903
째	-15904
ყ	-15905
ố	-15906
片	-15907
讓	-15908
ő	-15909
░	-15910
抽	-15911
🌎	-15912
异	-15913
替	-15914
載	-15915
까	-15916
კ	-15917
ფ	-15918
埋	-15919
描	-15920
ח	-15921
ੱ	-15922
留	-15923
ো	-15924
深	-15925
什	-15926
素	-15927
논	-15928
এ	-15929
ੇ	-15930
交	-15931
済	-15932
频	-15933
허	-15934
ਪ	-15935
ผ	-15936
강	-15937
役	-15938
致	-15939
먼	-15940
몇	-15941
엔	-15942
ਂ	-15943
👥	-15944
别	-15945
맞	-15946
њ	-15947
불	-15948
°	-15949
ྐ	-15950
・	-15951
称	-15952
듈	-15953
랜	-15954
튜	-15955
Π	-15956
削	-15957
沒	-15958
략	-15959
వ	-15960
ฟ	-15961
南	-15962
规	-15963
높	-15964
릿	-15965
ـ	-15966
轉	-15967
连	-15968
递	-15969
ཟ	-15970
⬚	-15971
強	-15972
欄	-15973
独	-15974
ే	-15975
择	-15976
須	-15977
Δ	-15978
读	-15979
錯	-15980
గ	-15981
寫	-15982
賴	-15983
율	-15984
🤖	-15985
‍	-15986
価	-15987
停	-15988
戶	-15989
評	-15990
访	-15991
감	-15992
편	-15993
औ	-15994
づ	-15995
