<pad>	0
<unk>	0
<s>	0
</s>	0
<0x00>	0
<0x01>	0
<0x02>	0
<0x03>	0
<0x04>	0
<0x05>	0
<0x06>	0
<0x07>	0
<0x08>	0
<0x09>	0
<0x0A>	0
<0x0B>	0
<0x0C>	0
<0x0D>	0
<0x0E>	0
<0x0F>	0
<0x10>	0
<0x11>	0
<0x12>	0
<0x13>	0
<0x14>	0
<0x15>	0
<0x16>	0
<0x17>	0
<0x18>	0
<0x19>	0
<0x1A>	0
<0x1B>	0
<0x1C>	0
<0x1D>	0
<0x1E>	0
<0x1F>	0
<0x20>	0
<0x21>	0
<0x22>	0
<0x23>	0
<0x24>	0
<0x25>	0
<0x26>	0
<0x27>	0
<0x28>	0
<0x29>	0
<0x2A>	0
<0x2B>	0
<0x2C>	0
<0x2D>	0
<0x2E>	0
<0x2F>	0
<0x30>	0
<0x31>	0
<0x32>	0
<0x33>	0
<0x34>	0
<0x35>	0
<0x36>	0
<0x37>	0
<0x38>	0
<0x39>	0
<0x3A>	0
<0x3B>	0
<0x3C>	0
<0x3D>	0
<0x3E>	0
<0x3F>	0
<0x40>	0
<0x41>	0
<0x42>	0
<0x43>	0
<0x44>	0
<0x45>	0
<0x46>	0
<0x47>	0
<0x48>	0
<0x49>	0
<0x4A>	0
<0x4B>	0
<0x4C>	0
<0x4D>	0
<0x4E>	0
<0x4F>	0
<0x50>	0
<0x51>	0
<0x52>	0
<0x53>	0
<0x54>	0
<0x55>	0
<0x56>	0
<0x57>	0
<0x58>	0
<0x59>	0
<0x5A>	0
<0x5B>	0
<0x5C>	0
<0x5D>	0
<0x5E>	0
<0x5F>	0
<0x60>	0
<0x61>	0
<0x62>	0
<0x63>	0
<0x64>	0
<0x65>	0
<0x66>	0
<0x67>	0
<0x68>	0
<0x69>	0
<0x6A>	0
<0x6B>	0
<0x6C>	0
<0x6D>	0
<0x6E>	0
<0x6F>	0
<0x70>	0
<0x71>	0
<0x72>	0
<0x73>	0
<0x74>	0
<0x75>	0
<0x76>	0
<0x77>	0
<0x78>	0
<0x79>	0
<0x7A>	0
<0x7B>	0
<0x7C>	0
<0x7D>	0
<0x7E>	0
<0x7F>	0
<0x80>	0
<0x81>	0
<0x82>	0
<0x83>	0
<0x84>	0
<0x85>	0
<0x86>	0
<0x87>	0
<0x88>	0
<0x89>	0
<0x8A>	0
<0x8B>	0
<0x8C>	0
<0x8D>	0
<0x8E>	0
<0x8F>	0
<0x90>	0
<0x91>	0
<0x92>	0
<0x93>	0
<0x94>	0
<0x95>	0
<0x96>	0
<0x97>	0
<0x98>	0
<0x99>	0
<0x9A>	0
<0x9B>	0
<0x9C>	0
<0x9D>	0
<0x9E>	0
<0x9F>	0
<0xA0>	0
<0xA1>	0
<0xA2>	0
<0xA3>	0
<0xA4>	0
<0xA5>	0
<0xA6>	0
<0xA7>	0
<0xA8>	0
<0xA9>	0
<0xAA>	0
<0xAB>	0
<0xAC>	0
<0xAD>	0
<0xAE>	0
<0xAF>	0
<0xB0>	0
<0xB1>	0
<0xB2>	0
<0xB3>	0
<0xB4>	0
<0xB5>	0
<0xB6>	0
<0xB7>	0
<0xB8>	0
<0xB9>	0
<0xBA>	0
<0xBB>	0
<0xBC>	0
<0xBD>	0
<0xBE>	0
<0xBF>	0
<0xC0>	0
<0xC1>	0
<0xC2>	0
<0xC3>	0
<0xC4>	0
<0xC5>	0
<0xC6>	0
<0xC7>	0
<0xC8>	0
<0xC9>	0
<0xCA>	0
<0xCB>	0
<0xCC>	0
<0xCD>	0
<0xCE>	0
<0xCF>	0
<0xD0>	0
<0xD1>	0
<0xD2>	0
<0xD3>	0
<0xD4>	0
<0xD5>	0
<0xD6>	0
<0xD7>	0
<0xD8>	0
<0xD9>	0
<0xDA>	0
<0xDB>	0
<0xDC>	0
<0xDD>	0
<0xDE>	0
<0xDF>	0
<0xE0>	0
<0xE1>	0
<0xE2>	0
<0xE3>	0
<0xE4>	0
<0xE5>	0
<0xE6>	0
<0xE7>	0
<0xE8>	0
<0xE9>	0
<0xEA>	0
<0xEB>	0
<0xEC>	0
<0xED>	0
<0xEE>	0
<0xEF>	0
<0xF0>	0
<0xF1>	0
<0xF2>	0
<0xF3>	0
<0xF4>	0
<0xF5>	0
<0xF6>	0
<0xF7>	0
<0xF8>	0
<0xF9>	0
<0xFA>	0
<0xFB>	0
<0xFC>	0
<0xFD>	0
<0xFE>	0
<0xFF>	0
in	-0
st	-1
▁t	-2
re	-3
on	-4
er	-5
at	-6
en	-7
de	-8
▁*	-9
▁c	-10
or	-11
::	-12
al	-13
yp	-14
me	-15
--	-16
▁a	-17
se	-18
le	-19
▁/	-20
it	-21
ar	-22
he	-23
ion	-24
);	-25
▁,	-26
ame	-27
▁=	-28
▁f	-29
▁i	-30
**	-31
▁p	-32
▁s	-33
▁{	-34
ype	-35
▁(	-36
ct	-37
▁re	-38
an	-39
ST	-40
▁b	-41
ro	-42
▁T	-43
▁}	-44
▁the	-45
ur	-46
ic	-47
▁n	-48
int	-49
//	-50
ename	-51
▁#	-52
ypename	-53
ed	-54
▁o	-55
----	-56
ss	-57
▁A	-58
▁e	-59
▁*/	-60
▁st	-61
ing	-62
mp	-63
ut	-64
onst	-65
un	-66
▁typename	-67
tr	-68
il	-69
▁B	-70
ate	-71
ce	-72
ul	-73
▁U	-74
▁/*	-75
ge	-76
lo	-77
▁"	-78
def	-79
id	-80
type	-81
OO	-82
->	-83
▁w	-84
OOST	-85
▁//	-86
▁m	-87
==	-88
',	-89
oo	-90
ue	-91
",	-92
▁'	-93
▁v	-94
ig	-95
▁const	-96
ER	-97
▁in	-98
ent	-99
co	-100
▁BOOST	-101
IN	-102
▁C	-103
is	-104
ta	-105
▁if	-106
ex	-107
****	-108
el	-109
▁<	-110
urn	-111
turn	-112
la	-113
ch	-114
▁&	-115
iz	-116
▁d	-117
IT	-118
ck	-119
OR	-120
up	-121
if	-122
▁S	-123
ON	-124
us	-125
▁return	-126
▁to	-127
ult	-128
),	-129
ad	-130
ble	-131
um	-132
Re	-133
AT	-134
to	-135
end	-136
▁>	-137
▁th	-138
ation	-139
--------	-140
PP	-141
ine	-142
▁of	-143
th	-144
cl	-145
()	-146
as	-147
▁is	-148
te	-149
ra	-150
////	-151
ize	-152
LE	-153
["	-154
alue	-155
▁an	-156
▁de	-157
▁l	-158
mpl	-159
RE	-160
ter	-161
sp	-162
pt	-163
ist	-164
▁N	-165
ode	-166
ri	-167
ase	-168
▁P	-169
▁int	-170
ve	-171
of	-172
ata	-173
sult	-174
oid	-175
AR	-176
▁I	-177
able	-178
ext	-179
▁h	-180
▁D	-181
con	-182
ction	-183
tail	-184
oost	-185
▁for	-186
====	-187
▁type	-188
ver	-189
ude	-190
▁pro	-191
▁F	-192
iel	-193
age	-194
▁co	-195
ield	-196
▁g	-197
pp	-198
am	-199
uf	-200
))	-201
__	-202
ot	-203
▁-	-204
set	-205
ator	-206
EN	-207
▁te	-208
all	-209
********	-210
et	-211
clude	-212
ile	-213
ru	-214
UT	-215
ren	-216
ET	-217
ke	-218
get	-219
ub	-220
ment	-221
],	-222
▁ar	-223
>::	-224
ol	-225
ION	-226
▁void	-227
par	-228
▁L	-229
▁stat	-230
lass	-231
▁be	-232
ith	-233
▁or	-234
;;	-235
AL	-236
▁and	-237
▁def	-238
>(	-239
▁ex	-240
ir	-241
ruct	-242
▁ch	-243
ap	-244
es	-245
ect	-246
qu	-247
err	-248
▁it	-249
SE	-250
RO	-251
op	-252
EP	-253
ign	-254
In	-255
include	-256
pro	-257
mplate	-258
and	-259
▁M	-260
▁static	-261
ew	-262
▁typedef	-263
ort	-264
▁G	-265
▁arg	-266
ht	-267
ert	-268
▁con	-269
▁u	-270
▁template	-271
▁\	-272
ool	-273
ite	-274
ITY	-275
value	-276
▁|	-277
val	-278
CT	-279
▁un	-280
ers	-281
SG	-282
////////	-283
ran	-284
▁O	-285
----------------	-286
usion	-287
▁==	-288
loc	-289
":	-290
UL	-291
const	-292
result	-293
EPSG	-294
▁+	-295
DE	-296
ption	-297
▁se	-298
UTH	-299
ly	-300
AUTH	-301
▁>::	-302
Field	-303
ms	-304
ref	-305
ma	-306
"]	-307
ec	-308
▁E	-309
)(	-310
","	-311
db	-312
AUTHOR	-313
ild	-314
atch	-315
AUTHORITY	-316
▁on	-317
AM	-318
ace	-319
im	-320
▁@	-321
ime	-322
▁struct	-323
▁name	-324
art	-325
dex	-326
red	-327
data	-328
ast	-329
ql	-330
boost	-331
▁char	-332
str	-333
▁std	-334
upb	-335
size	-336
▁detail	-337
fo	-338
erator	-339
▁en	-340
▁that	-341
▁this	-342
sr	-343
ptr	-344
ack	-345
che	-346
IC	-347
lic	-348
buf	-349
"]],	-350
▁W	-351
pb	-352
▁with	-353
();	-354
▁proto	-355
fig	-356
ull	-357
od	-358
lement	-359
▁r	-360
▁size	-361
rom	-362
▁me	-363
▁V	-364
ber	-365
pr	-366
key	-367
ree	-368
detail	-369
its	-370
========	-371
▁)	-372
UR	-373
▁not	-374
▁!	-375
endif	-376
IS	-377
lock	-378
tp	-379
▁&&	-380
ord	-381
AN	-382
out	-383
RI	-384
ULL	-385
▁:	-386
alse	-387
ial	-388
name	-389
▁class	-390
oint	-391
▁_	-392
pre	-393
error	-394
yte	-395
▁case	-396
vo	-397
▁value	-398
PB	-399
sc	-400
St	-401
ser	-402
for	-403
IL	-404
▁};	-405
no	-406
▁wh	-407
▁ma	-408
▁[	-409
sed	-410
are	-411
CON	-412
SI	-413
oun	-414
▁al	-415
bj	-416
LO	-417
text	-418
url	-419
ssage	-420
try	-421
Con	-422
fer	-423
define	-424
ition	-425
▁boost	-426
****************	-427
AB	-428
Type	-429
ES	-430
▁as	-431
space	-432
code	-433
▁bool	-434
ho	-435
▁tr	-436
▁The	-437
▁at	-438
ys	-439
gs	-440
▁result	-441
eren	-442
▁do	-443
..	-444
os	-445
▁NULL	-446
Me	-447
ong	-448
));	-449
▁Re	-450
▁**	-451
},	-452
UN	-453
ust	-454
PRO	-455
,'	-456
ib	-457
param	-458
OM	-459
▁op	-460
▁R	-461
ive	-462
que	-463
tx	-464
EX	-465
voy	-466
ight	-467
▁we	-468
unction	-469
kU	-470
("	-471
▁define	-472
srs	-473
kUpb	-474
spar	-475
sign	-476
put	-477
AS	-478
ated	-479
ault	-480
dd	-481
INT	-482
der	-483
▁fusion	-484
icen	-485
ATE	-486
cess	-487
read	-488
ure	-489
len	-490
eg	-491
▁/**	-492
Str	-493
proto	-494
sion	-495
ix	-496
typename	-497
act	-498
Ex	-499
▁el	-500
▁Th	-501
ary	-502
LI	-503
PAR	-504
ww	-505
▁false	-506
ath	-507
▁j	-508
hpp	-509
config	-510
▁from	-511
▁<<	-512
line	-513
AD	-514
▁x	-515
vi	-516
AC	-517
ire	-518
Lo	-519
NO	-520
▁namespace	-521
ATION	-522
pc	-523
erence	-524
py	-525
ity	-526
umber	-527
mm	-528
▁else	-529
ind	-530
cast	-531
▁!=	-532
Rep	-533
our	-534
▁z	-535
▁In	-536
ork	-537
log	-538
AX	-539
ener	-540
▁file	-541
ill	-542
ssion	-543
pa	-544
▁This	-545
ak	-546
class	-547
▁by	-548
ound	-549
state	-550
ard	-551
▁set	-552
row	-553
Ptr	-554
ance	-555
bject	-556
ory	-557
BOOST	-558
▁are	-559
ow	-560
ID	-561
unt	-562
low	-563
irst	-564
▁y	-565
ublic	-566
ray	-567
▁true	-568
▁H	-569
gle	-570
one	-571
','	-572
GE	-573
ther	-574
gth	-575
ined	-576
ab	-577
PC	-578
▁upb	-579
ZE	-580
OL	-581
▁K	-582
string	-583
://	-584
▁UPB	-585
▁us	-586
child	-587
test	-588
element	-589
icense	-590
ssert	-591
rr	-592
CH	-593
Id	-594
rans	-595
INE	-596
uple	-597
▁data	-598
rpc	-599
ING	-600
////////////////	-601
ou	-602
comp	-603
▁he	-604
▁str	-605
msg	-606
ave	-607
FI	-608
oogle	-609
ute	-610
ag	-611
ste	-612
stat	-613
De	-614
mat	-615
TR	-616
rent	-617
iv	-618
col	-619
std	-620
EC	-621
▁comp	-622
String	-623
ies	-624
PARAM	-625
port	-626
heck	-627
SIZE	-628
yn	-629
inter	-630
unc	-631
gra	-632
ABLE	-633
uffer	-634
fusion	-635
Table	-636
ann	-637
CTION	-638
cc	-639
ore	-640
▁%	-641
ash	-642
ware	-643
per	-644
ERR	-645
▁get	-646
▁CUR	-647
ITER	-648
QL	-649
tain	-650
oft	-651
ip	-652
init	-653
▁'\	-654
▁--	-655
ED	-656
++	-657
list	-658
ff	-659
PL	-660
▁no	-661
rror	-662
rib	-663
ream	-664
arg	-665
ptions	-666
ded	-667
▁sp	-668
oftware	-669
next	-670
▁error	-671
reak	-672
LINE	-673
ource	-674
mo	-675
num	-676
▁`	-677
li	-678
▁function	-679
ETER	-680
qlite	-681
▁add	-682
sh	-683
http	-684
AIL	-685
PARAMETER	-686
tra	-687
uld	-688
▁inline	-689
mb	-690
base	-691
ee	-692
▁///	-693
ITERATION	-694
▁par	-695
signed	-696
TO	-697
add	-698
ant	-699
▁so	-700
tern	-701
▁null	-702
▁break	-703
back	-704
▁License	-705
▁use	-706
ac	-707
index	-708
ension	-709
SER	-710
ersion	-711
core	-712
reate	-713
");	-714
call	-715
DI	-716
est	-717
TH	-718
▁new	-719
EM	-720
(&	-721
================	-722
right	-723
cal	-724
lob	-725
vent	-726
'),	-727
FieldRep	-728
ail	-729
lat	-730
istrib	-731
ument	-732
▁||	-733
CL	-734
▁app	-735
iterator	-736
INLINE	-737
▁((	-738
ript	-739
UM	-740
▁test	-741
▁J	-742
Ar	-743
▁$	-744
rite	-745
uild	-746
CONST	-747
Data	-748
Error	-749
▁will	-750
info	-751
].	-752
ost	-753
▁can	-754
Message	-755
time	-756
PE	-757
expr	-758
TY	-759
Pro	-760
;;;;	-761
ty	-762
opy	-763
LIST	-764
▁out	-765
Get	-766
▁public	-767
▁la	-768
AST	-769
▁table	-770
ysql	-771
Byte	-772
alloc	-773
impl	-774
umn	-775
(),	-776
ttp	-777
com	-778
ENT	-779
lf	-780
▁key	-781
ader	-782
▁have	-783
node	-784
ich	-785
▁le	-786
▁len	-787
ache	-788
▁kUpb	-789
▁RE	-790
table	-791
ts	-792
>,	-793
AP	-794
ne	-795
om	-796
quest	-797
RPC	-798
▁field	-799
range	-800
file	-801
urrent	-802
En	-803
ange	-804
▁Uint	-805
▁call	-806
point	-807
igin	-808
};	-809
];	-810
SEQ	-811
ph	-812
char	-813
reference	-814
ll	-815
ice	-816
▁mem	-817
protobuf	-818
cept	-819
gram	-820
FT	-821
SL	-822
▁copy	-823
envoy	-824
DET	-825
▁using	-826
yste	-827
field	-828
Info	-829
▁envoy	-830
Value	-831
▁Copy	-832
qual	-833
istribut	-834
UP	-835
▁sqlite	-836
ug	-837
so	-838
FOR	-839
).	-840
xF	-841
ELE	-842
ery	-843
▁Con	-844
▁index	-845
action	-846
res	-847
DB	-848
ward	-849
▁include	-850
void	-851
ations	-852
DETAIL	-853
((	-854
▁end	-855
riptor	-856
sw	-857
▁Ex	-858
##	-859
VER	-860
▁under	-861
AXIS	-862
mple	-863
PROJ	-864
▁node	-865
▁list	-866
use	-867
null	-868
rel	-869
▁sub	-870
▁imp	-871
▁k	-872
OLD	-873
ds	-874
...	-875
form	-876
roup	-877
OP	-878
▁time	-879
EXP	-880
cord	-881
▁point	-882
▁ctx	-883
www	-884
▁nullptr	-885
▁If	-886
;;;;;	-887
rena	-888
▁exp	-889
Set	-890
andl	-891
▁up	-892
ctx	-893
metry	-894
ey	-895
ERROR	-896
work	-897
lp	-898
rag	-899
▁Copyright	-900
view	-901
▁ab	-902
count	-903
IF	-904
NAM	-905
can	-906
LOC	-907
lags	-908
▁string	-909
quire	-910
min	-911
▁program	-912
mem	-913
cket	-914
io	-915
▁);	-916
▁http	-917
ameter	-918
▁origin	-919
▁state	-920
ifi	-921
▁but	-922
BU	-923
UPB	-924
▁aut	-925
idx	-926
lobal	-927
ializ	-928
egin	-929
pos	-930
ink	-931
▁per	-932
▁uint	-933
vm	-934
riv	-935
ndef	-936
Name	-937
To	-938
▁sho	-939
▁default	-940
▁>=	-941
date	-942
▁operator	-943
MAT	-944
rc	-945
imit	-946
andle	-947
ay	-948
IM	-949
Iter	-950
do	-951
SP	-952
ress	-953
SERT	-954
start	-955
Code	-956
FOLD	-957
esc	-958
TE	-959
▁check	-960
ITE	-961
Un	-962
trib	-963
sert	-964
ANT	-965
ifndef	-966
OMP	-967
org	-968
▁number	-969
sg	-970
▁ne	-971
ctor	-972
Size	-973
▁used	-974
▁IN	-975
arget	-976
▁all	-977
ALU	-978
▁(!	-979
ise	-980
▁long	-981
Min	-982
▁ser	-983
wn	-984
vice	-985
US	-986
nal	-987
ence	-988
pl	-989
▁defined	-990
ignal	-991
▁part	-992
State	-993
traits	-994
begin	-995
AG	-996
qvm	-997
▁should	-998
valid	-999
eval	-1000
▁other	-1001
▁::	-1002
TT	-1003
Ch	-1004
▁any	-1005
SQL	-1006
▁assert	-1007
local	-1008
FF	-1009
map	-1010
google	-1011
▁CURL	-1012
andler	-1013
ECTION	-1014
▁${	-1015
▁curl	-1016
XX	-1017
▁<=	-1018
▁first	-1019
▁//!	-1020
());	-1021
this	-1022
grpc	-1023
](	-1024
pression	-1025
ific	-1026
▁ac	-1027
▁err	-1028
ytes	-1029
ule	-1030
pair	-1031
annel	-1032
thod	-1033
Node	-1034
DIR	-1035
utex	-1036
Co	-1037
ENSE	-1038
ICENSE	-1039
VE	-1040
ART	-1041
<>(	-1042
ector	-1043
▁*)	-1044
ference	-1045
Par	-1046
ait	-1047
▁over	-1048
▁Software	-1049
load	-1050
▁val	-1051
▁Ndb	-1052
cond	-1053
▁inter	-1054
▁AN	-1055
▁which	-1056
▁pre	-1057
move	-1058
HPP	-1059
▁object	-1060
lect	-1061
▁PG	-1062
alle	-1063
GEN	-1064
af	-1065
CE	-1066
iTable	-1067
▁ro	-1068
txt	-1069
▁spec	-1070
sub	-1071
▁has	-1072
default	-1073
▁code	-1074
ep	-1075
ACE	-1076
For	-1077
ted	-1078
MiniTable	-1079
Trans	-1080
▁St	-1081
PROJECTION	-1082
▁decl	-1083
▁INT	-1084
ding	-1085
ken	-1086
List	-1087
▁buffer	-1088
ETR	-1089
atum	-1090
enix	-1091
NOR	-1092
hoenix	-1093
▁must	-1094
Key	-1095
path	-1096
▁you	-1097
lete	-1098
▁Un	-1099
ateg	-1100
ystem	-1101
QU	-1102
mpty	-1103
conn	-1104
Stat	-1105
ans	-1106
Sh	-1107
Desc	-1108
src	-1109
PT	-1110
PROTO	-1111
cle	-1112
UB	-1113
ORT	-1114
ger	-1115
▁when	-1116
▁){	-1117
CS	-1118
ari	-1119
ual	-1120
▁trans	-1121
OK	-1122
▁__	-1123
https	-1124
em	-1125
Op	-1126
ify	-1127
status	-1128
olic	-1129
ometry	-1130
PRI	-1131
ilter	-1132
tag	-1133
NAME	-1134
IG	-1135
ization	-1136
ally	-1137
_;	-1138
ls	-1139
context	-1140
ROM	-1141
▁desc	-1142
ELECT	-1143
())	-1144
▁start	-1145
mt	-1146
▁SELECT	-1147
main	-1148
ITS	-1149
api	-1150
▁sh	-1151
▁nat	-1152
new	-1153
▁one	-1154
▁work	-1155
▁decltype	-1156
▁only	-1157
▁pg	-1158
EXPR	-1159
▁page	-1160
ld	-1161
▁read	-1162
TYPE	-1163
▁Curl	-1164
Index	-1165
File	-1166
ie	-1167
Len	-1168
upport	-1169
struct	-1170
ETRY	-1171
ulti	-1172
TRA	-1173
sl	-1174
rit	-1175
app	-1176
No	-1177
ARG	-1178
cp	-1179
Mode	-1180
▁may	-1181
first	-1182
FILE	-1183
▁id	-1184
ach	-1185
HE	-1186
(_	-1187
Array	-1188
ymb	-1189
▁ret	-1190
▁base	-1191
MATH	-1192
ILE	-1193
▁col	-1194
▁mod	-1195
LEFT	-1196
FA	-1197
CO	-1198
ymbol	-1199
STR	-1200
istributed	-1201
▁unsigned	-1202
max	-1203
gRPC	-1204
uster	-1205
Se	-1206
▁last	-1207
check	-1208
Buffer	-1209
nection	-1210
og	-1211
▁while	-1212
query	-1213
▁msg	-1214
rs	-1215
vel	-1216
▁version	-1217
atcher	-1218
desc	-1219
▁message	-1220
tension	-1221
Def	-1222
")	-1223
rivate	-1224
▁log	-1225
ecut	-1226
uint	-1227
Col	-1228
itude	-1229
▁+=	-1230
version	-1231
KE	-1232
▁self	-1233
ict	-1234
().	-1235
cur	-1236
▁FROM	-1237
Ndb	-1238
buffer	-1239
ef	-1240
BC	-1241
fset	-1242
son	-1243
▁sizeof	-1244
phoenix	-1245
HER	-1246
av	-1247
global	-1248
(*	-1249
SSL	-1250
SC	-1251
▁pa	-1252
ret	-1253
▁software	-1254
zle	-1255
Log	-1256
END	-1257
any	-1258
▁max	-1259
izzle	-1260
<>,	-1261
ifdef	-1262
GEOM	-1263
lot	-1264
length	-1265
swizzle	-1266
Scal	-1267
forward	-1268
▁endif	-1269
Context	-1270
▁google	-1271
ECK	-1272
ural	-1273
uc	-1274
ift	-1275
Iterator	-1276
Lat	-1277
ush	-1278
▁${_	-1279
▁Gener	-1280
ync	-1281
GEOMETRY	-1282
pert	-1283
lloc	-1284
reg	-1285
HO	-1286
ared	-1287
ible	-1288
lient	-1289
rep	-1290
orage	-1291
He	-1292
by	-1293
▁For	-1294
Config	-1295
CLU	-1296
▁grpc	-1297
▁Ar	-1298
ESS	-1299
ang	-1300
eric	-1301
▁?	-1302
page	-1303
comm	-1304
spon	-1305
inal	-1306
quence	-1307
mysql	-1308
DAT	-1309
ry	-1310
MAX	-1311
return	-1312
PRE	-1313
</	-1314
▁SQL	-1315
tribute	-1316
curl	-1317
options	-1318
▁cont	-1319
▁Z	-1320
▁impl	-1321
ask	-1322
}/	-1323
ception	-1324
exp	-1325
ALUES	-1326
_.	-1327
▁extern	-1328
tadata	-1329
tainer	-1330
▁ter	-1331
ient	-1332
internal	-1333
____	-1334
Number	-1335
icode	-1336
▁org	-1337
▁current	-1338
pg	-1339
▁},	-1340
MO	-1341
else	-1342
nd	-1343
uilder	-1344
source	-1345
Expr	-1346
['	-1347
▁buf	-1348
vert	-1349
ialized	-1350
="	-1351
defined	-1352
PO	-1353
])	-1354
▁reg	-1355
▁"",	-1356
▁make	-1357
lib	-1358
▁rel	-1359
▁need	-1360
TUP	-1361
ALL	-1362
loat	-1363
ected	-1364
NU	-1365
▁OR	-1366
▁constexpr	-1367
▁natural	-1368
▁require	-1369
▁go	-1370
arch	-1371
ning	-1372
around	-1373
ft	-1374
▁INTO	-1375
▁VALUES	-1376
CONSTEXPR	-1377
▁Return	-1378
ameters	-1379
▁X	-1380
free	-1381
▁We	-1382
▁alloc	-1383
▁pos	-1384
▁values	-1385
tric	-1386
▁src	-1387
▁auto	-1388
▁lo	-1389
▁import	-1390
▁NO	-1391
▁init	-1392
stance	-1393
tree	-1394
▁comm	-1395
util	-1396
▁num	-1397
ide	-1398
ample	-1399
mutex	-1400
▁status	-1401
ca	-1402
▁ndb	-1403
▁fail	-1404
TUPLE	-1405
BE	-1406
UNIT	-1407
intf	-1408
anization	-1409
hash	-1410
▁more	-1411
▁organization	-1412
lace	-1413
▁dis	-1414
▁oper	-1415
workaround	-1416
▁range	-1417
proj	-1418
aut	-1419
▁rep	-1420
stream	-1421
ates	-1422
)>(	-1423
ified	-1424
thing	-1425
fore	-1426
_<	-1427
olicy	-1428
jk	-1429
Int	-1430
▁]	-1431
";	-1432
TRAITS	-1433
Th	-1434
Coun	-1435
'].	-1436
irect	-1437
item	-1438
▁mysql	-1439
START	-1440
event	-1441
▁arena	-1442
▁server	-1443
lease	-1444
ook	-1445
Is	-1446
MEM	-1447
tuple	-1448
▁length	-1449
Map	-1450
▁tuple	-1451
▁element	-1452
vref	-1453
IIF	-1454
ride	-1455
*)	-1456
PROJECTIONS	-1457
UNCTION	-1458
CP	-1459
_(	-1460
function	-1461
rows	-1462
VM	-1463
ake	-1464
vector	-1465
STD	-1466
atal	-1467
cjk	-1468
iew	-1469
prec	-1470
Sub	-1471
cument	-1472
▁{}	-1473
▁CH	-1474
NORTH	-1475
onent	-1476
uncvref	-1477
▁into	-1478
▁next	-1479
▁write	-1480
EAST	-1481
▁whe	-1482
ision	-1483
++)	-1484
▁ptr	-1485
▁iterator	-1486
chema	-1487
▁input	-1488
▁See	-1489
array	-1490
Shift	-1491
Proto	-1492
▁private	-1493
Ref	-1494
ription	-1495
RID	-1496
▁its	-1497
▁Version	-1498
▁gen	-1499
lose	-1500
hs	-1501
extension	-1502
▁Boost	-1503
▁Y	-1504
▁was	-1505
ative	-1506
ARR	-1507
message	-1508
word	-1509
FieldMode	-1510
iter	-1511
Length	-1512
▁bytes	-1513
Status	-1514
md	-1515
▁here	-1516
▁Co	-1517
▁symbol	-1518
LOCK	-1519
SRID	-1520
ENABLE	-1521
STAT	-1522
▁lock	-1523
Descriptor	-1524
qui	-1525
be	-1526
args	-1527
GENS	-1528
REATE	-1529
part	-1530
signal	-1531
▁then	-1532
FIN	-1533
channel	-1534
block	-1535
ived	-1536
ced	-1537
~~	-1538
*/	-1539
trans	-1540
the	-1541
SION	-1542
ors	-1543
old	-1544
from	-1545
ither	-1546
Char	-1547
▁Public	-1548
dis	-1549
▁iter	-1550
flags	-1551
asic	-1552
bel	-1553
Base	-1554
▁count	-1555
write	-1556
RIG	-1557
GS	-1558
globals	-1559
thread	-1560
MiniTableField	-1561
▁memory	-1562
At	-1563
▁Pro	-1564
fter	-1565
alType	-1566
▁res	-1567
ero	-1568
uration	-1569
▁No	-1570
▁General	-1571
DO	-1572
ci	-1573
not	-1574
▁document	-1575
▁GNU	-1576
catch	-1577
▁pr	-1578
▁mpl	-1579
▁block	-1580
▁create	-1581
und	-1582
annot	-1583
▁ref	-1584
object	-1585
▁match	-1586
sponse	-1587
COMP	-1588
Ser	-1589
))))	-1590
unsigned	-1591
▁free	-1592
bit	-1593
SH	-1594
▁rc	-1595
verse	-1596
Test	-1597
ux	-1598
HT	-1599
▁back	-1600
gine	-1601
Signal	-1602
▁context	-1603
False	-1604
actor	-1605
INCLU	-1606
mi	-1607
▁NDB	-1608
▁does	-1609
GP	-1610
LICENSE	-1611
▁WIT	-1612
has	-1613
self	-1614
iled	-1615
assert	-1616
ULT	-1617
Extension	-1618
oin	-1619
pi	-1620
var	-1621
xy	-1622
group	-1623
OG	-1624
DED	-1625
geometry	-1626
Time	-1627
ssign	-1628
ASSERT	-1629
)),	-1630
(!	-1631
▁array	-1632
asy	-1633
inition	-1634
▁OF	-1635
except	-1636
lag	-1637
▁Get	-1638
xFBC	-1639
INTER	-1640
cs	-1641
ok	-1642
Rel	-1643
ved	-1644
irt	-1645
Lock	-1646
▁eval	-1647
('	-1648
ove	-1649
▁hash	-1650
make	-1651
EAT	-1652
▁terms	-1653
CC	-1654
utf	-1655
CHECK	-1656
server	-1657
▁AS	-1658
ody	-1659
enc	-1660
DIS	-1661
▁column	-1662
▁SQLITE	-1663
option	-1664
++;	-1665
▁valid	-1666
ml	-1667
Options	-1668
atalog	-1669
IAL	-1670
Qu	-1671
BUG	-1672
ous	-1673
perty	-1674
▁target	-1675
▁ANY	-1676
odule	-1677
Scalar	-1678
icensed	-1679
my	-1680
LOG	-1681
Tuple	-1682
]);	-1683
irtual	-1684
▁non	-1685
USE	-1686
EPT	-1687
▁local	-1688
▁limit	-1689
▁FOR	-1690
VATE	-1691
CEPT	-1692
):	-1693
▁request	-1694
copy	-1695
cre	-1696
ax	-1697
▁there	-1698
service	-1699
▁nor	-1700
▁send	-1701
gor	-1702
▁tra	-1703
Oper	-1704
New	-1705
med	-1706
ARE	-1707
UPC	-1708
process	-1709
Out	-1710
ful	-1711
)};	-1712
allel	-1713
▁DEC	-1714
CUR	-1715
UPCAST	-1716
man	-1717
▁either	-1718
iven	-1719
Record	-1720
ORD	-1721
ique	-1722
▁source	-1723
READ	-1724
ark	-1725
Format	-1726
AGE	-1727
▁same	-1728
▁without	-1729
pend	-1730
Equal	-1731
▁implement	-1732
▁documentation	-1733
ven	-1734
[]	-1735
▁pointer	-1736
unk	-1737
ses	-1738
ategy	-1739
erc	-1740
▁path	-1741
ynam	-1742
API	-1743
WH	-1744
ariable	-1745
own	-1746
▁than	-1747
ndb	-1748
)",	-1749
utable	-1750
▁expression	-1751
sys	-1752
▁TO	-1753
']._	-1754
AY	-1755
inary	-1756
Val	-1757
');	-1758
▁separ	-1759
▁gener	-1760
TER	-1761
other	-1762
CONSTANT	-1763
ailed	-1764
▁Ch	-1765
ynamic	-1766
Or	-1767
gorith	-1768
OID	-1769
NOT	-1770
▁contain	-1771
ollow	-1772
long	-1773
Request	-1774
ain	-1775
order	-1776
▁support	-1777
▁(*	-1778
▁UN	-1779
oly	-1780
SET	-1781
▁format	-1782
▁select	-1783
attern	-1784
ager	-1785
ten	-1786
▁++	-1787
defs	-1788
ENABLED	-1789
ical	-1790
▁sw	-1791
URN	-1792
lay	-1793
queue	-1794
Long	-1795
numeric	-1796
▁noexcept	-1797
filter	-1798
ingle	-1799
▁rece	-1800
column	-1801
▁vector	-1802
▁.	-1803
▁output	-1804
▁argument	-1805
ready	-1806
▁handle	-1807
cache	-1808
▁thread	-1809
▁Check	-1810
▁insert	-1811
iff	-1812
lon	-1813
Point	-1814
SO	-1815
rec	-1816
RIGHT	-1817
▁:=	-1818
multi	-1819
pe	-1820
istribution	-1821
▁scan	-1822
Page	-1823
▁EX	-1824
client	-1825
ps	-1826
ssl	-1827
▁jam	-1828
ORY	-1829
▁charact	-1830
Scan	-1831
WHILE	-1832
FUNCTION	-1833
NAD	-1834
env	-1835
▁text	-1836
▁CON	-1837
PRIVATE	-1838
extensions	-1839
fs	-1840
▁undef	-1841
scan	-1842
URE	-1843
▁apply	-1844
label	-1845
du	-1846
wait	-1847
▁lib	-1848
▁after	-1849
▁Context	-1850
SA	-1851
TURN	-1852
▁auth	-1853
▁Str	-1854
last	-1855
vance	-1856
cmp	-1857
NULL	-1858
>&	-1859
▁follow	-1860
▁row	-1861
very	-1862
▁old	-1863
GET	-1864
bug	-1865
See	-1866
deref	-1867
▁signal	-1868
▁'.	-1869
▁definition	-1870
LL	-1871
dir	-1872
current	-1873
▁func	-1874
▁override	-1875
ron	-1876
user	-1877
RC	-1878
▁LICENSE	-1879
▁pl	-1880
▁min	-1881
igits	-1882
▁given	-1883
▁PRO	-1884
hed	-1885
\"	-1886
gree	-1887
Header	-1888
▁before	-1889
['_	-1890
TRI	-1891
bl	-1892
Entry	-1893
▁CREATE	-1894
itch	-1895
raph	-1896
easy	-1897
Count	-1898
ature	-1899
ISH	-1900
send	-1901
Range	-1902
ErrorCode	-1903
▁method	-1904
▁some	-1905
▁distributed	-1906
▁ad	-1907
▁accomp	-1908
▁Set	-1909
Di	-1910
ILITY	-1911
####	-1912
▁accompany	-1913
gex	-1914
lear	-1915
')	-1916
_,	-1917
ASE	-1918
▁Free	-1919
▁accompanying	-1920
USION	-1921
From	-1922
ele	-1923
EXT	-1924
lean	-1925
GPU	-1926
ular	-1927
Call	-1928
▁ag	-1929
▁each	-1930
UBL	-1931
Of	-1932
▁separate	-1933
▁stream	-1934
wise	-1935
licit	-1936
store	-1937
MA	-1938
▁DE	-1939
▁war	-1940
we	-1941
uccess	-1942
ia	-1943
AND	-1944
▁writ	-1945
TEST	-1946
pri	-1947
precision	-1948
▁order	-1949
▁offset	-1950
Tab	-1951
▁they	-1952
FINISH	-1953
ting	-1954
UTE	-1955
KEY	-1956
CXX	-1957
entry	-1958
mission	-1959
ater	-1960
ctionary	-1961
▁included	-1962
math	-1963
▁returns	-1964
HAS	-1965
MP	-1966
parameters	-1967
▁run	-1968
func	-1969
▁DECOMP	-1970
handle	-1971
kip	-1972
CK	-1973
)));	-1974
lause	-1975
FILENAME	-1976
create	-1977
Stream	-1978
LETT	-1979
LETTER	-1980
amp	-1981
Latitude	-1982
GR	-1983
open	-1984
▁act	-1985
refix	-1986
MET	-1987
engine	-1988
ialize	-1989
sqlite	-1990
▁child	-1991
Operation	-1992
Start	-1993
luster	-1994
Transaction	-1995
tab	-1996
rule	-1997
coord	-1998
socket	-1999
▁where	-2000
ell	-2001
){	-2002
degree	-2003
▁goto	-2004
Result	-2005
▁WARR	-2006
insert	-2007
edge	-2008
ied	-2009
ACK	-2010
format	-2011
▁'.',	-2012
ystems	-2013
position	-2014
used	-2015
▁licensed	-2016
▁TABLE	-2017
ONG	-2018
CODE	-2019
atial	-2020
ecutor	-2021
gener	-2022
▁Alloc	-2023
▁record	-2024
ouble	-2025
▁enable	-2026
▁Par	-2027
ments	-2028
▁It	-2029
vide	-2030
cluster	-2031
pper	-2032
alled	-2033
▁My	-2034
FIX	-2035
rame	-2036
face	-2037
expression	-2038
FS	-2039
▁Assert	-2040
nown	-2041
Rec	-2042
Impl	-2043
Add	-2044
▁reference	-2045
▁Datum	-2046
quired	-2047
▁entry	-2048
empty	-2049
ject	-2050
gen	-2051
▁bit	-2052
▁allow	-2053
nect	-2054
Comm	-2055
▁CURLE	-2056
sql	-2057
parse	-2058
PLACE	-2059
NE	-2060
▁na	-2061
bool	-2062
FUSION	-2063
▁my	-2064
CU	-2065
VAL	-2066
▁also	-2067
dition	-2068
▁Red	-2069
ifier	-2070
uble	-2071
LS	-2072
▁You	-2073
▁Returns	-2074
DEX	-2075
tion	-2076
wo	-2077
▁client	-2078
▁description	-2079
matcher	-2080
true	-2081
ARY	-2082
printf	-2083
WGS	-2084
▁ss	-2085
til	-2086
._	-2087
inue	-2088
bytes	-2089
tect	-2090
access	-2091
Init	-2092
▁header	-2093
match	-2094
▁integ	-2095
▁Found	-2096
erge	-2097
Object	-2098
auth	-2099
ince	-2100
▁srs	-2101
▁NOT	-2102
▁operation	-2103
▁AND	-2104
LOPT	-2105
▁virtual	-2106
sor	-2107
Tag	-2108
=(	-2109
ays	-2110
▁options	-2111
false	-2112
SON	-2113
▁INSERT	-2114
serialized	-2115
▁Se	-2116
,-	-2117
▁List	-2118
sent	-2119
Query	-2120
(__	-2121
coding	-2122
▁Iter	-2123
▁absl	-2124
raint	-2125
▁ST	-2126
FO	-2127
less	-2128
▁{};	-2129
advance	-2130
EXCEPT	-2131
▁user	-2132
Arena	-2133
▁config	-2134
IND	-2135
▁option	-2136
nt	-2137
req	-2138
▁Op	-2139
uch	-2140
STRING	-2141
BIG	-2142
RES	-2143
▁Test	-2144
Tra	-2145
▁Vector	-2146
BEG	-2147
▁...	-2148
fd	-2149
▁IS	-2150
VERSION	-2151
stamp	-2152
ian	-2153
imp	-2154
ucket	-2155
spec	-2156
▁Me	-2157
indow	-2158
run	-2159
cont	-2160
▁->	-2161
host	-2162
▁Distributed	-2163
IME	-2164
afe	-2165
OF	-2166
byte	-2167
ose	-2168
▁Foundation	-2169
Block	-2170
▁catalog	-2171
▁Unicode	-2172
mit	-2173
offset	-2174
▁byte	-2175
▁double	-2176
target	-2177
▁ind	-2178
▁enum	-2179
▁already	-2180
opt	-2181
rol	-2182
descriptor	-2183
▁~	-2184
View	-2185
▁cor	-2186
IST	-2187
input	-2188
cf	-2189
Column	-2190
SY	-2191
report	-2192
units	-2193
over	-2194
mal	-2195
static	-2196
rary	-2197
igger	-2198
fers	-2199
head	-2200
▁exist	-2201
▁permission	-2202
Uint	-2203
▁process	-2204
▁final	-2205
float	-2206
template	-2207
andom	-2208
metadata	-2209
PER	-2210
cb	-2211
DU	-2212
▁line	-2213
▁query	-2214
DATUM	-2215
▁help	-2216
Handler	-2217
reen	-2218
Mem	-2219
icate	-2220
systems	-2221
scal	-2222
Alloc	-2223
Parse	-2224
▁map	-2225
▁change	-2226
()(	-2227
pped	-2228
cr	-2229
▁REPLACE	-2230
oll	-2231
▁ON	-2232
iber	-2233
member	-2234
ragma	-2235
PI	-2236
Read	-2237
▁try	-2238
ear	-2239
mask	-2240
▁even	-2241
igh	-2242
▁member	-2243
▁delete	-2244
▁flags	-2245
UX	-2246
▁Lo	-2247
STATIC	-2248
HERE	-2249
ick	-2250
HOUT	-2251
▁catch	-2252
IR	-2253
RealType	-2254
ube	-2255
▁mat	-2256
yout	-2257
ating	-2258
Check	-2259
dot	-2260
pointer	-2261
▁construct	-2262
tal	-2263
ely	-2264
Module	-2265
▁LETTER	-2266
addr	-2267
pool	-2268
fields	-2269
Ctx	-2270
)},	-2271
storage	-2272
sum	-2273
mode	-2274
Req	-2275
enable	-2276
Hash	-2277
]',	-2278
FD	-2279
off	-2280
Dictionary	-2281
▁Arg	-2282
▁De	-2283
▁WITHOUT	-2284
eometry	-2285
Event	-2286
▁ICU	-2287
REF	-2288
bits	-2289
cause	-2290
itional	-2291
End	-2292
number	-2293
ultip	-2294
formation	-2295
▁zone	-2296
exec	-2297
TTP	-2298
▁BY	-2299
▁instance	-2300
Db	-2301
cpp	-2302
▁empty	-2303
OPY	-2304
';	-2305
dest	-2306
▁cur	-2307
▁ZSTD	-2308
▁following	-2309
▁event	-2310
▁args	-2311
FE	-2312
Tr	-2313
spatial	-2314
gment	-2315
GEOG	-2316
gr	-2317
▁qu	-2318
SPHER	-2319
ITION	-2320
▁because	-2321
shared	-2322
▁called	-2323
rop	-2324
▁CURLOPT	-2325
gin	-2326
link	-2327
token	-2328
▁find	-2329
Oid	-2330
▁THE	-2331
with	-2332
ished	-2333
acity	-2334
XXH	-2335
system	-2336
▁WHERE	-2337
▁switch	-2338
Lon	-2339
ALUE	-2340
▁Al	-2341
▁implied	-2342
case	-2343
tries	-2344
SPHEROID	-2345
ABILITY	-2346
▁functions	-2347
▁link	-2348
"]]',	-2349
GEOGCS	-2350
coordsys	-2351
PRIMEM	-2352
▁been	-2353
ffset	-2354
Pool	-2355
sport	-2356
lication	-2357
OOL	-2358
memory	-2359
▁your	-2360
NIL	-2361
Green	-2362
ential	-2363
▁var	-2364
VMD	-2365
▁right	-2366
Enum	-2367
wich	-2368
FIG	-2369
▁wait	-2370
ification	-2371
integ	-2372
apacity	-2373
top	-2374
""	-2375
AVE	-2376
▁returned	-2377
Greenwich	-2378
SU	-2379
common	-2380
ched	-2381
▁AL	-2382
▁found	-2383
PG	-2384
rap	-2385
▁continue	-2386
oss	-2387
▁mode	-2388
Builder	-2389
CATE	-2390
________	-2391
&&	-2392
_)	-2393
ump	-2394
xd	-2395
▁update	-2396
Cache	-2397
met	-2398
root	-2399
lim	-2400
WIN	-2401
ish	-2402
Matcher	-2403
▁received	-2404
ava	-2405
eated	-2406
ailable	-2407
push	-2408
▁Create	-2409
▁dest	-2410
ility	-2411
sort	-2412
▁UT	-2413
▁arr	-2414
stats	-2415
RU	-2416
▁SET	-2417
AIN	-2418
COM	-2419
level	-2420
Metric	-2421
Catch	-2422
ONE	-2423
OUT	-2424
lps	-2425
Decode	-2426
▁see	-2427
sso	-2428
NAL	-2429
html	-2430
PREFIX	-2431
attribute	-2432
request	-2433
xf	-2434
▁transaction	-2435
>>	-2436
▁connection	-2437
SQLITE	-2438
cred	-2439
INDEX	-2440
Ac	-2441
▁aff	-2442
▁direct	-2443
IO	-2444
ral	-2445
FAULT	-2446
▁explicit	-2447
Comp	-2448
ces	-2449
Sp	-2450
ADD	-2451
sure	-2452
Try	-2453
▁just	-2454
coll	-2455
)](	-2456
ellps	-2457
▁command	-2458
untime	-2459
Default	-2460
▁cache	-2461
ixed	-2462
DULE	-2463
Arg	-2464
tribut	-2465
NUM	-2466
handler	-2467
▁PART	-2468
tm	-2469
LY	-2470
gorithm	-2471
CONFIG	-2472
▁success	-2473
With	-2474
second	-2475
Create	-2476
xA	-2477
attr	-2478
asting	-2479
close	-2480
header	-2481
LEN	-2482
▁group	-2483
xa	-2484
rank	-2485
seq	-2486
▁don	-2487
▁modify	-2488
tls	-2489
▁AB	-2490
▁specified	-2491
ROW	-2492
▁internal	-2493
WORD	-2494
imple	-2495
ustom	-2496
▁req	-2497
container	-2498
▁Note	-2499
▁Const	-2500
▁opt	-2501
▁der	-2502
ized	-2503
lection	-2504
▁own	-2505
ELEM	-2506
ud	-2507
ng	-2508
net	-2509
present	-2510
bb	-2511
▁storage	-2512
imum	-2513
mary	-2514
IES	-2515
NT	-2516
MIT	-2517
VAR	-2518
lin	-2519
▁begin	-2520
PR	-2521
UBLAS	-2522
(\	-2523
Const	-2524
interpre	-2525
▁>>	-2526
isModule	-2527
oot	-2528
Datum	-2529
istance	-2530
sz	-2531
usive	-2532
dec	-2533
idd	-2534
ox	-2535
tran	-2536
Longitude	-2537
!=	-2538
tract	-2539
▁tag	-2540
All	-2541
▁Inc	-2542
ices	-2543
VALUE	-2544
▁Comp	-2545
BER	-2546
▁required	-2547
TRY	-2548
ODE	-2549
▁two	-2550
PROJCS	-2551
ner	-2552
TABLE	-2553
▁ra	-2554
EL	-2555
▁pri	-2556
ugin	-2557
▁av	-2558
▁handler	-2559
Client	-2560
▁position	-2561
Le	-2562
andard	-2563
▁character	-2564
clu	-2565
connection	-2566
output	-2567
▁token	-2568
▁vec	-2569
MODULE	-2570
Row	-2571
▁dec	-2572
lower	-2573
cluding	-2574
eeded	-2575
route	-2576
OPT	-2577
▁XXH	-2578
Relation	-2579
sec	-2580
ithub	-2581
INFO	-2582
temp	-2583
NOEXCEPT	-2584
▁Iterator	-2585
QUAL	-2586
angu	-2587
graph	-2588
clear	-2589
So	-2590
limit	-2591
att	-2592
youtube	-2593
anguage	-2594
ATOR	-2595
▁build	-2596
▁*,	-2597
Valid	-2598
ways	-2599
▁pub	-2600
▁Open	-2601
crement	-2602
▁cons	-2603
connect	-2604
▁\"	-2605
support	-2606
json	-2607
constant	-2608
▁item	-2609
TAG	-2610
▁{"	-2611
REG	-2612
▁CURLcode	-2613
lice	-2614
equal	-2615
RIPT	-2616
racle	-2617
▁NDBT	-2618
Buf	-2619
ids	-2620
▁specific	-2621
WR	-2622
ategory	-2623
▁system	-2624
Inter	-2625
▁failed	-2626
xE	-2627
▁fields	-2628
▁diff	-2629
Up	-2630
FC	-2631
▁Oid	-2632
▁variable	-2633
append	-2634
SN	-2635
oth	-2636
▁Expr	-2637
▁obj	-2638
TryCatch	-2639
▁Oracle	-2640
stable	-2641
ored	-2642
▁types	-2643
▁action	-2644
backend	-2645
operator	-2646
▁zero	-2647
bin	-2648
github	-2649
imal	-2650
argv	-2651
LOCAL	-2652
FL	-2653
REPE	-2654
INCLUDED	-2655
da	-2656
LIB	-2657
rief	-2658
flat	-2659
\\	-2660
▁Rel	-2661
▁com	-2662
ariant	-2663
unique	-2664
Next	-2665
tup	-2666
tie	-2667
RETURN	-2668
thon	-2669
ency	-2670
▁condition	-2671
TRIB	-2672
body	-2673
ider	-2674
▁red	-2675
▁sequence	-2676
▁/*!	-2677
EXPORT	-2678
Al	-2679
)))	-2680
slot	-2681
AUX	-2682
ches	-2683
DATE	-2684
Pos	-2685
CONT	-2686
)->	-2687
brief	-2688
▁factor	-2689
keys	-2690
BaseField	-2691
<-	-2692
▁parameter	-2693
lit	-2694
REPEAT	-2695
ARGS	-2696
CONS	-2697
Part	-2698
▁ext	-2699
redicate	-2700
asio	-2701
▁RT	-2702
Path	-2703
rest	-2704
▁details	-2705
▁Def	-2706
metric	-2707
▁single	-2708
Method	-2709
▁GRPC	-2710
▁String	-2711
erenced	-2712
▁component	-2713
▁append	-2714
actory	-2715
▁elements	-2716
ASI	-2717
Match	-2718
▁Use	-2719
▁dict	-2720
PARSE	-2721
gno	-2722
▁parse	-2723
▁implementation	-2724
led	-2725
pack	-2726
lex	-2727
orter	-2728
watch	-2729
gist	-2730
Args	-2731
covery	-2732
values	-2733
DATA	-2734
Local	-2735
ertex	-2736
cpy	-2737
Limit	-2738
TIME	-2739
etch	-2740
▁cre	-2741
▁Value	-2742
▁partic	-2743
ob	-2744
BUF	-2745
mote	-2746
eature	-2747
▁Type	-2748
`.	-2749
annotations	-2750
META	-2751
hen	-2752
vious	-2753
▁An	-2754
▁left	-2755
oper	-2756
riend	-2757
▁corre	-2758
entials	-2759
help	-2760
vec	-2761
update	-2762
dict	-2763
StringView	-2764
▁additional	-2765
▁since	-2766
REQ	-2767
omic	-2768
require	-2769
NODE	-2770
Rule	-2771
her	-2772
▁Node	-2773
NS	-2774
▁look	-2775
VENT	-2776
tem	-2777
frag	-2778
ORING	-2779
▁At	-2780
sync	-2781
ams	-2782
ume	-2783
▁bound	-2784
build	-2785
cro	-2786
▁poss	-2787
▁pass	-2788
xds	-2789
MS	-2790
▁flat	-2791
▁useful	-2792
▁bet	-2793
iss	-2794
▁basic	-2795
ASIO	-2796
▁q	-2797
plus	-2798
ORINGSSL	-2799
▁partition	-2800
PROC	-2801
Offset	-2802
▁ereport	-2803
▁Tag	-2804
▁State	-2805
▁throw	-2806
types	-2807
ccur	-2808
▁wo	-2809
▁MySQL	-2810
▁above	-2811
NESS	-2812
▁temp	-2813
▁represent	-2814
uring	-2815
▁UErrorCode	-2816
INIT	-2817
Scale	-2818
pha	-2819
uth	-2820
Cur	-2821
▁MER	-2822
▁frag	-2823
▁Object	-2824
▁None	-2825
down	-2826
stmt	-2827
▁publ	-2828
▁level	-2829
obj	-2830
▁li	-2831
ECT	-2832
▁information	-2833
xb	-2834
XY	-2835
EQUAL	-2836
▁friend	-2837
▁Do	-2838
NoSub	-2839
▁callback	-2840
tmp	-2841
record	-2842
imer	-2843
▁now	-2844
▁tmp	-2845
▁https	-2846
))))))))	-2847
az	-2848
▁Mem	-2849
▁"$	-2850
▁relation	-2851
▁Sp	-2852
▁authors	-2853
channelz	-2854
▁equal	-2855
Exception	-2856
▁DO	-2857
▁rec	-2858
trace	-2859
plan	-2860
entifier	-2861
▁REDIS	-2862
stead	-2863
▁ER	-2864
_);	-2865
DD	-2866
▁works	-2867
left	-2868
ppend	-2869
▁CHAR	-2870
absl	-2871
ternal	-2872
isit	-2873
EE	-2874
ICODE	-2875
istribute	-2876
▁Key	-2877
wd	-2878
ili	-2879
MENT	-2880
xC	-2881
flow	-2882
▁open	-2883
lush	-2884
basic	-2885
allocator	-2886
▁would	-2887
vers	-2888
DescriptorProto	-2889
Bytes	-2890
Gener	-2891
dev	-2892
uff	-2893
apt	-2894
▁sort	-2895
BOOL	-2896
ua	-2897
NORM	-2898
THREAD	-2899
.,	-2900
Not	-2901
mall	-2902
aded	-2903
CHAR	-2904
FAIL	-2905
tected	-2906
▁CHECK	-2907
YSQL	-2908
expected	-2909
SUB	-2910
▁cf	-2911
▁errmsg	-2912
▁sz	-2913
ilename	-2914
▁particular	-2915
olyg	-2916
On	-2917
Obj	-2918
domain	-2919
TS	-2920
unit	-2921
ools	-2922
▁parent	-2923
dr	-2924
▁parallel	-2925
▁exec	-2926
||	-2927
BJ	-2928
COL	-2929
sizeof	-2930
▁Allocator	-2931
▁Point	-2932
perties	-2933
wgs	-2934
po	-2935
▁En	-2936
find	-2937
▁once	-2938
▁db	-2939
__)	-2940
▁unit	-2941
▁available	-2942
By	-2943
MPL	-2944
Input	-2945
▁execut	-2946
transport	-2947
ugh	-2948
▁store	-2949
xc	-2950
▁rule	-2951
Pl	-2952
dim	-2953
iate	-2954
nap	-2955
VALID	-2956
>=	-2957
▁Char	-2958
elemetry	-2959
▁info	-2960
CURL	-2961
ULAR	-2962
step	-2963
ANTY	-2964
▁TH	-2965
metre	-2966
▁WARRANTY	-2967
▁()	-2968
location	-2969
IZ	-2970
writ	-2971
▁done	-2972
▁space	-2973
filters	-2974
AA	-2975
EST	-2976
di	-2977
Reference	-2978
ASS	-2979
▁ID	-2980
parser	-2981
ression	-2982
print	-2983
now	-2984
▁OP	-2985
."	-2986
iler	-2987
bound	-2988
▁database	-2989
▁northing	-2990
OS	-2991
▁rhs	-2992
▁di	-2993
<>	-2994
EG	-2995
▁easting	-2996
fin	-2997
▁print	-2998
▁Time	-2999
mod	-3000
typ	-3001
Rout	-3002
▁needed	-3003
erent	-3004
callback	-3005
arge	-3006
▁descriptor	-3007
▁shared	-3008
▁##	-3009
ents	-3010
▁access	-3011
auto	-3012
▁json	-3013
NDB	-3014
ROP	-3015
chron	-3016
▁them	-3017
_|	-3018
▁UnicodeString	-3019
And	-3020
Unit	-3021
served	-3022
▁Ser	-3023
IP	-3024
▁bits	-3025
▁slot	-3026
▁API	-3027
▁distribution	-3028
▁ob	-3029
vided	-3030
BB	-3031
ILED	-3032
▁might	-3033
known	-3034
DEF	-3035
ulk	-3036
double	-3037
▁expected	-3038
rant	-3039
▁channel	-3040
▁referenced	-3041
Exp	-3042
Null	-3043
bind	-3044
IGN	-3045
▁ABSL	-3046
▁always	-3047
Var	-3048
▁evalu	-3049
dered	-3050
POSE	-3051
address	-3052
construct	-3053
▁sign	-3054
DEC	-3055
Source	-3056
ertain	-3057
alc	-3058
▁conn	-3059
ITNESS	-3060
ICULAR	-3061
▁join	-3062
▁FITNESS	-3063
ANTABILITY	-3064
▁PUR	-3065
▁MERCH	-3066
▁MERCHANTABILITY	-3067
rough	-3068
ERRCODE	-3069
dn	-3070
▁PARTICULAR	-3071
conds	-3072
▁could	-3073
▁PURPOSE	-3074
DEBUG	-3075
UND	-3076
roy	-3077
▁off	-3078
ANG	-3079
change	-3080
MIN	-3081
asure	-3082
▁*=	-3083
>;	-3084
▁assign	-3085
olicies	-3086
▁binary	-3087
tl	-3088
keep	-3089
utils	-3090
'::	-3091
▁certain	-3092
TOWGS	-3093
▁mp	-3094
method	-3095
Bool	-3096
parent	-3097
assign	-3098
▁&,	-3099
doc	-3100
lain	-3101
regex	-3102
olygon	-3103
gh	-3104
▁date	-3105
errcode	-3106
dpar	-3107
ops	-3108
NAMES	-3109
▁Error	-3110
ics	-3111
▁remove	-3112
xD	-3113
ird	-3114
FLAG	-3115
▁On	-3116
ope	-3117
▁sc	-3118
DECL	-3119
bt	-3120
PACE	-3121
schema	-3122
coder	-3123
METAPARSE	-3124
iu	-3125
ANGE	-3126
ens	-3127
FAILED	-3128
QC	-3129
stack	-3130
CA	-3131
interpret	-3132
▁geometry	-3133
ENUM	-3134
▁ALTER	-3135
▁float	-3136
▁contains	-3137
xe	-3138
Num	-3139
press	-3140
HEAD	-3141
Over	-3142
▁To	-3143
>:	-3144
Token	-3145
ynta	-3146
leted	-3147
Class	-3148
▁standard	-3149
▁affili	-3150
older	-3151
Pointer	-3152
▁Base	-3153
▁tree	-3154
Attr	-3155
interval	-3156
▁affiliates	-3157
▁dst	-3158
Filter	-3159
llation	-3160
▁pas	-3161
rapper	-3162
aa	-3163
proc	-3164
see	-3165
REE	-3166
▁such	-3167
QVM	-3168
BY	-3169
▁Index	-3170
loor	-3171
interp	-3172
alpha	-3173
SCRIPT	-3174
VC	-3175
reset	-3176
▁Invalid	-3177
Http	-3178
go	-3179
sequence	-3180
▁os	-3181
tributes	-3182
ENTRY	-3183
▁ec	-3184
▁multip	-3185
▁Data	-3186
▁He	-3187
IB	-3188
ween	-3189
TEM	-3190
REST	-3191
Reply	-3192
Connect	-3193
ORE	-3194
▁different	-3195
stall	-3196
▁"%	-3197
▁USE	-3198
ercator	-3199
▁example	-3200
▁container	-3201
enum	-3202
ido	-3203
▁eng	-3204
▁MA	-3205
▁Mercator	-3206
olat	-3207
Server	-3208
▁license	-3209
remove	-3210
Flags	-3211
Stmt	-3212
▁pair	-3213
Frag	-3214
fail	-3215
idth	-3216
collation	-3217
UC	-3218
Group	-3219
join	-3220
ivative	-3221
ions	-3222
testing	-3223
ITH	-3224
GETARG	-3225
▁failure	-3226
sing	-3227
▁second	-3228
▁endl	-3229
▁UNICODE	-3230
Cluster	-3231
VI	-3232
Cont	-3233
Write	-3234
▁OpenSSL	-3235
▁Add	-3236
limits	-3237
Option	-3238
ational	-3239
olatile	-3240
yntax	-3241
▁these	-3242
ifference	-3243
▁RealType	-3244
xB	-3245
▁'%	-3246
▁want	-3247
▁release	-3248
}},	-3249
IX	-3250
RS	-3251
▁sup	-3252
ily	-3253
ARN	-3254
rix	-3255
cert	-3256
▁COPY	-3257
GORY	-3258
Response	-3259
SIG	-3260
Function	-3261
'\	-3262
▁regist	-3263
shot	-3264
ki	-3265
▁}}	-3266
▁stack	-3267
Transverse	-3268
Back	-3269
▁parser	-3270
▁|=	-3271
▁Policy	-3272
▁invalid	-3273
fn	-3274
▁aux	-3275
undef	-3276
exception	-3277
mbers	-3278
Policy	-3279
NI	-3280
▁being	-3281
safe	-3282
▁root	-3283
▁along	-3284
pping	-3285
VIC	-3286
DA	-3287
NAMESPACE	-3288
CATEGORY	-3289
mark	-3290
rout	-3291
letion	-3292
▁pack	-3293
▁heap	-3294
------------	-3295
▁host	-3296
ually	-3297
argument	-3298
▁extension	-3299
▁port	-3300
▁warning	-3301
tt	-3302
termin	-3303
ATTRIB	-3304
Viu	-3305
▁provided	-3306
▁man	-3307
▁possible	-3308
session	-3309
▁expect	-3310
pragma	-3311
debug	-3312
ssoci	-3313
",-	-3314
Version	-3315
MAC	-3316
▁RedisModule	-3317
napshot	-3318
▁attr	-3319
▁otherwise	-3320
▁whether	-3321
DS	-3322
ialization	-3323
▁REDISMODULE	-3324
▁design	-3325
Idx	-3326
oolean	-3327
▁about	-3328
Do	-3329
---	-3330
~~~~	-3331
Command	-3332
term	-3333
MSC	-3334
ster	-3335
ough	-3336
▁within	-3337
▁builder	-3338
▁Field	-3339
ctions	-3340
xt	-3341
coded	-3342
ASK	-3343
scale	-3344
▁instead	-3345
ending	-3346
side	-3347
Pa	-3348
▁im	-3349
▁limited	-3350
INCLUDE	-3351
########	-3352
idden	-3353
▁LONG	-3354
Date	-3355
ALLOC	-3356
▁separately	-3357
xx	-3358
▁caller	-3359
▁socket	-3360
non	-3361
RST	-3362
STATE	-3363
▁integer	-3364
entelemetry	-3365
win	-3366
▁WITH	-3367
▁rout	-3368
including	-3369
ested	-3370
rb	-3371
▁All	-3372
▁occur	-3373
▁passed	-3374
▁>(	-3375
▁ver	-3376
heap	-3377
▁Graph	-3378
relation	-3379
▁Is	-3380
▁et	-3381
▁grant	-3382
Access	-3383
▁response	-3384
CF	-3385
▁derivative	-3386
▁SY	-3387
round	-3388
Free	-3389
ulate	-3390
▁both	-3391
MT	-3392
aster	-3393
▁pattern	-3394
rv	-3395
▁flag	-3396
▁address	-3397
▁cannot	-3398
▁stored	-3399
convert	-3400
▁Out	-3401
BACK	-3402
▁designed	-3403
igit	-3404
FORCE	-3405
▁protocol	-3406
Non	-3407
▁\"%	-3408
admin	-3409
▁multi	-3410
seto	-3411
License	-3412
FIRST	-3413
wh	-3414
▁Tcl	-3415
Send	-3416
▁USA	-3417
lable	-3418
Service	-3419
EW	-3420
MID	-3421
indows	-3422
verter	-3423
optional	-3424
▁previous	-3425
unter	-3426
An	-3427
▁loop	-3428
▁ERROR	-3429
aw	-3430
▁avoid	-3431
``	-3432
▁When	-3433
INTERNAL	-3434
▁clause	-3435
▁session	-3436
DER	-3437
gm	-3438
DEFAULT	-3439
▁between	-3440
▁library	-3441
▁Memory	-3442
arr	-3443
MAKE	-3444
▁Frank	-3445
Clear	-3446
Bits	-3447
▁published	-3448
▁except	-3449
,"	-3450
▁hope	-3451
ered	-3452
BIN	-3453
HTTP	-3454
agg	-3455
params	-3456
post	-3457
▁JSON	-3458
cope	-3459
zero	-3460
▁printf	-3461
USED	-3462
onth	-3463
pk	-3464
prior	-3465
▁ECP	-3466
▁hereby	-3467
Slot	-3468
rict	-3469
proxy	-3470
pass	-3471
only	-3472
▁curlx	-3473
▁beh	-3474
▁ECPG	-3475
▁timeout	-3476
REAM	-3477
Dis	-3478
MB	-3479
throw	-3480
▁redistribute	-3481
▁total	-3482
xFB	-3483
▁gu	-3484
Fast	-3485
ifth	-3486
WN	-3487
irit	-3488
▁Max	-3489
ATH	-3490
SPIR	-3491
▁like	-3492
<<	-3493
vertex	-3494
SPIRIT	-3495
▁step	-3496
▁Trans	-3497
▁warran	-3498
Seg	-3499
▁cmp	-3500
▁until	-3501
▁language	-3502
JSON	-3503
▁queue	-3504
▁global	-3505
CONF	-3506
▁warranty	-3507
category	-3508
▁segment	-3509
ape	-3510
▁depend	-3511
fc	-3512
mutable	-3513
dst	-3514
ilt	-3515
party	-3516
▁our	-3517
command	-3518
Man	-3519
▁Tuple	-3520
▁MAX	-3521
fun	-3522
▁Fifth	-3523
dynamic	-3524
▁Floor	-3525
oston	-3526
▁Args	-3527
Text	-3528
priv	-3529
▁invo	-3530
▁Franklin	-3531
▁Boston	-3532
▁Exec	-3533
▁role	-3534
search	-3535
▁arguments	-3536
▁conf	-3537
si	-3538
MASK	-3539
▁;	-3540
metrics	-3541
▁```	-3542
FAILURE	-3543
▁form	-3544
▁System	-3545
rvalue	-3546
inc	-3547
▁cl	-3548
serv	-3549
TYP	-3550
▁nodes	-3551
las	-3552
ging	-3553
▁perform	-3554
nodes	-3555
Red	-3556
"),	-3557
yle	-3558
▁files	-3559
▁designated	-3560
ACH	-3561
Max	-3562
compare	-3563
dedu	-3564
▁search	-3565
Metadata	-3566
ged	-3567
Item	-3568
processor	-3569
▁macro	-3570
Connection	-3571
rt	-3572
"},	-3573
▁tab	-3574
▁('	-3575
LOW	-3576
▁Local	-3577
▁take	-3578
▁again	-3579
keyword	-3580
pop	-3581
MD	-3582
▁during	-3583
Handle	-3584
ancel	-3585
mise	-3586
uilt	-3587
partition	-3588
clean	-3589
▁operations	-3590
ostream	-3591
unicode	-3592
validate	-3593
▁ph	-3594
OMIC	-3595
AME	-3596
▁igno	-3597
policy	-3598
▁Log	-3599
ATTRIBUTE	-3600
integral	-3601
Err	-3602
▁means	-3603
▁allocator	-3604
STREAM	-3605
▁structure	-3606
Conf	-3607
FR	-3608
Sequence	-3609
▁idx	-3610
place	-3611
gorithms	-3612
▁view	-3613
▁expr	-3614
ormal	-3615
Strong	-3616
select	-3617
▁AR	-3618
NC	-3619
bor	-3620
*>(	-3621
&)	-3622
▁load	-3623
VARI	-3624
▁PROTO	-3625
▁attribute	-3626
df	-3627
▁RETURN	-3628
▁Other	-3629
endpoint	-3630
▁env	-3631
bucket	-3632
▁ndbrequire	-3633
▁SSL	-3634
▁Geometry	-3635
▁SO	-3636
conf	-3637
▁rest	-3638
regist	-3639
Comple	-3640
▁memcpy	-3641
digits	-3642
FORM	-3643
Lite	-3644
BJECT	-3645
ANTIES	-3646
▁WARRANTIES	-3647
sd	-3648
ificate	-3649
)(&	-3650
&,	-3651
Memory	-3652
SRC	-3653
cy	-3654
lper	-3655
towgs	-3656
DING	-3657
▁Init	-3658
▁rows	-3659
property	-3660
IRE	-3661
cv	-3662
▁reinterpret	-3663
Regist	-3664
▁columns	-3665
▁keep	-3666
▁Tr	-3667
cing	-3668
FB	-3669
au	-3670
▁DEBUG	-3671
clusive	-3672
▁skip	-3673
▁acc	-3674
loaded	-3675
nullptr	-3676
▁NdbDictionary	-3677
deduction	-3678
▁what	-3679
resource	-3680
▁constraint	-3681
IVE	-3682
ALSE	-3683
GetDatum	-3684
▁reset	-3685
decl	-3686
theData	-3687
▁>,	-3688
malloc	-3689
video	-3690
▁keys	-3691
ffect	-3692
elements	-3693
▁full	-3694
same	-3695
▁most	-3696
▁remain	-3697
▁FUNCTION	-3698
▁main	-3699
peri	-3700
▁SP	-3701
arena	-3702
timeout	-3703
vider	-3704
▁Q	-3705
▁characters	-3706
Func	-3707
▁created	-3708
anged	-3709
>)	-3710
ARRAY	-3711
izer	-3712
_->	-3713
Fields	-3714
Element	-3715
align	-3716
▁Relation	-3717
▁close	-3718
▁mark	-3719
StrongReference	-3720
prefix	-3721
▁interval	-3722
▁<>	-3723
dbe	-3724
---------	-3725
INVALID	-3726
▁PL	-3727
Geometry	-3728
▁Input	-3729
▁disc	-3730
▁ul	-3731
ynchron	-3732
reed	-3733
MAP	-3734
Dict	-3735
ront	-3736
▁Exp	-3737
sock	-3738
▁prefix	-3739
plugin	-3740
▁exit	-3741
▁scal	-3742
▁Call	-3743
▁er	-3744
CALL	-3745
Te	-3746
▁locale	-3747
BO	-3748
pare	-3749
strument	-3750
zone	-3751
Load	-3752
ATA	-3753
ever	-3754
Api	-3755
▁'_	-3756
ines	-3757
Copy	-3758
▁Class	-3759
mediate	-3760
gress	-3761
Action	-3762
▁So	-3763
▁seq	-3764
ason	-3765
kind	-3766
cost	-3767
database	-3768
irection	-3769
▁am	-3770
▁still	-3771
▁ok	-3772
That	-3773
RENT	-3774
This	-3775
Protocol	-3776
▁nil	-3777
builder	-3778
▁Table	-3779
▁metadata	-3780
/*	-3781
▁typ	-3782
▁ca	-3783
▁})	-3784
▁fiber	-3785
`,	-3786
▁Tra	-3787
executor	-3788
anner	-3789
play	-3790
▁"""	-3791
MACRO	-3792
alf	-3793
':	-3794
hidden	-3795
▁fore	-3796
▁strategy	-3797
Per	-3798
apTuple	-3799
compress	-3800
tmerc	-3801
▁later	-3802
ATOMIC	-3803
cmd	-3804
▁report	-3805
▁through	-3806
POINT	-3807
▁Size	-3808
uct	-3809
.)	-3810
GRS	-3811
olve	-3812
duce	-3813
PROCESS	-3814
CI	-3815
▁unique	-3816
UE	-3817
instance	-3818
▁protected	-3819
utdown	-3820
▁IF	-3821
▁clean	-3822
lem	-3823
Thread	-3824
▁edge	-3825
▁merge	-3826
▁fprintf	-3827
sa	-3828
COMPAT	-3829
▁names	-3830
▁too	-3831
MOVE	-3832
blob	-3833
SOCK	-3834
▁initial	-3835
kely	-3836
▁',	-3837
ically	-3838
credentials	-3839
▁how	-3840
Build	-3841
clo	-3842
cryp	-3843
▁Jim	-3844
Types	-3845
algorithm	-3846
commit	-3847
▁LI	-3848
▁-=	-3849
▁TR	-3850
LECT	-3851
here	-3852
▁connect	-3853
▁objects	-3854
▁parameters	-3855
ordinal	-3856
▁constructor	-3857
entity	-3858
▁elog	-3859
▁cases	-3860
Output	-3861
xff	-3862
aniel	-3863
setopt	-3864
Manager	-3865
prev	-3866
raw	-3867
▁written	-3868
uture	-3869
============	-3870
ias	-3871
Traits	-3872
▁pages	-3873
▁resp	-3874
module	-3875
BUIL	-3876
▁multiple	-3877
DESCRIPT	-3878
▁'/	-3879
IMPL	-3880
manager	-3881
▁tests	-3882
Property	-3883
▁conditions	-3884
▁save	-3885
APH	-3886
▁SH	-3887
ings	-3888
Instance	-3889
▁Action	-3890
▁associ	-3891
TRAN	-3892
▁generated	-3893
private	-3894
▁fp	-3895
velo	-3896
LETE	-3897
{}	-3898
Has	-3899
▁traits	-3900
▁buffers	-3901
protocol	-3902
WA	-3903
Double	-3904
done	-3905
▁chunk	-3906
▁extra	-3907
▁Back	-3908
ote	-3909
One	-3910
uz	-3911
SELECT	-3912
=%	-3913
datum	-3914
ootst	-3915
Env	-3916
LOAT	-3917
eed	-3918
▁move	-3919
SS	-3920
iteral	-3921
fr	-3922
▁PROTOBUF	-3923
atomic	-3924
▁UP	-3925
▁HAVE	-3926
▁throws	-3927
DESCRIPTOR	-3928
tbl	-3929
▁ass	-3930
cleanup	-3931
cessed	-3932
▁constant	-3933
WRITE	-3934
▁interface	-3935
Route	-3936
▁plan	-3937
▁original	-3938
URL	-3939
************	-3940
▁assertThat	-3941
▁head	-3942
StringInfo	-3943
war	-3944
▁never	-3945
AF	-3946
evalu	-3947
▁allocated	-3948
SOUR	-3949
condition	-3950
*,	-3951
cor	-3952
control	-3953
▁GSN	-3954
▁validate	-3955
▁DROP	-3956
chunk	-3957
▁generate	-3958
▁ndbout	-3959
Unicode	-3960
ATCH	-3961
////////////	-3962
Pattern	-3963
pn	-3964
▁normal	-3965
ICAL	-3966
▁ed	-3967
gest	-3968
ordered	-3969
strategy	-3970
▁bind	-3971
INSERT	-3972
▁fido	-3973
Level	-3974
ootstrap	-3975
▁supported	-3976
▁io	-3977
▁native	-3978
ood	-3979
▁regex	-3980
master	-3981
listener	-3982
Generic	-3983
APP	-3984
ison	-3985
▁ut	-3986
▁prev	-3987
(-	-3988
dup	-3989
lict	-3990
▁],	-3991
nv	-3992
itive	-3993
▁Col	-3994
▁sent	-3995
Flag	-3996
example	-3997
NONE	-3998
My	-3999
active	-4000
▁Read	-4001
nodb	-4002
▁graph	-4003
segment	-4004
ENC	-4005
▁Proto	-4006
▁doesn	-4007
▁writing	-4008
ython	-4009
CB	-4010
ni	-4011
RICT	-4012
qh	-4013
Bit	-4014
)>	-4015
datetime	-4016
sm	-4017
▁exception	-4018
Loc	-4019
Real	-4020
SUPP	-4021
ym	-4022
quival	-4023
▁Construct	-4024
CREATE	-4025
▁entries	-4026
opentelemetry	-4027
multiprecision	-4028
ROUP	-4029
cho	-4030
▁Sub	-4031
eq	-4032
resh	-4033
▁cluster	-4034
TLS	-4035
Schema	-4036
UNT	-4037
Open	-4038
VICE	-4039
flag	-4040
sel	-4041
▁KIND	-4042
▁backend	-4043
Lab	-4044
▁happ	-4045
▁filter	-4046
getNdb	-4047
▁short	-4048
▁provide	-4049
meta	-4050
grs	-4051
▁Scan	-4052
▁ensure	-4053
▁dynamic	-4054
The	-4055
TEMPL	-4056
iling	-4057
leep	-4058
▁RO	-4059
▁'_',	-4060
AE	-4061
cop	-4062
foo	-4063
▁Number	-4064
▁convert	-4065
hook	-4066
▁PFS	-4067
▁compiler	-4068
▁DWORD	-4069
romise	-4070
BIT	-4071
▁gRPC	-4072
Callback	-4073
endcode	-4074
▁small	-4075
ability	-4076
▁express	-4077
ended	-4078
▁statement	-4079
depend	-4080
▁tables	-4081
bs	-4082
tid	-4083
▁least	-4084
LOB	-4085
▁volatile	-4086
▁Ge	-4087
▁sql	-4088
OFF	-4089
neg	-4090
names	-4091
section	-4092
cnt	-4093
UG	-4094
▁module	-4095
BEGIN	-4096
Logger	-4097
ination	-4098
SIVE	-4099
▁neg	-4100
sk	-4101
ookie	-4102
IsValid	-4103
Line	-4104
▁pres	-4105
MEMORY	-4106
frame	-4107
delete	-4108
▁way	-4109
inate	-4110
ker	-4111
FFER	-4112
▁pragma	-4113
oop	-4114
▁correct	-4115
ummy	-4116
▁compar	-4117
ins	-4118
▁property	-4119
▁async	-4120
▁align	-4121
▁Per	-4122
Rules	-4123
apply	-4124
SED	-4125
atible	-4126
▁",	-4127
▁File	-4128
generation	-4129
release	-4130
▁errors	-4131
▁TRU	-4132
total	-4133
▁'(	-4134
RecPtr	-4135
distance	-4136
/"	-4137
▁sure	-4138
▁sum	-4139
endar	-4140
install	-4141
▁strings	-4142
Own	-4143
Zone	-4144
First	-4145
▁less	-4146
card	-4147
async	-4148
Repeated	-4149
▁word	-4150
swap	-4151
▁replace	-4152
ARD	-4153
Find	-4154
▁calls	-4155
▁Output	-4156
▁vertex	-4157
▁utf	-4158
________________	-4159
LIMIT	-4160
Sec	-4161
network	-4162
▁frame	-4163
▁DB	-4164
▁Message	-4165
lc	-4166
FLOAT	-4167
▁another	-4168
CLASS	-4169
binary	-4170
lots	-4171
_[	-4172
▁att	-4173
▁every	-4174
▁resource	-4175
DR	-4176
gg	-4177
▁param	-4178
aries	-4179
▁MYSQL	-4180
▁MemoryContext	-4181
▁TRUE	-4182
▁mask	-4183
preprocessor	-4184
▁compare	-4185
▁modified	-4186
Resource	-4187
▁below	-4188
▁###	-4189
CASE	-4190
epsg	-4191
DefPool	-4192
▁modification	-4193
▁Ad	-4194
▁dist	-4195
FORCEINLINE	-4196
▁disable	-4197
▁subject	-4198
PORT	-4199
fiber	-4200
▁service	-4201
rd	-4202
▁LO	-4203
▁clear	-4204
▁lp	-4205
diff	-4206
▁Db	-4207
XYGEN	-4208
reater	-4209
▁abort	-4210
▁common	-4211
errorCode	-4212
aux	-4213
▁Config	-4214
RL	-4215
leg	-4216
▁uses	-4217
GENER	-4218
precated	-4219
pages	-4220
▁calc	-4221
RT	-4222
▁EN	-4223
▁mutex	-4224
late	-4225
▁cmd	-4226
ton	-4227
Internal	-4228
cons	-4229
meter	-4230
UTF	-4231
EVENT	-4232
ssh	-4233
▁associated	-4234
LIENT	-4235
just	-4236
mbda	-4237
CORE	-4238
▁tre	-4239
ibility	-4240
▁copyright	-4241
MSVC	-4242
▁mo	-4243
nel	-4244
lcp	-4245
import	-4246
▁indic	-4247
▁UPDATE	-4248
retval	-4249
ARCH	-4250
CMAKE	-4251
ressed	-4252
clause	-4253
operation	-4254
teger	-4255
OIN	-4256
Release	-4257
alendar	-4258
Counter	-4259
▁clo	-4260
sv	-4261
alth	-4262
Append	-4263
Bound	-4264
▁place	-4265
▁Sh	-4266
▁[[	-4267
▁ORDER	-4268
CD	-4269
ializer	-4270
tep	-4271
▁PRI	-4272
Body	-4273
▁tup	-4274
OVER	-4275
fast	-4276
extra	-4277
("%	-4278
istent	-4279
▁added	-4280
Pre	-4281
avi	-4282
amily	-4283
▁schema	-4284
Mutex	-4285
Compare	-4286
runtime	-4287
▁commit	-4288
▁tri	-4289
▁drop	-4290
▁ARC	-4291
FORMAT	-4292
Parallel	-4293
▁Forward	-4294
▁allowed	-4295
GTH	-4296
Delete	-4297
idi	-4298
▁actual	-4299
▁their	-4300
▁changes	-4301
▁net	-4302
▁lower	-4303
"))	-4304
SUPPORT	-4305
▁Reference	-4306
COPY	-4307
▁Json	-4308
▁obtain	-4309
SOURCE	-4310
LOT	-4311
ATED	-4312
response	-4313
transaction	-4314
uffix	-4315
OPTION	-4316
Update	-4317
ount	-4318
stderr	-4319
▁results	-4320
Case	-4321
▁post	-4322
direct	-4323
Container	-4324
variable	-4325
poll	-4326
upper	-4327
".	-4328
MATCH	-4329
▁integral	-4330
▁upper	-4331
▁Format	-4332
formed	-4333
▁KE	-4334
timestamp	-4335
ACT	-4336
component	-4337
▁agg	-4338
relid	-4339
Capacity	-4340
REQU	-4341
▁HTTP	-4342
LENGTH	-4343
BLOCK	-4344
final	-4345
BORINGSSL	-4346
▁lua	-4347
▁Java	-4348
holder	-4349
▁fin	-4350
namespace	-4351
ract	-4352
IALIZ	-4353
Insert	-4354
cd	-4355
▁@@	-4356
▁large	-4357
▁prior	-4358
▁Server	-4359
elif	-4360
spirit	-4361
ertificate	-4362
Predicate	-4363
]]	-4364
**********	-4365
gn	-4366
▁XLog	-4367
▁notice	-4368
▁cmpp	-4369
DISABLE	-4370
▁permissions	-4371
${	-4372
gu	-4373
Util	-4374
adapt	-4375
▁Default	-4376
▁First	-4377
RESS	-4378
ures	-4379
▁high	-4380
sn	-4381
ISTER	-4382
ather	-4383
Attribute	-4384
▁[],	-4385
variant	-4386
Grpc	-4387
initable	-4388
▁sig	-4389
ERO	-4390
▁Buffer	-4391
coped	-4392
TRIV	-4393
TRIVIAL	-4394
trie	-4395
minitable	-4396
Decoder	-4397
▁Page	-4398
ness	-4399
-.	-4400
Run	-4401
Mask	-4402
▁qvm	-4403
▁setting	-4404
▁BORINGSSL	-4405
lta	-4406
▁bucket	-4407
▁needs	-4408
▁via	-4409
ivity	-4410
Param	-4411
Empty	-4412
Address	-4413
MULT	-4414
▁down	-4415
▁GET	-4416
>()	-4417
MALL	-4418
▁phoenix	-4419
CURRENT	-4420
filename	-4421
▁Inter	-4422
disable	-4423
▁top	-4424
DITION	-4425
▁appro	-4426
▁sds	-4427
innodb	-4428
pth	-4429
▁meta	-4430
.\	-4431
▁Name	-4432
▁those	-4433
dated	-4434
▁palloc	-4435
sender	-4436
▁forward	-4437
Identifier	-4438
Socket	-4439
▁fts	-4440
▁push	-4441
▁FALSE	-4442
HAND	-4443
▁fd	-4444
LONG	-4445
rate	-4446
▁Range	-4447
EB	-4448
▁OUT	-4449
▁&>::	-4450
NUMBER	-4451
▁stats	-4452
Allocator	-4453
orth	-4454
moved	-4455
Mutable	-4456
ITAL	-4457
ante	-4458
PATH	-4459
▁termin	-4460
▁est	-4461
▁describ	-4462
acc	-4463
▁messages	-4464
isitor	-4465
▁New	-4466
Del	-4467
Factory	-4468
DEP	-4469
SPEC	-4470
▁loc	-4471
▁applic	-4472
▁Otherwise	-4473
Process	-4474
Channel	-4475
▁complete	-4476
PARAMS	-4477
router	-4478
reverse	-4479
Registry	-4480
▁tuples	-4481
integer	-4482
acu	-4483
UMENT	-4484
curity	-4485
Commit	-4486
▁necess	-4487
▁ent	-4488
hi	-4489
imension	-4490
GRPC	-4491
▁COL	-4492
▁UTM	-4493
▁compl	-4494
▁Block	-4495
origin	-4496
STEM	-4497
▁points	-4498
Sto	-4499
ACC	-4500
__,	-4501
▁pop	-4502
invalid	-4503
ives	-4504
▁maximum	-4505
▁containing	-4506
▁"\	-4507
locale	-4508
parameter	-4509
▁&>(	-4510
symbol	-4511
recv	-4512
catalog	-4513
▁tempor	-4514
Pr	-4515
skip	-4516
lementation	-4517
HEADER	-4518
PTR	-4519
velop	-4520
rusive	-4521
front	-4522
▁lookup	-4523
UInt	-4524
▁know	-4525
arter	-4526
rw	-4527
initial	-4528
▁/**/	-4529
▁Int	-4530
box	-4531
▁put	-4532
▁TEST	-4533
accesslog	-4534
▁---	-4535
▁PAR	-4536
▁Stat	-4537
licen	-4538
▁And	-4539
serve	-4540
Target	-4541
▁existing	-4542
.",	-4543
fmt	-4544
lica	-4545
PS	-4546
je	-4547
tack	-4548
▁execution	-4549
constants	-4550
RANGE	-4551
▁exists	-4552
▁directory	-4553
▁^	-4554
helper	-4555
inu	-4556
icro	-4557
tsdn	-4558
items	-4559
▁trigger	-4560
DF	-4561
Blob	-4562
iver	-4563
trait	-4564
real	-4565
▁random	-4566
▁accept	-4567
▁cursor	-4568
ayload	-4569
AV	-4570
Src	-4571
Duration	-4572
▁[]	-4573
concept	-4574
BINARY	-4575
ev	-4576
OBJECT	-4577
PH	-4578
Nodes	-4579
WITH	-4580
UBLIC	-4581
python	-4582
;<	-4583
▁low	-4584
SHA	-4585
getNdbError	-4586
▁Google	-4587
dx	-4588
DIRE	-4589
arante	-4590
fp	-4591
PART	-4592
▁currently	-4593
td	-4594
after	-4595
▁'/',	-4596
promise	-4597
▁argv	-4598
▁debug	-4599
▁conversion	-4600
NodeId	-4601
rong	-4602
▁UTF	-4603
▁safe	-4604
eek	-4605
acuum	-4606
▁yet	-4607
assertEqual	-4608
▁(__	-4609
Current	-4610
ring	-4611
SING	-4612
compute	-4613
▁many	-4614
OPEN	-4615
▁successful	-4616
NECT	-4617
home	-4618
▁were	-4619
▁digits	-4620
ONLY	-4621
rhs	-4622
DEFINE	-4623
ivers	-4624
THER	-4625
ullable	-4626
▁real	-4627
BUFFER	-4628
▁Not	-4629
LD	-4630
▁CAP	-4631
DataPtr	-4632
forms	-4633
STATUS	-4634
▁Result	-4635
strcmp	-4636
pache	-4637
Struct	-4638
ns	-4639
slice	-4640
▁/>	-4641
SOCKET	-4642
▁who	-4643
▁UBool	-4644
Cell	-4645
▁Make	-4646
Stats	-4647
btree	-4648
▁numeric	-4649
ota	-4650
pub	-4651
▁execute	-4652
br	-4653
PAGE	-4654
▁KEY	-4655
▁reason	-4656
likely	-4657
gramm	-4658
::*	-4659
ipe	-4660
Hel	-4661
osite	-4662
BUILD	-4663
▁Comm	-4664
quivalent	-4665
▁correspon	-4666
▁These	-4667
isto	-4668
abs	-4669
Step	-4670
duration	-4671
cent	-4672
Last	-4673
found	-4674
▁optional	-4675
seg	-4676
SERVICE	-4677
▁Apache	-4678
▁"/	-4679
VERSE	-4680
▁outer	-4681
REP	-4682
Gen	-4683
▁sec	-4684
CHEM	-4685
▁Parse	-4686
▁requires	-4687
▁Sign	-4688
▁cr	-4689
▁Port	-4690
▁DEFAULT	-4691
IZE	-4692
STER	-4693
▁CT	-4694
▁&_	-4695
▁pol	-4696
bers	-4697
If	-4698
WARN	-4699
▁based	-4700
Params	-4701
poly	-4702
▁ident	-4703
Section	-4704
▁directly	-4705
Seq	-4706
allow	-4707
ExtensionField	-4708
Ter	-4709
▁LCP	-4710
Ext	-4711
=============	-4712
True	-4713
▁domain	-4714
User	-4715
Invalid	-4716
CONTAIN	-4717
▁xds	-4718
repeated	-4719
▁records	-4720
umed	-4721
Session	-4722
▁IO	-4723
tools	-4724
▁Attribute	-4725
eb	-4726
DIRECT	-4727
lsn	-4728
jtie	-4729
▁guarante	-4730
full	-4731
ication	-4732
))))))))))))))))	-4733
patch	-4734
bra	-4735
System	-4736
Vdbe	-4737
unused	-4738
orm	-4739
▁matches	-4740
ClearBaseField	-4741
▁("	-4742
▁ge	-4743
▁Real	-4744
PLIT	-4745
▁Function	-4746
ities	-4747
▁'(',	-4748
SIGN	-4749
TAB	-4750
ftp	-4751
avior	-4752
ulation	-4753
REL	-4754
▁recur	-4755
▁algorithm	-4756
zy	-4757
▁VAR	-4758
▁Post	-4759
()));	-4760
▁Group	-4761
INC	-4762
▁handl	-4763
▁LIM	-4764
TRACT	-4765
▁DBUG	-4766
▁inner	-4767
▁boolean	-4768
mult	-4769
▁Or	-4770
BASE	-4771
REGISTER	-4772
HASH	-4773
Work	-4774
▁argc	-4775
tz	-4776
WAIT	-4777
exit	-4778
▁NIL	-4779
▁overflow	-4780
COUNT	-4781
reader	-4782
MON	-4783
periment	-4784
MSG	-4785
gcp	-4786
dyn	-4787
Trigger	-4788
...)	-4789
▁memset	-4790
alan	-4791
QUE	-4792
Domain	-4793
istogram	-4794
topic	-4795
cat	-4796
Spec	-4797
▁LIMIT	-4798
istics	-4799
amb	-4800
look	-4801
="/"	-4802
Opt	-4803
installdir	-4804
▁baseinstalldir	-4805
fa	-4806
▁active	-4807
▁Up	-4808
NoError	-4809
pattern	-4810
lier	-4811
sockets	-4812
way	-4813
ze	-4814
lied	-4815
Override	-4816
ssoc	-4817
▁nothing	-4818
▁Licensed	-4819
lasses	-4820
MUT	-4821
fl	-4822
▁strlen	-4823
ONT	-4824
▁collation	-4825
Sql	-4826
DX	-4827
tains	-4828
--;	-4829
)\	-4830
Ok	-4831
NIEnv	-4832
herit	-4833
▁Source	-4834
▁encoding	-4835
increment	-4836
EMP	-4837
>();	-4838
)',	-4839
ln	-4840
algorithms	-4841
ancellation	-4842
▁EV	-4843
▁inst	-4844
▁immediate	-4845
distribution	-4846
▁sur	-4847
imate	-4848
▁COMP	-4849
▁sock	-4850
gre	-4851
tained	-4852
▁variant	-4853
BAD	-4854
▁$$	-4855
▁*);	-4856
latform	-4857
▁exact	-4858
▁WH	-4859
interface	-4860
wal	-4861
▁custom	-4862
▁enough	-4863
THROW	-4864
CAT	-4865
Return	-4866
UF	-4867
▁Ac	-4868
UNC	-4869
Digits	-4870
initialized	-4871
▁Start	-4872
flush	-4873
▁How	-4874
encoding	-4875
googletest	-4876
SCAN	-4877
andsh	-4878
POL	-4879
Fail	-4880
▁raw	-4881
▁compli	-4882
()))	-4883
details	-4884
Sw	-4885
ai	-4886
──	-4887
ceed	-4888
tests	-4889
▁atomic	-4890
redis	-4891
▁addr	-4892
▁errorCode	-4893
description	-4894
ATIN	-4895
Tree	-4896
icient	-4897
▁CAPITAL	-4898
{"	-4899
hip	-4900
zer	-4901
▁Traits	-4902
▁cbor	-4903
GER	-4904
▁applicable	-4905
Feature	-4906
wrapper	-4907
WS	-4908
▁permit	-4909
▁Dis	-4910
▁Exception	-4911
▁gover	-4912
cxt	-4913
Failed	-4914
licenses	-4915
▁Global	-4916
random	-4917
utility	-4918
posix	-4919
syntax	-4920
]->	-4921
▁Min	-4922
▁extract	-4923
CONTAINER	-4924
][	-4925
YPE	-4926
execute	-4927
▁There	-4928
ndbapi	-4929
pParse	-4930
tparam	-4931
▁ip	-4932
ORS	-4933
MYSQL	-4934
third	-4935
lector	-4936
LOAD	-4937
▁Redistribution	-4938
assoc	-4939
xid	-4940
Wait	-4941
▁content	-4942
ALLE	-4943
EF	-4944
Host	-4945
ists	-4946
▁(_	-4947
▁greater	-4948
curr	-4949
chive	-4950
reply	-4951
protoc	-4952
▁WAL	-4953
▁determ	-4954
▁libcurl	-4955
▁Try	-4956
Us	-4957
▁redis	-4958
LIN	-4959
ae	-4960
ransp	-4961
track	-4962
▁difference	-4963
▁proxy	-4964
merge	-4965
▁primary	-4966
▁"-	-4967
▁OFF	-4968
BA	-4969
cplus	-4970
▁calling	-4971
▁UINT	-4972
DC	-4973
none	-4974
TEMPLATE	-4975
▁Auth	-4976
cplusplus	-4977
▁</	-4978
SPLIT	-4979
▁control	-4980
lap	-4981
_/	-4982
dist	-4983
Json	-4984
▁Map	-4985
written	-4986
▁malloc	-4987
points	-4988
▁third	-4989
▁special	-4990
tsd	-4991
pared	-4992
raction	-4993
iron	-4994
▁Byte	-4995
▁necessary	-4996
cheme	-4997
CAPI	-4998
ELD	-4999
WARE	-5000
../	-5001
▁"${	-5002
BL	-5003
ovo	-5004
▁tools	-5005
▁UChar	-5006
ruction	-5007
mgm	-5008
mgr	-5009
Xact	-5010
parallel	-5011
buffers	-5012
allocate	-5013
uid	-5014
aved	-5015
allback	-5016
grade	-5017
▁TODO	-5018
▁location	-5019
lying	-5020
▁reverse	-5021
redentials	-5022
▁SMALL	-5023
▁transfer	-5024
ARED	-5025
MBOL	-5026
Pulk	-5027
Pulkovo	-5028
REVERSE	-5029
dpa	-5030
▁Desc	-5031
▁section	-5032
▁side	-5033
▁OK	-5034
Form	-5035
archive	-5036
pending	-5037
apache	-5038
▁slice	-5039
Locale	-5040
bar	-5041
mant	-5042
▁{@	-5043
normal	-5044
orld	-5045
cursor	-5046
▁weight	-5047
▁threads	-5048
width	-5049
regate	-5050
▁methods	-5051
▁());	-5052
▁Example	-5053
ynchronous	-5054
setup	-5055
mut	-5056
▁fill	-5057
complete	-5058
Proc	-5059
supported	-5060
▁regress	-5061
▁TLS	-5062
weight	-5063
Word	-5064
rece	-5065
▁optim	-5066
abort	-5067
capacity	-5068
▁END	-5069
▁sets	-5070
▁Write	-5071
Vector	-5072
▁running	-5073
SYSTEM	-5074
It	-5075
▁well	-5076
▁pool	-5077
encies	-5078
insertion	-5079
generated	-5080
ORK	-5081
▁lhs	-5082
Values	-5083
▁ignore	-5084
"));	-5085
▁lat	-5086
erred	-5087
TransactionId	-5088
Ab	-5089
▁label	-5090
Dest	-5091
rays	-5092
comment	-5093
▁COM	-5094
intrusive	-5095
()).	-5096
itle	-5097
TRACE	-5098
DITIONS	-5099
members	-5100
Res	-5101
TEXT	-5102
peer	-5103
inct	-5104
note	-5105
▁pers	-5106
HAVE	-5107
ffff	-5108
▁prec	-5109
▁split	-5110
cpu	-5111
Constraint	-5112
▁day	-5113
tcp	-5114
▁super	-5115
▁did	-5116
▁Unless	-5117
▁Oper	-5118
cstd	-5119
▁present	-5120
argc	-5121
Multi	-5122
//////////////	-5123
HOD	-5124
▁Hash	-5125
Reader	-5126
elem	-5127
xity	-5128
▁Jo	-5129
ERIC	-5130
CCESS	-5131
ndbjtie	-5132
▁Pointer	-5133
tuples	-5134
explicit	-5135
▁CL	-5136
▁SPDX	-5137
ution	-5138
▁actually	-5139
EQ	-5140
xact	-5141
GetNon	-5142
▁polygon	-5143
ANGU	-5144
▁comparison	-5145
")));	-5146
Be	-5147
](#	-5148
▁Compare	-5149
serialize	-5150
▁allocation	-5151
ugo	-5152
ASH	-5153
high	-5154
OPER	-5155
Label	-5156
▁SOFT	-5157
split	-5158
destroy	-5159
▁comb	-5160
▁fragment	-5161
unary	-5162
Dynamic	-5163
▁contents	-5164
day	-5165
docs	-5166
Segment	-5167
▁limitations	-5168
cbor	-5169
FLAGS	-5170
ixel	-5171
▁bin	-5172
prepare	-5173
zu	-5174
Plan	-5175
pstate	-5176
▁completion	-5177
▁inf	-5178
▁cost	-5179
TYPES	-5180
ENCE	-5181
UNK	-5182
▁),	-5183
generator	-5184
ICU	-5185
mock	-5186
ALLEL	-5187
Msg	-5188
▁configuration	-5189
issing	-5190
ass	-5191
▁compute	-5192
come	-5193
▁simple	-5194
<=	-5195
eat	-5196
▁fast	-5197
▁changed	-5198
▁law	-5199
>.	-5200
DIG	-5201
▁swap	-5202
most	-5203
▁script	-5204
Coll	-5205
As	-5206
▁tc	-5207
Integer	-5208
▁SOFTWARE	-5209
▁BAS	-5210
▁reserved	-5211
ORDER	-5212
thers	-5213
AMP	-5214
wi	-5215
▁counter	-5216
SM	-5217
Symbol	-5218
▁distance	-5219
upbdefs	-5220
Parser	-5221
▁ite	-5222
lan	-5223
▁Bit	-5224
SLOT	-5225
ctl	-5226
pgc	-5227
Use	-5228
SetBaseField	-5229
▁BE	-5230
auss	-5231
aving	-5232
ifies	-5233
EqualTo	-5234
iddle	-5235
cour	-5236
WE	-5237
ked	-5238
script	-5239
▁Release	-5240
transform	-5241
LCP	-5242
▁RNIL	-5243
NdbDictionary	-5244
evaluator	-5245
ially	-5246
▁compliance	-5247
ANGUAGE	-5248
▁JOIN	-5249
ilar	-5250
stop	-5251
▁agreed	-5252
RedisModule	-5253
resol	-5254
▁others	-5255
dump	-5256
▁proble	-5257
Csr	-5258
▁*(	-5259
execut	-5260
▁deque	-5261
▁verify	-5262
Sync	-5263
▁Imp	-5264
▁BASIS	-5265
constraint	-5266
tc	-5267
▁COPYING	-5268
sla	-5269
▁THIS	-5270
▁ECPGt	-5271
▁cop	-5272
ively	-5273
▁Portions	-5274
▁CONDITIONS	-5275
cu	-5276
isEqualTo	-5277
owner	-5278
secondary	-5279
}"	-5280
pNdb	-5281
sig	-5282
save	-5283
imilar	-5284
▁happen	-5285
:\	-5286
CTX	-5287
mon	-5288
▁HeapTuple	-5289
▁governing	-5290
ENSION	-5291
FAST	-5292
Fixed	-5293
Frame	-5294
CHEMA	-5295
CONNECT	-5296
rency	-5297
▁PROC	-5298
▁Comple	-5299
based	-5300
▁Dest	-5301
METHOD	-5302
▁matrix	-5303
▁routine	-5304
ACHE	-5305
Concept	-5306
Pack	-5307
SEQU	-5308
acy	-5309
▁pe	-5310
▁unused	-5311
IV	-5312
▁cp	-5313
Any	-5314
▁stop	-5315
enabled	-5316
▁indexes	-5317
Exec	-5318
Wal	-5319
SIX	-5320
▁Ab	-5321
▁track	-5322
▁IMP	-5323
scalar	-5324
▁behavior	-5325
▁Query	-5326
force	-5327
▁'%-.	-5328
Async	-5329
▁allocate	-5330
Fts	-5331
eys	-5332
Names	-5333
ios	-5334
)[	-5335
▁HE	-5336
()->	-5337
WORK	-5338
xCE	-5339
▁master	-5340
definit	-5341
SUCCESS	-5342
counter	-5343
▁jobject	-5344
Dump	-5345
▁body	-5346
PLIC	-5347
ower	-5348
bc	-5349
bootstrap	-5350
WD	-5351
MARY	-5352
isnull	-5353
fk	-5354
perimental	-5355
▁transform	-5356
App	-5357
Trace	-5358
Encode	-5359
PROXY	-5360
family	-5361
▁initialize	-5362
▁params	-5363
▁requested	-5364
▁hol	-5365
ii	-5366
EXEC	-5367
▁Multi	-5368
GNU	-5369
▁timestamp	-5370
inel	-5371
▁TCL	-5372
▁items	-5373
POINTER	-5374
Proxy	-5375
▁attemp	-5376
tle	-5377
▁times	-5378
Oneof	-5379
▁executor	-5380
▁CS	-5381
ARGET	-5382
▁removed	-5383
GROUP	-5384
REGEX	-5385
roxy	-5386
▁capacity	-5387
">	-5388
Writ	-5389
▁ssl	-5390
UNUSED	-5391
EACH	-5392
▁starting	-5393
eatures	-5394
▁proc	-5395
unlock	-5396
CAN	-5397
ategies	-5398
functions	-5399
▁/*!<	-5400
Strategy	-5401
▁ts	-5402
IDENT	-5403
▁year	-5404
compression	-5405
Cursor	-5406
▁matching	-5407
▁easy	-5408
JNIEnv	-5409
ransport	-5410
▁foreach	-5411
▁cleanup	-5412
▁LZ	-5413
}.	-5414
▁dt	-5415
Auth	-5416
UPDATE	-5417
▁CM	-5418
operations	-5419
Term	-5420
▁big	-5421
FTP	-5422
\"\	-5423
na	-5424
*)_	-5425
▁pending	-5426
.");	-5427
aps	-5428
outer	-5429
ired	-5430
pTab	-5431
▁UC	-5432
stand	-5433
▁evaluator	-5434
Listener	-5435
▁attributes	-5436
▁Array	-5437
▁Current	-5438
cer	-5439
fetch	-5440
single	-5441
custom	-5442
perform	-5443
)*	-5444
▁Strategy	-5445
▁policies	-5446
Head	-5447
▁lead	-5448
▁trig	-5449
▁Mod	-5450
▁LANGUAGE	-5451
gers	-5452
▁ssh	-5453
Pri	-5454
tach	-5455
Curl	-5456
▁copies	-5457
Act	-5458
▁LW	-5459
ML	-5460
gt	-5461
CTOR	-5462
▁priv	-5463
ulated	-5464
Order	-5465
licate	-5466
Unknown	-5467
role	-5468
dat	-5469
PLAIN	-5470
fixed	-5471
VOK	-5472
MODE	-5473
Store	-5474
FastDecoder	-5475
▁isn	-5476
▁Gauss	-5477
▁runtime	-5478
▁filename	-5479
▁qual	-5480
Meta	-5481
undle	-5482
Template	-5483
sup	-5484
▁SIGN	-5485
RECATE	-5486
▁coord	-5487
Properties	-5488
▁usage	-5489
USER	-5490
ME	-5491
▁receive	-5492
ESSAGE	-5493
like	-5494
▁flush	-5495
libs	-5496
words	-5497
▁PQ	-5498
▁updated	-5499
▁fails	-5500
SD	-5501
Ops	-5502
▁addReply	-5503
STIT	-5504
▁iss	-5505
:%	-5506
ifiers	-5507
HOEN	-5508
▁stmt	-5509
events	-5510
Ph	-5511
duc	-5512
rup	-5513
ves	-5514
ffects	-5515
▁Event	-5516
policies	-5517
OT	-5518
▁let	-5519
allocated	-5520
TC	-5521
▁RPC	-5522
CLIENT	-5523
headers	-5524
▁Spec	-5525
▁assume	-5526
▁Protocol	-5527
▁win	-5528
named	-5529
▁enabled	-5530
upbdefinit	-5531
adaptor	-5532
(*)	-5533
((((	-5534
Keys	-5535
oreign	-5536
▁worker	-5537
DecodeGeneric	-5538
FUNC	-5539
stit	-5540
################	-5541
(%	-5542
lua	-5543
Space	-5544
Imp	-5545
ruger	-5546
entication	-5547
SERVER	-5548
▁checks	-5549
~~~~~~~~	-5550
Clause	-5551
lb	-5552
HOENIX	-5553
▁month	-5554
pV	-5555
AGES	-5556
▁corresponding	-5557
▁True	-5558
▁lambda	-5559
resp	-5560
▁fun	-5561
EMPTY	-5562
▁STRICT	-5563
fe	-5564
nullable	-5565
Generator	-5566
nom	-5567
Kruger	-5568
/)	-5569
▁variables	-5570
▁dup	-5571
Timestamp	-5572
TAIL	-5573
UINT	-5574
isible	-5575
▁SYLL	-5576
▁increment	-5577
built	-5578
▁disk	-5579
ured	-5580
▁BIT	-5581
▁discla	-5582
▁package	-5583
BF	-5584
FFFF	-5585
jection	-5586
Agg	-5587
IAN	-5588
kele	-5589
FIELD	-5590
▁PSI	-5591
▁remaining	-5592
dge	-5593
conv	-5594
▁url	-5595
Tc	-5596
<>(-	-5597
:"	-5598
▁Line	-5599
▁equivalent	-5600
▁pfree	-5601
▁itself	-5602
RA	-5603
▁Schema	-5604
▁remote	-5605
::_	-5606
▁sv	-5607
RV	-5608
lt	-5609
ench	-5610
▁Vertex	-5611
longlat	-5612
errno	-5613
writer	-5614
UGIN	-5615
▁STATE	-5616
Pager	-5617
GRAPH	-5618
ambert	-5619
▁va	-5620
▁Python	-5621
hould	-5622
alt	-5623
▁pur	-5624
MULTI	-5625
cen	-5626
Post	-5627
erived	-5628
ba	-5629
▁tail	-5630
before	-5631
sink	-5632
▁URL	-5633
▁cause	-5634
_{	-5635
▁SER	-5636
trigger	-5637
▁seg	-5638
RECATED	-5639
.*	-5640
GSN	-5641
GL	-5642
...>	-5643
ership	-5644
Promise	-5645
WARNING	-5646
factory	-5647
▁mapping	-5648
multip	-5649
Converter	-5650
Top	-5651
▁esc	-5652
▁pointers	-5653
ilege	-5654
▁BYTE	-5655
▁Am	-5656
scope	-5657
▁allows	-5658
winapi	-5659
▁restart	-5660
Loop	-5661
▁End	-5662
difference	-5663
short	-5664
Mod	-5665
▁trunc	-5666
errors	-5667
threads	-5668
ERY	-5669
gres	-5670
Position	-5671
acter	-5672
▁Expression	-5673
MAN	-5674
STRU	-5675
pid	-5676
duct	-5677
gate	-5678
▁Row	-5679
discovery	-5680
ransporter	-5681
▁leaf	-5682
virtual	-5683
eft	-5684
envo	-5685
sera	-5686
ilers	-5687
rie	-5688
▁Build	-5689
vfs	-5690
ALG	-5691
lcc	-5692
▁future	-5693
▁sendSignal	-5694
None	-5695
▁underlying	-5696
▁cpp	-5697
▁Remove	-5698
MEMBER	-5699
ZERO	-5700
ranch	-5701
▁NUM	-5702
repare	-5703
yproxy	-5704
RIGGER	-5705
envoyproxy	-5706
▁udpa	-5707
()),	-5708
▁uprv	-5709
ENCES	-5710
▁Lock	-5711
BYTE	-5712
lookup	-5713
▁Daniel	-5714
'.	-5715
▁wal	-5716
priate	-5717
▁DES	-5718
pStmt	-5719
ERT	-5720
▁elif	-5721
opx	-5722
nomial	-5723
ueue	-5724
Close	-5725
▁turn	-5726
▁Option	-5727
▁described	-5728
REC	-5729
zip	-5730
)==	-5731
QUERY	-5732
▁register	-5733
rect	-5734
▁nostd	-5735
▁rules	-5736
content	-5737
strings	-5738
▁Windows	-5739
(_)	-5740
▁simpl	-5741
▁Code	-5742
WINDO	-5743
style	-5744
▁sync	-5745
backup	-5746
▁mutable	-5747
Dec	-5748
>(),	-5749
▁built	-5750
▁OID	-5751
andid	-5752
▁reply	-5753
▁क	-5754
▁errno	-5755
)");	-5756
ironment	-5757
eventLogger	-5758
Connectptr	-5759
▁ADD	-5760
▁RETURNS	-5761
▁conver	-5762
▁DAM	-5763
abc	-5764
ZSTD	-5765
stract	-5766
▁SA	-5767
▁payload	-5768
▁immediately	-5769
▁dir	-5770
▁members	-5771
▁precision	-5772
PUT	-5773
Rece	-5774
Storage	-5775
▁including	-5776
▁unknown	-5777
~~~	-5778
decode	-5779
lk	-5780
iod	-5781
▁MS	-5782
▁fetch	-5783
GNUC	-5784
▁Find	-5785
identity	-5786
ross	-5787
▁Also	-5788
decay	-5789
files	-5790
▁fixed	-5791
chr	-5792
FREE	-5793
RESULT	-5794
DOXYGEN	-5795
▁Reg	-5796
sive	-5797
▁MEM	-5798
▁snapshot	-5799
cover	-5800
▁DATA	-5801
UMN	-5802
▁LL	-5803
ELEMETRY	-5804
ety	-5805
sets	-5806
▁InputIterator	-5807
▁bad	-5808
▁hold	-5809
irange	-5810
▁CHK	-5811
wrap	-5812
▁Initialize	-5813
mac	-5814
LIED	-5815
dimension	-5816
drop	-5817
▁Pre	-5818
Shared	-5819
▁blocks	-5820
ands	-5821
▁However	-5822
EA	-5823
("/	-5824
STS	-5825
WAY	-5826
▁known	-5827
entries	-5828
▁As	-5829
▁negative	-5830
▁ROW	-5831
UCED	-5832
▁BUT	-5833
▁got	-5834
▁INIT	-5835
▁Sequence	-5836
inf	-5837
worker	-5838
▁appropriate	-5839
rels	-5840
▁Next	-5841
----------	-5842
▁Container	-5843
trx	-5844
▁named	-5845
▁raise	-5846
FRAG	-5847
azel	-5848
▁coll	-5849
▁Update	-5850
DELETE	-5851
copyright	-5852
$$	-5853
▁batch	-5854
USH	-5855
failed	-5856
FeatureSet	-5857
Dir	-5858
▁FILE	-5859
▁LIMITED	-5860
acl	-5861
rm	-5862
▁sys	-5863
pq	-5864
RelationId	-5865
cols	-5866
how	-5867
▁IMPLIED	-5868
tings	-5869
iom	-5870
simple	-5871
StatusCode	-5872
AI	-5873
++){	-5874
uite	-5875
ENAME	-5876
▁lfirst	-5877
▁pref	-5878
CLO	-5879
▁evaluate	-5880
TED	-5881
rase	-5882
Sys	-5883
▁Transaction	-5884
tered	-5885
-----------	-5886
berg	-5887
▁Must	-5888
▁kind	-5889
▁fmt	-5890
timer	-5891
▁CharT	-5892
▁union	-5893
DEDUCED	-5894
convertible	-5895
▁LOG	-5896
replication	-5897
ERS	-5898
locked	-5899
library	-5900
Executor	-5901
▁ev	-5902
▁api	-5903
▁alter	-5904
coursera	-5905
mer	-5906
cedure	-5907
AllTypes	-5908
▁IP	-5909
▁Wait	-5910
▁abs	-5911
Usage	-5912
color	-5913
illed	-5914
password	-5915
ached	-5916
▁DELE	-5917
Only	-5918
▁force	-5919
polygon	-5920
),(	-5921
▁...)	-5922
MetricK	-5923
▁Any	-5924
▁den	-5925
▁pTab	-5926
onical	-5927
cel	-5928
▁SUB	-5929
▁rpc	-5930
blocks	-5931
▁Var	-5932
PRINT	-5933
▁LIABILITY	-5934
loop	-5935
ropped	-5936
BD	-5937
▁lab	-5938
windows	-5939
▁compression	-5940
++]	-5941
▁PARALLEL	-5942
DL	-5943
▁due	-5944
▁derived	-5945
We	-5946
emp	-5947
andomAccess	-5948
▁Fts	-5949
▁May	-5950
usage	-5951
Graph	-5952
▁scalar	-5953
using	-5954
unlikely	-5955
_._	-5956
▁GEN	-5957
▁es	-5958
istory	-5959
DEPRECATED	-5960
▁references	-5961
▁headers	-5962
TP	-5963
parm	-5964
▁'-	-5965
EGIN	-5966
greSQL	-5967
orph	-5968
EXCEPTION	-5969
attributes	-5970
completion	-5971
▁temporary	-5972
▁application	-5973
▁(((	-5974
Change	-5975
▁representation	-5976
itor	-5977
overflow	-5978
Lb	-5979
▁BEGIN	-5980
▁image	-5981
finity	-5982
NA	-5983
pay	-5984
security	-5985
KIND	-5986
▁parsed	-5987
▁curr	-5988
replace	-5989
Reg	-5990
hes	-5991
ov	-5992
results	-5993
▁Conform	-5994
RecordPtr	-5995
▁~~~	-5996
packed	-5997
Provider	-5998
▁sd	-5999
copydoc	-6000
▁missing	-6001
▁specify	-6002
DIGIT	-6003
share	-6004
;",	-6005
ryp	-6006
▁destroy	-6007
OOK	-6008
▁REG	-6009
▁cnt	-6010
▁box	-6011
STRUCT	-6012
▁pq	-6013
PECT	-6014
iau	-6015
metic	-6016
▁chain	-6017
ERENCES	-6018
seconds	-6019
▁processing	-6020
velopment	-6021
tes	-6022
▁events	-6023
rapped	-6024
MAR	-6025
▁ulint	-6026
failure	-6027
▁sorted	-6028
[-	-6029
image	-6030
▁numbers	-6031
▁performance	-6032
bd	-6033
afety	-6034
▁DELETE	-6035
payload	-6036
hax	-6037
xFF	-6038
▁waiting	-6039
_),	-6040
asm	-6041
ftUS	-6042
▁(),	-6043
▁tak	-6044
poch	-6045
▁sample	-6046
ND	-6047
▁core	-6048
▁transition	-6049
recur	-6050
▁InvalidOid	-6051
▁AT	-6052
Rate	-6053
MIS	-6054
gci	-6055
Down	-6056
success	-6057
iversity	-6058
Sign	-6059
batch	-6060
Varint	-6061
generic	-6062
scription	-6063
implementation	-6064
rng	-6065
Worker	-6066
▁PostgreSQL	-6067
▁mult	-6068
Location	-6069
"""	-6070
CONN	-6071
daniel	-6072
▁TRACE	-6073
▁prevent	-6074
interpreted	-6075
Stack	-6076
CLUSTER	-6077
PtrP	-6078
columns	-6079
>\	-6080
▁pk	-6081
▁sm	-6082
▁java	-6083
COMPUTE	-6084
▁MO	-6085
haxx	-6086
TYPENAME	-6087
_*/	-6088
Generated	-6089
Raw	-6090
ithmetic	-6091
_(-	-6092
ably	-6093
▁DESC	-6094
components	-6095
CRE	-6096
▁GOO	-6097
Lambert	-6098
▁Ne	-6099
▁Date	-6100
enberg	-6101
ording	-6102
▁handling	-6103
▁returning	-6104
▁DEBUGASSERT	-6105
warning	-6106
tic	-6107
▁ear	-6108
tended	-6109
▁shift	-6110
▁inside	-6111
▁cel	-6112
Debug	-6113
race	-6114
hint	-6115
ank	-6116
Hook	-6117
ground	-6118
▁deleted	-6119
▁Executor	-6120
▁Conic	-6121
HDR	-6122
Float	-6123
▁resol	-6124
lemetry	-6125
Health	-6126
▁plugin	-6127
▁Stenberg	-6128
nod	-6129
cancel	-6130
rass	-6131
UTIL	-6132
CR	-6133
▁OPER	-6134
▁longer	-6135
DROP	-6136
▁lit	-6137
▁Conformal	-6138
king	-6139
utm	-6140
▁cls	-6141
▁nodeId	-6142
UBLE	-6143
UTORS	-6144
===	-6145
ving	-6146
ograph	-6147
NUMERIC	-6148
▁Coll	-6149
cesses	-6150
inner	-6151
kv	-6152
▁&=	-6153
ARGUMENT	-6154
▁against	-6155
▁failf	-6156
PHOENIX	-6157
)/	-6158
▁&)	-6159
ORITH	-6160
some	-6161
▁width	-6162
roll	-6163
reshold	-6164
outh	-6165
LEG	-6166
▁{{	-6167
▁delta	-6168
Ob	-6169
▁disclaimer	-6170
getDataPtr	-6171
eno	-6172
native	-6173
▁Send	-6174
-------------	-6175
BITS	-6176
▁Only	-6177
ws	-6178
FIL	-6179
▁dump	-6180
▁PO	-6181
▁rather	-6182
==(	-6183
ock	-6184
▁best	-6185
Content	-6186
fill	-6187
notation	-6188
bad	-6189
▁poly	-6190
ADIC	-6191
matrix	-6192
ISE	-6193
processed	-6194
hdr	-6195
ENTELEMETRY	-6196
▁PARTITION	-6197
▁decimal	-6198
▁Hel	-6199
ALIGN	-6200
latforms	-6201
▁ignored	-6202
TTI	-6203
{};	-6204
▁dot	-6205
Rowid	-6206
SYNC	-6207
miss	-6208
getName	-6209
REQUEST	-6210
▁adjust	-6211
▁initialized	-6212
uto	-6213
INST	-6214
chain	-6215
='	-6216
Link	-6217
ENTIAL	-6218
Origin	-6219
▁Method	-6220
deprecated	-6221
▁COPYRIGHT	-6222
java	-6223
▁much	-6224
Formatter	-6225
▁inserted	-6226
IDO	-6227
▁(%	-6228
outine	-6229
FROM	-6230
relids	-6231
▁But	-6232
cript	-6233
Cl	-6234
RENAME	-6235
WAYS	-6236
▁iterators	-6237
LM	-6238
oh	-6239
Japi	-6240
INCLUDING	-6241
▁emit	-6242
▁jsonb	-6243
▁decla	-6244
register	-6245
▁expressions	-6246
aque	-6247
imap	-6248
COMMIT	-6249
▁syntax	-6250
provider	-6251
Ad	-6252
▁ms	-6253
ABIC	-6254
▁INDEX	-6255
compatible	-6256
OUND	-6257
guard	-6258
▁'$	-6259
▁CF	-6260
Reset	-6261
▁inherit	-6262
rbac	-6263
CharT	-6264
ism	-6265
tables	-6266
▁Client	-6267
▁appear	-6268
Sleep	-6269
Custom	-6270
illise	-6271
▁Wh	-6272
=*	-6273
▁Search	-6274
▁boundary	-6275
fb	-6276
▁PH	-6277
▁Calc	-6278
Endpoint	-6279
Select	-6280
verify	-6281
ah	-6282
IMPORT	-6283
▁parsing	-6284
▁Simple	-6285
fwd	-6286
▁JIM	-6287
▁Ref	-6288
)"	-6289
▁}}}	-6290
large	-6291
▁undefined	-6292
▁dead	-6293
mu	-6294
▁literal	-6295
▁Redistributions	-6296
▁etc	-6297
▁xy	-6298
APID	-6299
RAPH	-6300
▁conflict	-6301
//////////	-6302
aN	-6303
TARGET	-6304
tection	-6305
del	-6306
NEXT	-6307
rust	-6308
Templates	-6309
▁concurrent	-6310
cn	-6311
functor	-6312
▁EXPLAIN	-6313
▁Part	-6314
II	-6315
rl	-6316
▁ps	-6317
▁href	-6318
------	-6319
▁ACL	-6320
eff	-6321
Sort	-6322
fold	-6323
opts	-6324
Runtime	-6325
VIEW	-6326
▁mean	-6327
▁();	-6328
▁sender	-6329
▁started	-6330
▁occurred	-6331
▁provides	-6332
IALIZER	-6333
▁Process	-6334
NON	-6335
pose	-6336
▁automat	-6337
cN	-6338
apter	-6339
▁pred	-6340
edata	-6341
year	-6342
CPP	-6343
cnv	-6344
HARN	-6345
▁backup	-6346
ycle	-6347
UTION	-6348
▁extend	-6349
VARIADIC	-6350
Ret	-6351
KEYWORD	-6352
▁amount	-6353
▁comput	-6354
that	-6355
▁setup	-6356
KEN	-6357
▁anything	-6358
Tls	-6359
istic	-6360
etwork	-6361
prof	-6362
▁sin	-6363
terminal	-6364
▁very	-6365
rintf	-6366
primary	-6367
dt	-6368
tral	-6369
▁await	-6370
icit	-6371
trig	-6372
UChar	-6373
ident	-6374
Backup	-6375
▁Define	-6376
HeapTuple	-6377
▁*>(	-6378
▁partial	-6379
▁*)&	-6380
Switch	-6381
▁made	-6382
▁PER	-6383
▁according	-6384
▁implemented	-6385
IDE	-6386
▁CA	-6387
▁CONTRIB	-6388
▁DIS	-6389
▁had	-6390
▁EVENT	-6391
which	-6392
▁scope	-6393
progress	-6394
▁replication	-6395
span	-6396
Condition	-6397
NOWN	-6398
POSIX	-6399
overload	-6400
▁consider	-6401
compile	-6402
▁Status	-6403
gsql	-6404
▁unless	-6405
TK	-6406
author	-6407
▁CONTRIBUTORS	-6408
DIST	-6409
secure	-6410
▁Allocate	-6411
▁asynchronous	-6412
)).	-6413
Prefix	-6414
Span	-6415
▁fix	-6416
▁tm	-6417
eries	-6418
▁pgstat	-6419
Descriptors	-6420
tablespace	-6421
▁dimension	-6422
LIBR	-6423
unknown	-6424
,(	-6425
▁span	-6426
linux	-6427
▁datum	-6428
ALGORITH	-6429
▁effect	-6430
▁occurs	-6431
▁hi	-6432
Join	-6433
depth	-6434
sha	-6435
▁".	-6436
▁checking	-6437
\"",	-6438
▁tablespace	-6439
ATTR	-6440
lecture	-6441
FK	-6442
▁sink	-6443
APIDJSON	-6444
Control	-6445
transfer	-6446
asureUnit	-6447
MESSAGE	-6448
rier	-6449
ScanOperation	-6450
*-	-6451
vtab	-6452
▁ol	-6453
`.`	-6454
Pass	-6455
antity	-6456
▁п	-6457
adding	-6458
ons	-6459
__);	-6460
▁OPENTELEMETRY	-6461
QH	-6462
Active	-6463
▁foo	-6464
series	-6465
▁around	-6466
oring	-6467
Timeout	-6468
(::	-6469
▁cancel	-6470
▁predicate	-6471
GM	-6472
rwlock	-6473
▁repeated	-6474
▁DI	-6475
big	-6476
uri	-6477
ANY	-6478
▁NEW	-6479
verity	-6480
▁owner	-6481
VO	-6482
▁fre	-6483
▁CO	-6484
Begin	-6485
▁seed	-6486
▁Since	-6487
▁ten	-6488
▁term	-6489
ont	-6490
▁Column	-6491
ceptor	-6492
crease	-6493
enchmark	-6494
▁ListCell	-6495
resize	-6496
ProtocolOptions	-6497
})	-6498
sired	-6499
▁good	-6500
▁prepare	-6501
▁versions	-6502
SCHEMA	-6503
statement	-6504
ler	-6505
▁Now	-6506
▁performed	-6507
▁HUF	-6508
▁meter	-6509
▁rights	-6510
▁DatumGet	-6511
voke	-6512
fragment	-6513
messages	-6514
▁checked	-6515
RF	-6516
jor	-6517
Pg	-6518
pied	-6519
learn	-6520
▁become	-6521
▁RelationGet	-6522
IFIC	-6523
▁Backup	-6524
LEX	-6525
▁blob	-6526
alance	-6527
clusterj	-6528
▁endpoint	-6529
▁{.	-6530
▁Cal	-6531
▁Sort	-6532
ued	-6533
comb	-6534
▁Be	-6535
▁FSE	-6536
▁Form	-6537
raries	-6538
▁INTER	-6539
▁testing	-6540
Backend	-6541
checked	-6542
-----	-6543
TimeZone	-6544
PK	-6545
igu	-6546
ike	-6547
SK	-6548
ess	-6549
▁echo	-6550
▁App	-6551
▁car	-6552
alancing	-6553
▁Dec	-6554
▁JNI	-6555
Owner	-6556
clone	-6557
Used	-6558
▁SAFE	-6559
SHARED	-6560
CONV	-6561
▁prob	-6562
▁edata	-6563
ensitive	-6564
▁ap	-6565
ious	-6566
▁NOTE	-6567
Zero	-6568
ramm	-6569
▁JBB	-6570
Credentials	-6571
constructible	-6572
UPT	-6573
iscard	-6574
DecodeFast	-6575
▁determine	-6576
jni	-6577
▁xl	-6578
pred	-6579
light	-6580
▁requests	-6581
()`	-6582
▁reading	-6583
▁fk	-6584
ITERATOR	-6585
Interface	-6586
▁similar	-6587
rk	-6588
Foreign	-6589
."""	-6590
ternate	-6591
▁better	-6592
nodiscard	-6593
▁Operation	-6594
HOST	-6595
chrono	-6596
▁compile	-6597
▁SN	-6598
mail	-6599
volatile	-6600
DecodeStatus	-6601
erase	-6602
▁wrapper	-6603
Acquire	-6604
▁generator	-6605
NEL	-6606
UTER	-6607
▁external	-6608
complex	-6609
keleton	-6610
andidate	-6611
Btree	-6612
quent	-6613
▁transactions	-6614
FWD	-6615
blk	-6616
MessageDef	-6617
LP	-6618
SYMBOL	-6619
YPT	-6620
▁encode	-6621
▁suc	-6622
Cookie	-6623
▁phase	-6624
▁resolve	-6625
pref	-6626
▁window	-6627
pull	-6628
▁invoke	-6629
▁completed	-6630
FORE	-6631
Common	-6632
▁duration	-6633
Effects	-6634
▁Channel	-6635
WINAPI	-6636
exponent	-6637
oneof	-6638
declval	-6639
Encoding	-6640
DY	-6641
▁locks	-6642
FTER	-6643
XLog	-6644
ISTS	-6645
Left	-6646
ConfigDump	-6647
gic	-6648
tom	-6649
Direct	-6650
▁destination	-6651
▁SYLLABLE	-6652
cout	-6653
▁scale	-6654
▁units	-6655
FilePtr	-6656
telemetry	-6657
sym	-6658
CONCEPT	-6659
until	-6660
Global	-6661
▁quick	-6662
identifier	-6663
could	-6664
job	-6665
les	-6666
▁doing	-6667
blocking	-6668
▁invoked	-6669
'))	-6670
atts	-6671
▁ski	-6672
▁KQU	-6673
▁gtest	-6674
NDBT	-6675
TRANS	-6676
▁Development	-6677
▁cert	-6678
▁Constant	-6679
▁INCLU	-6680
ea	-6681
andshake	-6682
▁minimum	-6683
▁Generate	-6684
▁OutputIterator	-6685
wind	-6686
▁cast	-6687
udpa	-6688
rad	-6689
▁Linear	-6690
TOKEN	-6691
▁hook	-6692
▁trace	-6693
▁Insert	-6694
Engine	-6695
mar	-6696
where	-6697
Fragment	-6698
orn	-6699
TEMP	-6700
INVOK	-6701
erasure	-6702
van	-6703
LER	-6704
agno	-6705
><	-6706
▁ftp	-6707
quota	-6708
▁Generic	-6709
japi	-6710
Writer	-6711
▁Spatial	-6712
▁Descriptor	-6713
Child	-6714
language	-6715
may	-6716
ibly	-6717
▁logging	-6718
LEVE	-6719
good	-6720
HasBaseField	-6721
IFY	-6722
rammar	-6723
offsets	-6724
▁Run	-6725
shutdown	-6726
tv	-6727
▁स	-6728
Sink	-6729
▁OTHER	-6730
....	-6731
versal	-6732
▁nulls	-6733
▁Access	-6734
▁publish	-6735
▁seconds	-6736
▁Cont	-6737
Enable	-6738
▁btree	-6739
polynomial	-6740
▁-*-	-6741
RUSIVE	-6742
sample	-6743
▁makes	-6744
submsg	-6745
▁Ptr	-6746
alias	-6747
▁none	-6748
▁exactly	-6749
aged	-6750
RateLimit	-6751
CM	-6752
HealthCheck	-6753
laced	-6754
estate	-6755
wchar	-6756
stre	-6757
interprocess	-6758
▁Parameters	-6759
SignalLength	-6760
▁poll	-6761
nested	-6762
wards	-6763
buckets	-6764
▁foreign	-6765
RIB	-6766
▁nested	-6767
▁supp	-6768
)...	-6769
PARSER	-6770
Queue	-6771
future	-6772
▁Locale	-6773
Nor	-6774
oose	-6775
▁RAPIDJSON	-6776
nan	-6777
▁Path	-6778
▁whole	-6779
INTERPROCESS	-6780
arded	-6781
▁jclass	-6782
gramming	-6783
INTRUSIVE	-6784
ares	-6785
&>	-6786
mg	-6787
seil	-6788
▁met	-6789
anded	-6790
▁entire	-6791
▁OPERATOR	-6792
▁actor	-6793
Save	-6794
▁ste	-6795
unordered	-6796
▁Id	-6797
Temp	-6798
qrt	-6799
Decl	-6800
strlen	-6801
ling	-6802
▁certificate	-6803
yy	-6804
DIT	-6805
myjapi	-6806
inn	-6807
unittest	-6808
IQUE	-6809
atype	-6810
MER	-6811
▁show	-6812
compressed	-6813
▁beginning	-6814
pB	-6815
lines	-6816
strict	-6817
quote	-6818
println	-6819
▁Fun	-6820
EGER	-6821
bose	-6822
▁protobuf	-6823
agnost	-6824
Off	-6825
remote	-6826
services	-6827
layout	-6828
Easting	-6829
▁extreg	-6830
Northing	-6831
▁progress	-6832
WINDOWS	-6833
▁LWLock	-6834
each	-6835
▁able	-6836
HANDLE	-6837
WY	-6838
ACCESS	-6839
▁macros	-6840
properties	-6841
remain	-6842
▁BaseString	-6843
TI	-6844
▁generic	-6845
Merge	-6846
shift	-6847
▁OLD	-6848
restart	-6849
mime	-6850
▁Element	-6851
▁Optional	-6852
▁promise	-6853
▁iteration	-6854
tap	-6855
▁ownership	-6856
thr	-6857
▁fn	-6858
ookup	-6859
▁TYPE	-6860
▁alias	-6861
▁transl	-6862
pErrorCode	-6863
ographic	-6864
▁Promise	-6865
SUPPORTED	-6866
Partition	-6867
PUBLIC	-6868
▁declar	-6869
▁Resource	-6870
LINK	-6871
contains	-6872
LEVEL	-6873
ranges	-6874
DLL	-6875
▁recovery	-6876
▁Di	-6877
▁dat	-6878
▁Append	-6879
SysCache	-6880
Meter	-6881
ofill	-6882
GT	-6883
▁anal	-6884
ByName	-6885
ToString	-6886
ome	-6887
chars	-6888
PROTOCOL	-6889
STED	-6890
▁bas	-6891
▁ranges	-6892
irectional	-6893
PSI	-6894
▁vert	-6895
▁trailing	-6896
▁Pr	-6897
▁indicates	-6898
deque	-6899
trunc	-6900
▁policy	-6901
zerofill	-6902
▁slots	-6903
PROTOBUF	-6904
▁authentication	-6905
ADER	-6906
▁Case	-6907
▁Geode	-6908
Full	-6909
▁ObjectId	-6910
rules	-6911
▁guarantee	-6912
ariad	-6913
original	-6914
▁с	-6915
▁TupleDesc	-6916
Configuration	-6917
]:	-6918
need	-6919
more	-6920
dp	-6921
leaf	-6922
▁arrays	-6923
▁alignment	-6924
repl	-6925
▁classes	-6926
VA	-6927
LOBAL	-6928
Retry	-6929
PA	-6930
arger	-6931
iomgr	-6932
▁PUBLIC	-6933
InputStream	-6934
▁NdbOperation	-6935
▁Pg	-6936
Counted	-6937
atibility	-6938
Certificate	-6939
)-	-6940
▁""	-6941
▁proper	-6942
▁"[	-6943
rte	-6944
]));	-6945
cogn	-6946
nulls	-6947
▁Section	-6948
UTO	-6949
▁!(	-6950
Trig	-6951
FULL	-6952
standing	-6953
]\	-6954
DEFIN	-6955
▁Joel	-6956
ingroup	-6957
nad	-6958
▁CP	-6959
▁SEC	-6960
RW	-6961
▁University	-6962
both	-6963
▁dummy	-6964
features	-6965
▁NAME	-6966
▁concept	-6967
▁distribute	-6968
▁Ste	-6969
itr	-6970
lhs	-6971
logger	-6972
structor	-6973
▁Guz	-6974
tg	-6975
▁elem	-6976
▁regular	-6977
AGMA	-6978
▁Mark	-6979
window	-6980
▁Guzman	-6981
registry	-6982
Drop	-6983
▁mach	-6984
▁util	-6985
▁One	-6986
OFFSET	-6987
▁Regist	-6988
▁peer	-6989
encode	-6990
escape	-6991
▁password	-6992
▁descr	-6993
▁Convert	-6994
OMIT	-6995
ully	-6996
▁logical	-6997
cell	-6998
▁sla	-6999
digit	-7000
fido	-7001
▁quote	-7002
cker	-7003
▁won	-7004
rees	-7005
extent	-7006
▁closed	-7007
▁Handler	-7008
sdk	-7009
Bidi	-7010
optim	-7011
National	-7012
Pair	-7013
▁share	-7014
▁compressed	-7015
LAM	-7016
▁indicate	-7017
Ll	-7018
TBL	-7019
▁";	-7020
▁fi	-7021
ushed	-7022
coming	-7023
verage	-7024
▁thr	-7025
▁copied	-7026
▁respon	-7027
▁Project	-7028
Cons	-7029
▁Item	-7030
▁gets	-7031
▁exponent	-7032
ech	-7033
oted	-7034
▁cached	-7035
pipe	-7036
Abort	-7037
▁rank	-7038
▁Enable	-7039
bf	-7040
&>(	-7041
▁Num	-7042
Single	-7043
▁proj	-7044
refman	-7045
▁round	-7046
rp	-7047
▁Each	-7048
fcinfo	-7049
PACK	-7050
tached	-7051
▁shutdown	-7052
unch	-7053
▁reader	-7054
▁Internal	-7055
Gu	-7056
▁Collation	-7057
apture	-7058
▁GROUP	-7059
Tail	-7060
isf	-7061
▁GPR	-7062
encryp	-7063
Exclusive	-7064
PPER	-7065
legal	-7066
generate	-7067
▁KeyType	-7068
▁USING	-7069
SwitchTo	-7070
platform	-7071
SPACE	-7072
▁assignment	-7073
NIC	-7074
Binary	-7075
▁restore	-7076
newBuilder	-7077
▁statistics	-7078
attrs	-7079
lias	-7080
cfilter	-7081
CodeInfo	-7082
COME	-7083
RelInfo	-7084
▁DOXYGEN	-7085
▁nb	-7086
▁leg	-7087
closure	-7088
FieldOptions	-7089
xml	-7090
▁takes	-7091
IFT	-7092
calc	-7093
▁engine	-7094
▁IM	-7095
▁TC	-7096
▁task	-7097
den	-7098
▁After	-7099
Nested	-7100
Sm	-7101
buff	-7102
▁explain	-7103
▁decode	-7104
**************	-7105
##(	-7106
->_	-7107
▁strict	-7108
▁problem	-7109
():	-7110
mf	-7111
***********	-7112
ivid	-7113
▁digit	-7114
Heap	-7115
▁clone	-7116
▁math	-7117
unding	-7118
ek	-7119
Hdr	-7120
▁though	-7121
"\	-7122
tags	-7123
vseq	-7124
SSH	-7125
hooks	-7126
▁retry	-7127
BufferSequence	-7128
NV	-7129
Low	-7130
echo	-7131
iece	-7132
arity	-7133
Restart	-7134
те	-7135
("\	-7136
\":	-7137
▁roll	-7138
anned	-7139
▁words	-7140
matches	-7141
▁DESCRIPT	-7142
▁identifier	-7143
irc	-7144
Annotation	-7145
ourn	-7146
▁timer	-7147
*/)	-7148
ctype	-7149
terminated	-7150
pfs	-7151
▁sy	-7152
▁});	-7153
▁commands	-7154
Ul	-7155
xAB	-7156
Observ	-7157
ij	-7158
ACING	-7159
Complexity	-7160
▁pp	-7161
delay	-7162
▁=>	-7163
ipel	-7164
▁supports	-7165
▁explicitly	-7166
्य	-7167
▁install	-7168
Messages	-7169
GU	-7170
▁THEN	-7171
▁whom	-7172
dc	-7173
ecture	-7174
▁issue	-7175
▁serv	-7176
Holder	-7177
SHO	-7178
▁writer	-7179
Ver	-7180
▁GR	-7181
Parent	-7182
crypto	-7183
CACHE	-7184
creds	-7185
Google	-7186
ulator	-7187
▁MeasureUnit	-7188
▁NOL	-7189
▁signed	-7190
▁mis	-7191
▁Enum	-7192
Snapshot	-7193
aker	-7194
▁Rep	-7195
nodeId	-7196
▁That	-7197
refore	-7198
Initial	-7199
decimal	-7200
▁CURLINFO	-7201
▁rb	-7202
▁Signature	-7203
running	-7204
▁FIDO	-7205
▁NOLINT	-7206
▁Dynamic	-7207
idirectional	-7208
dns	-7209
▁().	-7210
strcase	-7211
REFERENCES	-7212
___	-7213
PERTY	-7214
TableSlot	-7215
js	-7216
akeup	-7217
▁semant	-7218
CONTRACT	-7219
LATIN	-7220
BACKUP	-7221
▁really	-7222
▁MY	-7223
▁OPT	-7224
visitor	-7225
annerInfo	-7226
▁GCC	-7227
STAMP	-7228
model	-7229
--------------	-7230
LATE	-7231
SORT	-7232
ignore	-7233
foreign	-7234
▁dictionary	-7235
*(	-7236
ALE	-7237
▁ALL	-7238
▁Val	-7239
▁previously	-7240
fix	-7241
slist	-7242
▁Some	-7243
RVALUE	-7244
▁encoded	-7245
configuration	-7246
mbed	-7247
exists	-7248
PARTITION	-7249
amma	-7250
Forward	-7251
▁middle	-7252
*)(	-7253
rand	-7254
▁");	-7255
COMPIL	-7256
OUTCOME	-7257
locator	-7258
▁recent	-7259
ан	-7260
PY	-7261
otal	-7262
▁spirit	-7263
▁converted	-7264
bazel	-7265
slots	-7266
▁Over	-7267
UErrorCode	-7268
COND	-7269
TERN	-7270
conversion	-7271
SHIFT	-7272
orphic	-7273
NoOf	-7274
▁prof	-7275
▁Single	-7276
▁executed	-7277
▁SSH	-7278
JK	-7279
Com	-7280
▁Timestamp	-7281
jac	-7282
cstring	-7283
strumentation	-7284
let	-7285
▁JNIC	-7286
▁JNICALL	-7287
▁JNIEXPORT	-7288
▁su	-7289
▁style	-7290
sin	-7291
::*)(	-7292
ACTION	-7293
scache	-7294
▁Generated	-7295
lative	-7296
▁EXEC	-7297
▁having	-7298
Mark	-7299
capi	-7300
▁trx	-7301
clock	-7302
aligned	-7303
MutableArray	-7304
▁sa	-7305
Static	-7306
CONTEXT	-7307
vars	-7308
▁hint	-7309
through	-7310
noOf	-7311
▁ASC	-7312
TIMEOUT	-7313
BT	-7314
▁cfg	-7315
▁lim	-7316
cation	-7317
COMPILER	-7318
Parameter	-7319
ibrary	-7320
ior	-7321
device	-7322
▁pParse	-7323
▁retval	-7324
▁lappend	-7325
▁bel	-7326
atisf	-7327
▁pNew	-7328
SIGNAL	-7329
Interval	-7330
▁Derived	-7331
▁Extension	-7332
Old	-7333
yes	-7334
angle	-7335
aren	-7336
NESTED	-7337
Simple	-7338
LIKE	-7339
returns	-7340
▁Signal	-7341
*************	-7342
'"	-7343
▁vi	-7344
FACE	-7345
attnum	-7346
actions	-7347
literal	-7348
missing	-7349
vey	-7350
▁sn	-7351
union	-7352
rational	-7353
BDA	-7354
▁lex	-7355
fasthttp	-7356
hostname	-7357
iforn	-7358
ifornia	-7359
▁eff	-7360
joint	-7361
COMMON	-7362
▁saved	-7363
closed	-7364
▁metric	-7365
pm	-7366
▁Buf	-7367
▁updates	-7368
▁registered	-7369
cm	-7370
▁pt	-7371
▁FTS	-7372
ention	-7373
▁helper	-7374
▁ft	-7375
ournal	-7376
▁erase	-7377
delta	-7378
urther	-7379
▁Authors	-7380
connected	-7381
xfa	-7382
▁CHECKED	-7383
EAR	-7384
TRC	-7385
▁Py	-7386
Found	-7387
NodePtr	-7388
▁California	-7389
ips	-7390
MOCK	-7391
Break	-7392
shard	-7393
ade	-7394
Elem	-7395
ribe	-7396
specific	-7397
AROUND	-7398
iguous	-7399
▁extensions	-7400
Chunk	-7401
▁Redis	-7402
*);	-7403
have	-7404
factor	-7405
public	-7406
Support	-7407
FASTTABLE	-7408
zName	-7409
Report	-7410
EO	-7411
jsonb	-7412
▁stdx	-7413
ANCE	-7414
▁something	-7415
▁fl	-7416
▁paths	-7417
curlx	-7418
ilities	-7419
▁Offset	-7420
▁GENCODE	-7421
▁disabled	-7422
▁в	-7423
COR	-7424
bre	-7425
PLUl	-7426
heroid	-7427
▁leave	-7428
cNGP	-7429
▁MSVC	-7430
Bucket	-7431
▁author	-7432
GENERATED	-7433
▁AD	-7434
Leaf	-7435
gss	-7436
rpl	-7437
ADDRESS	-7438
▁coordinate	-7439
▁automatically	-7440
GCP	-7441
UNITS	-7442
▁Pl	-7443
▁fc	-7444
&&>(	-7445
▁foot	-7446
DEFINED	-7447
▁display	-7448
▁product	-7449
▁AUTH	-7450
quires	-7451
▁extent	-7452
▁(!(	-7453
▁advance	-7454
WORKAROUND	-7455
decompress	-7456
▁LEFT	-7457
▁Last	-7458
ificant	-7459
converter	-7460
POS	-7461
UST	-7462
EXCLU	-7463
hel	-7464
▁LOCK	-7465
▁furn	-7466
UNKNOWN	-7467
▁cos	-7468
VICES	-7469
▁color	-7470
des	-7471
rid	-7472
CHANGE	-7473
▁furnished	-7474
PQ	-7475
OTHER	-7476
▁half	-7477
cap	-7478
PARE	-7479
▁interpre	-7480
XXX	-7481
Variable	-7482
▁category	-7483
▁recv	-7484
Argument	-7485
car	-7486
disk	-7487
▁Param	-7488
▁basis	-7489
▁Target	-7490
▁properties	-7491
ceptions	-7492
serialization	-7493
ials	-7494
▁Skip	-7495
▁Used	-7496
▁Request	-7497
▁clauses	-7498
▁keyword	-7499
Observable	-7500
WNER	-7501
▁cap	-7502
▁expand	-7503
Eval	-7504
▁emp	-7505
CLOSE	-7506
▁logger	-7507
▁converter	-7508
illiseconds	-7509
ternational	-7510
▁HASH	-7511
,%	-7512
chan	-7513
▁LATIN	-7514
▁kv	-7515
▁With	-7516
SUBSTIT	-7517
▁ct	-7518
))));	-7519
▁come	-7520
▁handled	-7521
Ind	-7522
parts	-7523
▁wrong	-7524
RUN	-7525
BIND	-7526
SEND	-7527
▁Move	-7528
extract	-7529
Assert	-7530
▁oid	-7531
▁bounds	-7532
)::	-7533
]==	-7534
▁Can	-7535
▁give	-7536
PRAGMA	-7537
▁desired	-7538
EXTENSION	-7539
DEFINITION	-7540
reflection	-7541
▁ri	-7542
▁TRIGGER	-7543
ADAP	-7544
VOID	-7545
▁mater	-7546
▁defines	-7547
olute	-7548
_\	-7549
▁sell	-7550
MyJapi	-7551
suffix	-7552
vacuum	-7553
pR	-7554
ASM	-7555
▁PRIMARY	-7556
▁persons	-7557
CHAN	-7558
ABORT	-7559
▁edit	-7560
builtin	-7561
▁Domain	-7562
(((	-7563
▁BT	-7564
▁OS	-7565
▁Box	-7566
ClassT	-7567
▁CURLM	-7568
LEGAL	-7569
▁Edge	-7570
▁startup	-7571
IMED	-7572
typmod	-7573
EXIT	-7574
GINE	-7575
SAFE	-7576
LAMBDA	-7577
▁OBJECT	-7578
,&	-7579
▁Seg	-7580
▁tabPtr	-7581
▁overload	-7582
blqh	-7583
macro	-7584
▁constraints	-7585
noDB	-7586
▁zip	-7587
▁Drop	-7588
ATIVE	-7589
▁speed	-7590
▁functor	-7591
collection	-7592
strdup	-7593
▁Binary	-7594
REPL	-7595
▁pExpr	-7596
EnumValue	-7597
pur	-7598
finish	-7599
workers	-7600
▁export	-7601
ounded	-7602
▁complex	-7603
EV	-7604
dead	-7605
]))	-7606
OpPtr	-7607
IZATION	-7608
▁finish	-7609
indexes	-7610
RELATION	-7611
▁network	-7612
igrate	-7613
▁stage	-7614
▁compatible	-7615
GCC	-7616
task	-7617
senderRef	-7618
IFI	-7619
emit	-7620
ength	-7621
errup	-7622
▁Cluster	-7623
Alternate	-7624
▁few	-7625
ience	-7626
ProtoP	-7627
postgres	-7628
▁(-	-7629
▁SC	-7630
clang	-7631
▁EXPECT	-7632
▁SQLite	-7633
▁diagnost	-7634
SR	-7635
▁Reset	-7636
-------	-7637
▁cb	-7638
After	-7639
▁"");	-7640
digest	-7641
och	-7642
rdb	-7643
xpr	-7644
▁mon	-7645
▁note	-7646
half	-7647
▁sshc	-7648
tupdesc	-7649
FromString	-7650
rin	-7651
▁attempt	-7652
▁Tc	-7653
DICT	-7654
beta	-7655
▁lists	-7656
▁routines	-7657
GLE	-7658
itespace	-7659
▁replica	-7660
▁Geodetic	-7661
YI	-7662
utes	-7663
mitive	-7664
▁retain	-7665
▁comment	-7666
OPERATOR	-7667
▁HO	-7668
_>	-7669
Done	-7670
NSRS	-7671
month	-7672
▁WHEN	-7673
VARIANT	-7674
▁'{	-7675
High	-7676
▁ready	-7677
на	-7678
since	-7679
▁Mutex	-7680
Prepare	-7681
tributed	-7682
▁dispatch	-7683
▁instances	-7684
sx	-7685
Alias	-7686
SEQUENCE	-7687
visit	-7688
▁escape	-7689
WISE	-7690
cee	-7691
ration	-7692
))(	-7693
charT	-7694
Cmd	-7695
ining	-7696
HANDLER	-7697
▁operators	-7698
▁DECL	-7699
summary	-7700
▁BlockNumber	-7701
MAND	-7702
ttrait	-7703
DAY	-7704
MERGE	-7705
▁wchar	-7706
Fd	-7707
AUTO	-7708
IRED	-7709
STOP	-7710
▁pOp	-7711
▁larger	-7712
=============*/	-7713
lg	-7714
▁rt	-7715
▁INITIALIZER	-7716
BOR	-7717
▁Thread	-7718
essel	-7719
ipher	-7720
regor	-7721
▁attnum	-7722
cancellation	-7723
experimental	-7724
osed	-7725
ipeline	-7726
oc	-7727
CMD	-7728
▁bms	-7729
changed	-7730
▁sending	-7731
▁xx	-7732
▁cancellation	-7733
▁tx	-7734
MUTEX	-7735
▁Right	-7736
logical	-7737
▁Common	-7738
Gci	-7739
OptInfo	-7740
▁opentelemetry	-7741
"}	-7742
Assign	-7743
exclude	-7744
▁Handle	-7745
,,	-7746
jam	-7747
▁VI	-7748
finite	-7749
INVOKED	-7750
▁job	-7751
ernel	-7752
lpgsql	-7753
morphic	-7754
▁forms	-7755
micro	-7756
lambda	-7757
▁DECLARE	-7758
urity	-7759
▁parts	-7760
thd	-7761
phase	-7762
cannot	-7763
▁ordered	-7764
▁xid	-7765
equals	-7766
ILLEGAL	-7767
▁mapped	-7768
▁asio	-7769
partial	-7770
▁pCur	-7771
▁undo	-7772
PREVENT	-7773
IALIZATION	-7774
mrs	-7775
SES	-7776
▁From	-7777
▁plus	-7778
senderData	-7779
▁ng	-7780
plit	-7781
FILTER	-7782
definition	-7783
zen	-7784
▁%[	-7785
▁//{	-7786
multirange	-7787
OutputStream	-7788
SEG	-7789
▁xml	-7790
promote	-7791
snapshot	-7792
▁permitted	-7793
SEC	-7794
▁XLOG	-7795
▁ttrait	-7796
▁''	-7797
IGHT	-7798
▁NEG	-7799
▁Attr	-7800
▁Record	-7801
▁reached	-7802
/*_	-7803
▁"=	-7804
VARIABLE	-7805
.%	-7806
▁includes	-7807
▁signature	-7808
▁connections	-7809
TOO	-7810
sds	-7811
percent	-7812
▁region	-7813
▁survey	-7814
crypt	-7815
OGRAPH	-7816
▁Mutable	-7817
SUM	-7818
PLAT	-7819
Month	-7820
Search	-7821
▁FieldDescriptor	-7822
atest	-7823
Interp	-7824
▁guard	-7825
▁processed	-7826
SUBSTITUTION	-7827
IRECT	-7828
LabelFlags	-7829
**********/	-7830
GLOBAL	-7831
IsA	-7832
▁IDE	-7833
▁Order	-7834
Day	-7835
▁maint	-7836
▁handles	-7837
Ord	-7838
▁representing	-7839
▁norm	-7840
CHANNEL	-7841
ik	-7842
Tick	-7843
▁User	-7844
nothrow	-7845
▁PRIVATE	-7846
▁prepared	-7847
▁DIRECT	-7848
▁conside	-7849
mis	-7850
▁among	-7851
Returns	-7852
▁Segment	-7853
MM	-7854
▁EVP	-7855
ABASE	-7856
cases	-7857
▁respons	-7858
lh	-7859
asci	-7860
▁behalf	-7861
▁retrie	-7862
ternative	-7863
>*	-7864
RB	-7865
sequent	-7866
OOT	-7867
▁inv	-7868
iation	-7869
CAP	-7870
▁considered	-7871
NN	-7872
UAL	-7873
clauses	-7874
▁represents	-7875
Des	-7876
epoch	-7877
▁Sets	-7878
)&	-7879
▁':	-7880
INAL	-7881
▁CLIENT	-7882
mmutable	-7883
InputIterator	-7884
+\	-7885
Lcp	-7886
AVAIL	-7887
▁SU	-7888
▁div	-7889
▁____	-7890
Throws	-7891
kernel	-7892
snprintf	-7893
Xid	-7894
started	-7895
▁fcinfo	-7896
/////////	-7897
div	-7898
▁Stream	-7899
▁sequences	-7900
DESC	-7901
MARK	-7902
___|	-7903
rink	-7904
locks	-7905
▁indicating	-7906
▁compatibility	-7907
dl	-7908
LEMENT	-7909
Calendar	-7910
YP	-7911
llegal	-7912
coordinate	-7913
Lu	-7914
Port	-7915
▁matched	-7916
▁security	-7917
PlannerInfo	-7918
▁bitmap	-7919
TING	-7920
ceeded	-7921
IBLE	-7922
▁packed	-7923
▁NdbQuery	-7924
special	-7925
▁TransactionId	-7926
lang	-7927
▁holding	-7928
directory	-7929
▁tp	-7930
ALWAYS	-7931
▁positive	-7932
CLA	-7933
▁fall	-7934
anning	-7935
isting	-7936
▁srcSize	-7937
OidIsValid	-7938
RAND	-7939
rist	-7940
RefCount	-7941
serializer	-7942
iDi	-7943
Import	-7944
▁charT	-7945
Symbols	-7946
▁HEADER	-7947
▁suffix	-7948
▁yield	-7949
IBILITY	-7950
atio	-7951
handl	-7952
leter	-7953
Decimal	-7954
;\	-7955
OPTIONS	-7956
UCONFIG	-7957
dispatch	-7958
INTERCEPT	-7959
▁everything	-7960
▁ll	-7961
sshc	-7962
balancing	-7963
maybe	-7964
sqlca	-7965
Helper	-7966
▁CMD	-7967
▁hard	-7968
▁delay	-7969
agement	-7970
ов	-7971
>*)	-7972
eep	-7973
POST	-7974
Weight	-7975
▁IDENT	-7976
/%	-7977
Guard	-7978
undo	-7979
▁HOLD	-7980
LbConfig	-7981
retry	-7982
PASS	-7983
enter	-7984
▁area	-7985
▁accum	-7986
ircular	-7987
Database	-7988
IFICATION	-7989
▁EP	-7990
zErr	-7991
ascii	-7992
stime	-7993
▁fork	-7994
ExtensionRange	-7995
").	-7996
▁RTE	-7997
▁Sto	-7998
FALSE	-7999
=*=*	-8000
▁detect	-8001
▁Property	-8002
▁resources	-8003
PM	-8004
VED	-8005
ysical	-8006
toast	-8007
▁privilege	-8008
Conn	-8009
▁Ind	-8010
gebra	-8011
▁Nothing	-8012
WAL	-8013
Stop	-8014
▁strcmp	-8015
stage	-8016
▁FD	-8017
encoded	-8018
structures	-8019
▁insertion	-8020
=$	-8021
▁(&	-8022
▁ARE	-8023
▁REL	-8024
stere	-8025
▁READ	-8026
scheme	-8027
NOM	-8028
TRUE	-8029
requestInfo	-8030
Rpc	-8031
abel	-8032
▁gbt	-8033
_____|	-8034
arness	-8035
ен	-8036
___/	-8037
chedul	-8038
strcasecmp	-8039
urto	-8040
▁signals	-8041
composite	-8042
DIF	-8043
▁\|	-8044
resses	-8045
duction	-8046
▁INCLUDING	-8047
FFF	-8048
TabPtr	-8049
▁commun	-8050
"',	-8051
COVER	-8052
PLUGIN	-8053
▁implements	-8054
MAG	-8055
▁\_\	-8056
ONENT	-8057
SACTION	-8058
▁marked	-8059
small	-8060
imated	-8061
|_|	-8062
▁<|	-8063
ters	-8064
plane	-8065
▁jint	-8066
▁implicit	-8067
FP	-8068
ane	-8069
▁yes	-8070
▁offsets	-8071
FieldType	-8072
▁pointing	-8073
▁Pa	-8074
▁__|	-8075
▁___|	-8076
▁segments	-8077
\___/	-8078
allowed	-8079
▁Helper	-8080
StringInfoString	-8081
CFG	-8082
THON	-8083
▁|_)	-8084
▁|_|	-8085
▁(__|	-8086
▁|___	-8087
scoped	-8088
boundary	-8089
▁hostname	-8090
▁\___|	-8091
\___/|_|	-8092
▁\_\_____|	-8093
▁unordered	-8094
▁\___|\___/|_|	-8095
crc	-8096
ales	-8097
FILES	-8098
itory	-8099
RESP	-8100
Packed	-8101
▁PROVI	-8102
▁successfully	-8103
getValue	-8104
KeyReq	-8105
por	-8106
lish	-8107
▁Parser	-8108
Bind	-8109
▁Alter	-8110
ра	-8111
pOp	-8112
NOTHROW	-8113
UID	-8114
ENCO	-8115
▁HAS	-8116
▁infof	-8117
▁Destruct	-8118
▁serialized	-8119
▁Contributed	-8120
PFS	-8121
acro	-8122
▁EXISTS	-8123
▁released	-8124
▁diagnostic	-8125
LT	-8126
ond	-8127
▁gpr	-8128
Records	-8129
▁exclusive	-8130
BOUND	-8131
▁starts	-8132
VALUES	-8133
DStream	-8134
▁lsn	-8135
▁Util	-8136
▁GTEST	-8137
▁settings	-8138
dependencies	-8139
\'	-8140
Vfs	-8141
Optional	-8142
Wh	-8143
adix	-8144
Exporter	-8145
CY	-8146
▁POS	-8147
compar	-8148
▁SHALL	-8149
▁dropped	-8150
Parameters	-8151
ICY	-8152
▁mer	-8153
two	-8154
▁\'	-8155
▁GUC	-8156
▁SIG	-8157
▁EXPRE	-8158
▁transport	-8159
MUTABLE	-8160
pu	-8161
▁Ver	-8162
Extra	-8163
▁ROUTER	-8164
HttpConnection	-8165
▁visit	-8166
RecAttr	-8167
▁produce	-8168
RouteAction	-8169
▁functional	-8170
▁Constructor	-8171
▁compilers	-8172
CARD	-8173
Make	-8174
area	-8175
sorted	-8176
▁environment	-8177
NEW	-8178
xCF	-8179
*/,	-8180
▁LD	-8181
▁MIN	-8182
TESTS	-8183
▁trie	-8184
RecSignal	-8185
)+	-8186
YY	-8187
▁rw	-8188
await	-8189
▁VIEW	-8190
▁past	-8191
▁uchar	-8192
ASL	-8193
▁ATT	-8194
eration	-8195
▁DAMAGES	-8196
Extensions	-8197
Fn	-8198
Tup	-8199
Auto	-8200
uuid	-8201
▁filled	-8202
usters	-8203
execution	-8204
times	-8205
Phrase	-8206
MethodGet	-8207
▁checksum	-8208
Trie	-8209
▁Non	-8210
leanup	-8211
certificate	-8212
▁addRecSignal	-8213
▁gist	-8214
hold	-8215
▁TIME	-8216
******	-8217
sy	-8218
cha	-8219
perl	-8220
alive	-8221
bi	-8222
edges	-8223
▁procedure	-8224
्र	-8225
▁));	-8226
ATURE	-8227
▁hand	-8228
vertices	-8229
▁Regents	-8230
▁initialization	-8231
LOCKED	-8232
errmsg	-8233
▁gcall	-8234
PROPERTY	-8235
inuation	-8236
TestAllTypes	-8237
Mat	-8238
Words	-8239
resolve	-8240
▁CONSTR	-8241
▁packet	-8242
▁Register	-8243
EDURE	-8244
▁factory	-8245
arm	-8246
▁Americ	-8247
restarter	-8248
Ctl	-8249
ram	-8250
▁Allow	-8251
ha	-8252
logy	-8253
▁promote	-8254
Uninterpreted	-8255
DONE	-8256
pers	-8257
ISING	-8258
uzz	-8259
gnore	-8260
FunctionCall	-8261
▁SPI	-8262
ptrdiff	-8263
exchange	-8264
>());	-8265
arrow	-8266
crete	-8267
▁Repe	-8268
▁moved	-8269
▁stepper	-8270
ByteBuffer	-8271
initializer	-8272
▁requirements	-8273
ACU	-8274
CERT	-8275
ADATA	-8276
ETHER	-8277
ALTER	-8278
compat	-8279
ATES	-8280
when	-8281
attno	-8282
INTERFACE	-8283
tesian	-8284
OrCreate	-8285
ARM	-8286
endian	-8287
dirty	-8288
▁cs	-8289
Short	-8290
pExpr	-8291
startup	-8292
▁PROVIDED	-8293
▁RFC	-8294
ARIES	-8295
USING	-8296
Scoped	-8297
▁WHETHER	-8298
▁seen	-8299
▁fully	-8300
▁LIABLE	-8301
▁blocking	-8302
▁IOException	-8303
SW	-8304
elf	-8305
▁COLLATE	-8306
▁ops	-8307
GRESS	-8308
DETECT	-8309
Master	-8310
▁Determ	-8311
literator	-8312
▁Exponent	-8313
▁identity	-8314
Pod	-8315
rac	-8316
ACUUM	-8317
▁View	-8318
APPEND	-8319
▁ARISING	-8320
▁Maximum	-8321
▁CONTRACT	-8322
__(	-8323
orary	-8324
sumer	-8325
▁applied	-8326
▁tz	-8327
Mapp	-8328
Unary	-8329
erical	-8330
▁Delete	-8331
Bootstrap	-8332
Attributes	-8333
Typed	-8334
IALIZE	-8335
reinterpret	-8336
dih	-8337
sky	-8338
incip	-8339
kMetric	-8340
▁related	-8341
ulationType	-8342
▁account	-8343
ireFormat	-8344
Serialized	-8345
▁Complexity	-8346
SHORT	-8347
TcPtr	-8348
asing	-8349
Conflict	-8350
loy	-8351
XXXX	-8352
EMALLOC	-8353
ky	-8354
ASY	-8355
fork	-8356
▁OBJ	-8357
▁anyway	-8358
lemented	-8359
Chars	-8360
▁TORT	-8361
TabInfo	-8362
▁linear	-8363
▁instant	-8364
tractor	-8365
infinity	-8366
!=(	-8367
▁Unit	-8368
▁IDEOGRAPH	-8369
▁ValueType	-8370
xed	-8371
▁whose	-8372
)]	-8373
IMP	-8374
DOWN	-8375
▁Cor	-8376
Hello	-8377
▁leading	-8378
([	-8379
ABI	-8380
NET	-8381
ario	-8382
VECTOR	-8383
rozen	-8384
Validate	-8385
▁calendar	-8386
▁constants	-8387
EMPL	-8388
ategor	-8389
dependent	-8390
aio	-8391
▁LLVM	-8392
arguments	-8393
CountedPtr	-8394
fds	-8395
PYTHON	-8396
icator	-8397
▁users	-8398
▁pstate	-8399
playlist	-8400
▁platform	-8401
▁OTHERWISE	-8402
duced	-8403
ARABIC	-8404
▁Perform	-8405
▁held	-8406
methods	-8407
ircle	-8408
cid	-8409
RCLE	-8410
FOUND	-8411
▁False	-8412
latency	-8413
INET	-8414
▁bug	-8415
▁wrap	-8416
compiler	-8417
required	-8418
▁operand	-8419
▁direction	-8420
PUSH	-8421
stored	-8422
▁Assign	-8423
▁jamEntry	-8424
<<(	-8425
AINT	-8426
ysis	-8427
▁power	-8428
▁ones	-8429
▁synchron	-8430
LIBRARIES	-8431
xp	-8432
classic	-8433
▁relative	-8434
ifications	-8435
BlockNumber	-8436
SYS	-8437
────	-8438
paths	-8439
▁Frag	-8440
▁constructed	-8441
▁д	-8442
mpfr	-8443
▁FSM	-8444
▁SPEC	-8445
▁care	-8446
entral	-8447
evaluate	-8448
▁general	-8449
▁fs	-8450
▁dtl	-8451
▁Archive	-8452
▁further	-8453
_::	-8454
','_	-8455
PRED	-8456
repeat	-8457
ecution	-8458
erest	-8459
▁arbit	-8460
▁closure	-8461
▁checkpoint	-8462
OPTS	-8463
Push	-8464
▁'',	-8465
▁ARR	-8466
▁ONLY	-8467
▁happens	-8468
nb	-8469
limiter	-8470
Mn	-8471
yze	-8472
Chain	-8473
▁thus	-8474
▁EXPRESS	-8475
▁plpgsql	-8476
ATEG	-8477
▁codes	-8478
STRATEG	-8479
▁Duration	-8480
%%	-8481
ABSL	-8482
sinu	-8483
Member	-8484
rogate	-8485
irector	-8486
ALLOW	-8487
▁Struct	-8488
llu	-8489
▁writes	-8490
▁vertices	-8491
rip	-8492
COLUMN	-8493
usable	-8494
derived	-8495
resolver	-8496
▁tupdesc	-8497
▁callbacks	-8498
▁LSN	-8499
▁three	-8500
TESTALL	-8501
TESTALLTYPES	-8502
GRAM	-8503
UPPER	-8504
▁steps	-8505
reserved	-8506
▁प	-8507
▁bt	-8508
ilon	-8509
▁holds	-8510
▁creating	-8511
▁Predicate	-8512
▁tokens	-8513
GrpcService	-8514
xcom	-8515
poser	-8516
Resize	-8517
grammar	-8518
▁simply	-8519
pCsr	-8520
▁Valid	-8521
▁relid	-8522
▁calculate	-8523
ExclusiveLock	-8524
fil	-8525
▁HI	-8526
▁Us	-8527
','_','	-8528
▁depth	-8529
Elements	-8530
specified	-8531
▁relations	-8532
та	-8533
Root	-8534
getPtr	-8535
▁states	-8536
Av	-8537
▁clients	-8538
▁aggregate	-8539
UMP	-8540
Second	-8541
hugo	-8542
▁Pri	-8543
costs	-8544
pgSQL	-8545
▁correctly	-8546
Clo	-8547
fdw	-8548
▁discarded	-8549
Ent	-8550
cognized	-8551
mutation	-8552
▁composite	-8553
GCI	-8554
fsm	-8555
▁ce	-8556
▁front	-8557
▁XLogRecPtr	-8558
({	-8559
gil	-8560
▁By	-8561
ABEL	-8562
▁Should	-8563
DateTime	-8564
Reserved	-8565
,\	-8566
tf	-8567
pol	-8568
▁ld	-8569
Note	-8570
▁Don	-8571
▁lif	-8572
icates	-8573
▁Service	-8574
▁estimate	-8575
udit	-8576
▁locked	-8577
pository	-8578
regclass	-8579
WK	-8580
ICE	-8581
SIB	-8582
Than	-8583
▁lazy	-8584
NotNull	-8585
routine	-8586
▁extended	-8587
pFile	-8588
▁ulong	-8589
)>::	-8590
Script	-8591
alignment	-8592
▁fallback	-8593
UA	-8594
ceeds	-8595
illis	-8596
izing	-8597
tableId	-8598
FieldSet	-8599
BR	-8600
aging	-8601
▁seems	-8602
▁Christ	-8603
opr	-8604
ogus	-8605
accept	-8606
▁Plan	-8607
Bundle	-8608
▁manip	-8609
parator	-8610
icer	-8611
BSD	-8612
▁connected	-8613
bn	-8614
orse	-8615
▁Mat	-8616
decoded	-8617
▁symbols	-8618
▁ii	-8619
NewRequest	-8620
▁CI	-8621
(...)	-8622
;;)	-8623
CApi	-8624
aaaa	-8625
Pending	-8626
▁python	-8627
NSM	-8628
iving	-8629
▁ClassT	-8630
pCur	-8631
▁DEP	-8632
LOWER	-8633
secret	-8634
▁freed	-8635
▁adding	-8636
ENCODING	-8637
FieldDef	-8638
▁children	-8639
irectories	-8640
GSS	-8641
usy	-8642
Java	-8643
bv	-8644
▁Le	-8645
intl	-8646
OOP	-8647
TES	-8648
ADAPT	-8649
localhost	-8650
Other	-8651
velopers	-8652
▁PK	-8653
PtrI	-8654
clist	-8655
Vertex	-8656
Bitmask	-8657
aggregate	-8658
Rest	-8659
lazy	-8660
▁STEP	-8661
▁statements	-8662
bm	-8663
uses	-8664
Enabled	-8665
licas	-8666
Secret	-8667
▁Backend	-8668
▁pthread	-8669
fault	-8670
▁linked	-8671
▁fraction	-8672
▁RelOptInfo	-8673
vered	-8674
PATHNAME	-8675
weak	-8676
mapping	-8677
INK	-8678
Kind	-8679
LEAF	-8680
Prev	-8681
extended	-8682
CONNECTION	-8683
emalloc	-8684
▁follows	-8685
▁substit	-8686
orrow	-8687
▁Load	-8688
▁rtree	-8689
▁sizes	-8690
charset	-8691
regorian	-8692
RANDOM	-8693
getmsg	-8694
ookies	-8695
commands	-8696
override	-8697
Completed	-8698
▁possibly	-8699
lu	-8700
▁vis	-8701
STRICT	-8702
xl	-8703
ILL	-8704
etime	-8705
Construct	-8706
TIMESTAMP	-8707
▁implementations	-8708
Alter	-8709
super	-8710
ByNumber	-8711
▁individ	-8712
▁comments	-8713
mul	-8714
uprv	-8715
▁UNIV	-8716
▁servers	-8717
mq	-8718
▁к	-8719
ale	-8720
what	-8721
previous	-8722
Completion	-8723
▁TupleTableSlot	-8724
vanced	-8725
SPI	-8726
ERRUPT	-8727
▁epoch	-8728
▁creates	-8729
▁strategies	-8730
ার	-8731
▁"--	-8732
AGAIN	-8733
bitmap	-8734
▁loaded	-8735
▁IMMUTABLE	-8736
ONCE	-8737
▁scheme	-8738
Settings	-8739
=>	-8740
▁CAST	-8741
▁Shared	-8742
Jim	-8743
vs	-8744
&);	-8745
exprs	-8746
mprintf	-8747
MemoryContext	-8748
StrategyNumber	-8749
▁plain	-8750
▁padding	-8751
▁creation	-8752
bk	-8753
oi	-8754
CAL	-8755
▁ASCII	-8756
SECTION	-8757
▁satisf	-8758
▁separator	-8759
ECD	-8760
Bulk	-8761
NoBody	-8762
STREAMS	-8763
▁extends	-8764
▁followed	-8765
▁collection	-8766
sey	-8767
TYPEOF	-8768
▁project	-8769
▁snprintf	-8770
;;;	-8771
DOUBLE	-8772
vision	-8773
▁Basic	-8774
RESSION	-8775
EXCLUSIVE	-8776
lapsed	-8777
▁reach	-8778
▁Dict	-8779
emplace	-8780
spheroid	-8781
▁Library	-8782
▁SPECIAL	-8783
LYPH	-8784
VIS	-8785
ius	-8786
▁rax	-8787
cached	-8788
▁logic	-8789
▁likely	-8790
▁consumed	-8791
RandomAccess	-8792
▁toast	-8793
▁Properties	-8794
@\	-8795
▁CURLU	-8796
getDataPtrSend	-8797
▁SE	-8798
▁TM	-8799
istency	-8800
▁deprecated	-8801
TCP	-8802
lev	-8803
▁Text	-8804
IsAlternate	-8805
▁mb	-8806
ATAL	-8807
arily	-8808
ializable	-8809
Can	-8810
[],	-8811
expire	-8812
▁ssize	-8813
▁ordering	-8814
▁contained	-8815
Remove	-8816
bounds	-8817
▁repro	-8818
▁probably	-8819
GetOrCreate	-8820
vis	-8821
acade	-8822
ifest	-8823
▁reduce	-8824
INTERVAL	-8825
▁grouping	-8826
Allow	-8827
▁MATCH	-8828
andshaker	-8829
AK	-8830
▁VER	-8831
▁Creates	-8832
jw	-8833
▁lin	-8834
xFA	-8835
▁ax	-8836
▁CPU	-8837
▁fit	-8838
▁ZERO	-8839
memcpy	-8840
PLATFORM	-8841
MY	-8842
▁pIdx	-8843
▁logPart	-8844
Lay	-8845
▁TEXT	-8846
OPERATION	-8847
abilities	-8848
▁pid	-8849
gtest	-8850
health	-8851
Started	-8852
verbose	-8853
FieldMap	-8854
available	-8855
remaining	-8856
hex	-8857
mtx	-8858
▁lon	-8859
receive	-8860
Register	-8861
DownCounter	-8862
asl	-8863
orig	-8864
▁Dblqh	-8865
▁PLUGIN	-8866
▁outside	-8867
Cost	-8868
ause	-8869
▁arch	-8870
pollset	-8871
/////////////	-8872
BOSE	-8873
gtid	-8874
detect	-8875
▁Merge	-8876
SESSION	-8877
▁COMPAT	-8878
mid	-8879
▁pc	-8880
BLOB	-8881
arma	-8882
ahead	-8883
▁dctx	-8884
states	-8885
MI	-8886
ONSE	-8887
▁smaller	-8888
trp	-8889
triv	-8890
▁bar	-8891
ppers	-8892
trivial	-8893
ALGORITHMS	-8894
Tbl	-8895
▁CR	-8896
harness	-8897
▁MD	-8898
WARD	-8899
AFTER	-8900
▁"../	-8901
UNIQUE	-8902
histogram	-8903
]),	-8904
ier	-8905
ostreams	-8906
ategories	-8907
Namespace	-8908
xlog	-8909
Telemetry	-8910
xdrs	-8911
▁ucnv	-8912
inline	-8913
coroutine	-8914
▁configured	-8915
ExtensionConfig	-8916
TRAIT	-8917
region	-8918
▁ForwardOp	-8919
FileOptions	-8920
bms	-8921
evt	-8922
▁REC	-8923
CLANG	-8924
pdata	-8925
▁Close	-8926
▁Print	-8927
▁systems	-8928
▁American	-8929
hn	-8930
(("	-8931
mitted	-8932
▁GRANT	-8933
populate	-8934
▁ndbassert	-8935
AGER	-8936
SKIP	-8937
▁cell	-8938
icated	-8939
Primary	-8940
streams	-8941
prop	-8942
▁del	-8943
▁Pos	-8944
BEAST	-8945
▁secret	-8946
COMPLETE	-8947
SEQUENTIAL	-8948
yer	-8949
Anum	-8950
▁vide	-8951
herical	-8952
GC	-8953
SZ	-8954
tel	-8955
STEP	-8956
matched	-8957
tracking	-8958
▁CONSTRAINT	-8959
qi	-8960
AES	-8961
classes	-8962
▁HOLDERS	-8963
orderBuffer	-8964
natts	-8965
▁redo	-8966
▁period	-8967
UpDownCounter	-8968
aped	-8969
edia	-8970
Delta	-8971
predef	-8972
▁Checked	-8973
▁contribut	-8974
▁dependencies	-8975
ANA	-8976
▁START	-8977
▁scans	-8978
NdbOperation	-8979
groups	-8980
Interpre	-8981
icz	-8982
dummy	-8983
magic	-8984
throws	-8985
EI	-8986
▁far	-8987
pNext	-8988
▁ک	-8989
▁um	-8990
tlist	-8991
tlp	-8992
▁ke	-8993
▁===	-8994
▁blk	-8995
posed	-8996
Protobuf	-8997
ufficient	-8998
!!	-8999
Right	-9000
▁PROF	-9001
boolean	-9002
▁Compute	-9003
▁subsequent	-9004
▁Gcs	-9005
stree	-9006
▁taken	-9007
Instrument	-9008
▁IPv	-9009
THREADS	-9010
▁various	-9011
*********	-9012
▁dependency	-9013
ре	-9014
inet	-9015
minus	-9016
plans	-9017
raise	-9018
ASSIGN	-9019
ulkiew	-9020
▁branch	-9021
AccessLog	-9022
Pages	-9023
▁Adam	-9024
▁COMMIT	-9025
▁aligned	-9026
Uninitialized	-9027
DIAN	-9028
IDTH	-9029
strn	-9030
▁things	-9031
requires	-9032
▁triggers	-9033
▁errdetail	-9034
▁SYMBOL	-9035
▁kernel	-9036
THD	-9037
Final	-9038
STORE	-9039
ritical	-9040
mfprintf	-9041
constructor	-9042
HI	-9043
ctrl	-9044
restrict	-9045
referenced	-9046
▁WR	-9047
Printer	-9048
Operations	-9049
▁reproduce	-9050
▁BUS	-9051
▁lcp	-9052
▁tid	-9053
▁ItemPointer	-9054
sep	-9055
▁"+	-9056
STATS	-9057
▁objv	-9058
Lookup	-9059
▁Dimension	-9060
OSS	-9061
cfg	-9062
INSTALL	-9063
▁COLUMN	-9064
▁BU	-9065
▁route	-9066
DISCARD	-9067
Collation	-9068
▁TimeZone	-9069
LC	-9070
istinct	-9071
CJK	-9072
**:	-9073
upgrade	-9074
limb	-9075
▁adapt	-9076
▁mysqld	-9077
METADATA	-9078
▁Wulkiew	-9079
▁JEMALLOC	-9080
▁Wulkiewicz	-9081
tage	-9082
▁&);	-9083
▁model	-9084
Failure	-9085
INUE	-9086
▁crash	-9087
CLASSIC	-9088
inator	-9089
▁INTERNAL	-9090
▁Cord	-9091
▁Filter	-9092
strerror	-9093
Transactions	-9094
▁COMPATIBILITY	-9095
font	-9096
▁deal	-9097
▁going	-9098
▁Repeated	-9099
▁intended	-9100
▁OWNER	-9101
▁supplied	-9102
▁cc	-9103
UnicodeString	-9104
HS	-9105
BAR	-9106
eps	-9107
hds	-9108
▁(`	-9109
NOMEM	-9110
Routes	-9111
▁clang	-9112
UNICODE	-9113
cstddef	-9114
GetArray	-9115
inst	-9116
AMPLE	-9117
Mysql	-9118
▁TRAN	-9119
ERRUPTION	-9120
ags	-9121
▁>&	-9122
Main	-9123
▁FTP	-9124
▁Then	-9125
▁pull	-9126
▁ClassA	-9127
▁RandomAccess	-9128
▁INC	-9129
▁GOOGLE	-9130
FONT	-9131
WAVE	-9132
▁stand	-9133
Pk	-9134
▁'*	-9135
pixel	-9136
LIKELY	-9137
UREMENT	-9138
▁Bitmap	-9139
▁histogram	-9140
▁guaranteed	-9141
NG	-9142
▁collect	-9143
▁workers	-9144
▁serialization	-9145
MRS	-9146
Rows	-9147
COSTS	-9148
ORDERED	-9149
requests	-9150
bg	-9151
psi	-9152
▁'"	-9153
Skip	-9154
anal	-9155
Print	-9156
▁cred	-9157
▁mpfr	-9158
Methods	-9159
references	-9160
wk	-9161
Equals	-9162
mapped	-9163
logging	-9164
▁corrup	-9165
Security	-9166
▁Network	-9167
▁unittest	-9168
▁processes	-9169
}")	-9170
quic	-9171
▁Func	-9172
▁Pass	-9173
▁ures	-9174
cratch	-9175
▁cycle	-9176
regation	-9177
▁Integer	-9178
▁ObjectAddress	-9179
bu	-9180
Plugin	-9181
▁INDIRECT	-9182
▁suit	-9183
cheduler	-9184
▁increase	-9185
LQH	-9186
▁dd	-9187
▁Wal	-9188
Tables	-9189
latest	-9190
▁title	-9191
RG	-9192
dam	-9193
▁Vdbe	-9194
▁four	-9195
▁propa	-9196
IMPORTS	-9197
▁NdbRecord	-9198
OffsetNumber	-9199
▁connectdata	-9200
PLUS	-9201
alts	-9202
otic	-9203
▁hex	-9204
▁icu	-9205
TRAIL	-9206
▁Pred	-9207
▁POSSIB	-9208
pdf	-9209
▁DEB	-9210
▁EXT	-9211
krass	-9212
TRANSP	-9213
Recovery	-9214
sensitive	-9215
▁ا	-9216
▁gin	-9217
▁unary	-9218
WIDTH	-9219
▁RIGHT	-9220
▁opened	-9221
checksum	-9222
CONVERSION	-9223
Sup	-9224
EMAT	-9225
▁Act	-9226
paque	-9227
▁robj	-9228
ercent	-9229
▁assigned	-9230
unexpected	-9231
▁unitMetric	-9232
▁descrMetric	-9233
lek	-9234
▁Added	-9235
▁DISCLA	-9236
EMATICAL	-9237
▁["	-9238
▁working	-9239
▁CONSEQUENTIAL	-9240
lined	-9241
▁Andre	-9242
▁testcase	-9243
▁Implement	-9244
▁Fs	-9245
USTER	-9246
VISED	-9247
▁buff	-9248
▁choose	-9249
▁little	-9250
▁Callback	-9251
▁addition	-9252
▁AP	-9253
FET	-9254
ATER	-9255
clrk	-9256
period	-9257
▁PROFITS	-9258
^^	-9259
▁HA	-9260
Week	-9261
▁Ter	-9262
unnel	-9263
▁duplicate	-9264
WO	-9265
▁xdr	-9266
▁hashtable	-9267
bio	-9268
▁bro	-9269
Based	-9270
ENDED	-9271
▁EVEN	-9272
uintptr	-9273
▁Agg	-9274
▁WIN	-9275
▁sol	-9276
▁services	-9277
irm	-9278
▁rng	-9279
▁mechan	-9280
▁EXECUTE	-9281
▁PROCEDURE	-9282
TZ	-9283
hu	-9284
pat	-9285
YEAR	-9286
▁pot	-9287
▁UDAT	-9288
▁handlers	-9289
▁que	-9290
GENCE	-9291
REPLY	-9292
▁edges	-9293
Display	-9294
▁Buffers	-9295
▁machine	-9296
▁partitioned	-9297
▁lg	-9298
▁ROLE	-9299
LIGENCE	-9300
configs	-9301
Fun	-9302
North	-9303
▁LOSS	-9304
▁NEGLIGENCE	-9305
_*	-9306
Malloc	-9307
quiet	-9308
Random	-9309
Fin	-9310
▁sym	-9311
ATING	-9312
▁adjac	-9313
▁across	-9314
▁coding	-9315
TSAN	-9316
take	-9317
▁SUCH	-9318
▁ring	-9319
▁MaxBits	-9320
▁INCIDENT	-9321
▁dyn	-9322
veral	-9323
▁subquery	-9324
CRED	-9325
▁//#	-9326
▁hdr	-9327
▁Scen	-9328
▁Implementation	-9329
[[	-9330
Jni	-9331
dopt	-9332
▁Man	-9333
strategies	-9334
▁Partition	-9335
web	-9336
owsky	-9337
riction	-9338
TRANSPORT	-9339
rassowsky	-9340
▁TK	-9341
parted	-9342
package	-9343
▁projection	-9344
▁significant	-9345
seed	-9346
▁queries	-9347
une	-9348
▁Cons	-9349
▁structures	-9350
RIE	-9351
opaque	-9352
EATURE	-9353
openssl	-9354
relkind	-9355
decltype	-9356
settings	-9357
Shm	-9358
udo	-9359
JOIN	-9360
correct	-9361
▁ADVISED	-9362
Krassowsky	-9363
▁POSSIBILITY	-9364
RepeatedField	-9365
▁Ob	-9366
LIBS	-9367
Sets	-9368
Unlock	-9369
▁CURRENT	-9370
▁INCIDENTAL	-9371
▁WAY	-9372
WEVER	-9373
▁DAMAGE	-9374
Increment	-9375
▁important	-9376
IDs	-9377
▁Select	-9378
currency	-9379
▁HOWEVER	-9380
▁locking	-9381
▁Policies	-9382
packet	-9383
endable	-9384
isEmpty	-9385
DES	-9386
▁wra	-9387
UNARY	-9388
▁SUBSTIT	-9389
libraries	-9390
BS	-9391
ро	-9392
Job	-9393
squ	-9394
▁pCsr	-9395
▁taking	-9396
Sum	-9397
▁ns	-9398
ARGE	-9399
AddOp	-9400
▁Long	-9401
Ts	-9402
CLE	-9403
RSA	-9404
INESS	-9405
▁away	-9406
DISTRIB	-9407
▁CAUSED	-9408
noexcept	-9409
▁depending	-9410
msm	-9411
pow	-9412
▁(;	-9413
▁/=	-9414
▁Fail	-9415
sxlock	-9416
▁cookie	-9417
negative	-9418
▁materials	-9419
Sample	-9420
ariadic	-9421
Receiver	-9422
▁acquire	-9423
formatter	-9424
▁interest	-9425
>("	-9426
▁Res	-9427
ltree	-9428
▁hour	-9429
istream	-9430
▁indexed	-9431
Transporter	-9432
▁SUBSTITUTE	-9433
Disk	-9434
Pres	-9435
levant	-9436
▁Ensure	-9437
NODISCARD	-9438
fi	-9439
▁tt	-9440
LLBACK	-9441
▁SERVICES	-9442
▁mt	-9443
▁GETSTRUCT	-9444
▁INTERRUPTION	-9445
▁THEORY	-9446
LAY	-9447
EMPLARY	-9448
chedule	-9449
▁EXEMPLARY	-9450
bp	-9451
RED	-9452
▁Env	-9453
▁GOODS	-9454
urtovoy	-9455
▁BUSINESS	-9456
▁finished	-9457
▁DISCLAIMED	-9458
▁PROCUREMENT	-9459
PPING	-9460
FMT	-9461
FLOW	-9462
▁pNdb	-9463
▁|\	-9464
▁equality	-9465
)!=	-9466
seek	-9467
gether	-9468
▁Clear	-9469
relname	-9470
▁Gurtovoy	-9471
ExtensionLite	-9472
arke	-9473
tems	-9474
▁UNU	-9475
visible	-9476
▁percent	-9477
beast	-9478
▁cond	-9479
▁treat	-9480
▁UNUSED	-9481
▁resulting	-9482
▁PointerGetDatum	-9483
DOC	-9484
▁UCAL	-9485
▁cross	-9486
▁backends	-9487
rf	-9488
POLY	-9489
▁chk	-9490
LETED	-9491
guide	-9492
leksey	-9493
clusion	-9494
googlemock	-9495
▁efficient	-9496
▁components	-9497
Addr	-9498
Collection	-9499
allocation	-9500
conditional	-9501
ст	-9502
&>::	-9503
EROG	-9504
boring	-9505
▁VALUE	-9506
EROGLYPH	-9507
Mt	-9508
##_	-9509
HEL	-9510
Timer	-9511
getInt	-9512
▁shouldn	-9513
▁rollback	-9514
Aux	-9515
▁Gets	-9516
linear	-9517
▁Options	-9518
+=	-9519
VOY	-9520
rer	-9521
Transport	-9522
▁quicklist	-9523
lies	-9524
▁libpq	-9525
▁Aleksey	-9526
▁individual	-9527
REPLIC	-9528
▁reads	-9529
SUBTYPE	-9530
Virtual	-9531
ADDR	-9532
Depend	-9533
▁nByte	-9534
rewrite	-9535
NaN	-9536
▁Anum	-9537
▁They	-9538
▁refer	-9539
arithmetic	-9540
ALY	-9541
POLICY	-9542
▁recursive	-9543
▁si	-9544
Year	-9545
sect	-9546
WRAPP	-9547
exclusive	-9548
signaldata	-9549
pPager	-9550
▁priority	-9551
▁temporal	-9552
▁HIEROGLYPH	-9553
BAS	-9554
ole	-9555
▁didn	-9556
▁leak	-9557
counted	-9558
varchar	-9559
▁opaque	-9560
Locality	-9561
▁Decimal	-9562
platforms	-9563
▁ByteBuffer	-9564
rfc	-9565
▁repl	-9566
interview	-9567
Cols	-9568
hell	-9569
▁Seq	-9570
notify	-9571
nil	-9572
▁'[	-9573
MBCS	-9574
UNIX	-9575
tick	-9576
unix	-9577
▁Bidi	-9578
▁trying	-9579
▁optimization	-9580
eof	-9581
ighe	-9582
VdbeAddOp	-9583
ILD	-9584
▁TCP	-9585
▁xxh	-9586
▁EDIT	-9587
loworld	-9588
&&...	-9589
▁archive	-9590
IOSTREAMS	-9591
executable	-9592
▁definitions	-9593
PUN	-9594
UTES	-9595
abseil	-9596
Logical	-9597
holders	-9598
conflict	-9599
▁construction	-9600
▁mid	-9601
logic	-9602
Events	-9603
legate	-9604
account	-9605
▁counts	-9606
▁however	-9607
Batch	-9608
NODES	-9609
Relid	-9610
▁CURLUE	-9611
▁OffsetNumber	-9612
GCS	-9613
BYTES	-9614
iness	-9615
▁Work	-9616
Listen	-9617
▁partitions	-9618
pCtx	-9619
TEMPLATES	-9620
DEN	-9621
roid	-9622
ropy	-9623
typid	-9624
▁device	-9625
RESPONSE	-9626
▁CLUSTER	-9627
▁Constructs	-9628
▁credentials	-9629
Cpu	-9630
▁acl	-9631
iform	-9632
transp	-9633
▁wrapped	-9634
wiki	-9635
▁Fin	-9636
▁shm	-9637
Delay	-9638
Normal	-9639
▁expire	-9640
trailing	-9641
▁fragPtr	-9642
▁rdb	-9643
MAGIC	-9644
▁Match	-9645
Headers	-9646
vl	-9647
Box	-9648
wrong	-9649
▁digest	-9650
ICS	-9651
lack	-9652
▁ENVOY	-9653
▁higher	-9654
exporter	-9655
Hw	-9656
bufq	-9657
World	-9658
JO	-9659
но	-9660
}};	-9661
ROOT	-9662
SENT	-9663
ense	-9664
erce	-9665
alone	-9666
▁dirty	-9667
▁rowid	-9668
▁conven	-9669
Unittest	-9670
standard	-9671
iry	-9672
invo	-9673
▁Let	-9674
boringssl	-9675
<(	-9676
seudo	-9677
deferred	-9678
ordinate	-9679
▁selected	-9680
Ge	-9681
HEAP	-9682
pNew	-9683
extend	-9684
locker	-9685
▁з	-9686
Big	-9687
RAM	-9688
ues	-9689
CSTD	-9690
ohlh	-9691
▁CFG	-9692
EGYPT	-9693
ighest	-9694
ohlhoff	-9695
▁vacuum	-9696
▁warnings	-9697
**)	-9698
pBt	-9699
COPE	-9700
pres	-9701
EGYPTIAN	-9702
▁nodePtr	-9703
▁integers	-9704
statements	-9705
HeapTupleIsValid	-9706
▁cpu	-9707
speed	-9708
COMMAND	-9709
Wrapper	-9710
▁Verify	-9711
defaults	-9712
▁IDENTIFICATION	-9713
)((	-9714
FER	-9715
▁Header	-9716
versioning	-9717
▁declaration	-9718
CKET	-9719
vals	-9720
USAGE	-9721
▁UintR	-9722
▁Neither	-9723
Discovery	-9724
▁canonical	-9725
ui	-9726
WEL	-9727
bitD	-9728
grpcpp	-9729
VERBOSE	-9730
jemalloc	-9731
FindField	-9732
RX	-9733
CCtx	-9734
mysqld	-9735
▁Distance	-9736
NEG	-9737
tempt	-9738
SERVED	-9739
▁pIter	-9740
▁identify	-9741
▁DIG	-9742
sizes	-9743
transId	-9744
grouping	-9745
WithMessage	-9746
Tz	-9747
mtr	-9748
saf	-9749
▁eas	-9750
proje	-9751
Acc	-9752
▁WA	-9753
▁ENDIF	-9754
▁ScanKey	-9755
}\	-9756
Align	-9757
▁ZSTDv	-9758
▁Safety	-9759
▁Second	-9760
(&_	-9761
ifact	-9762
▁North	-9763
Processor	-9764
▁Mach	-9765
▁Completion	-9766
▁objc	-9767
▁sleep	-9768
▁charset	-9769
▁visible	-9770
privilege	-9771
Slice	-9772
▁remo	-9773
actual	-9774
RON	-9775
pin	-9776
▁_,	-9777
▁pin	-9778
Window	-9779
anging	-9780
recovery	-9781
▁sockaddr	-9782
Unexpected	-9783
▁ub	-9784
▁Jsonb	-9785
Boolean	-9786
▁feature	-9787
▁declared	-9788
▁sentinel	-9789
kipedia	-9790
▁products	-9791
ALLOCATION	-9792
''	-9793
distinct	-9794
▁replacement	-9795
lm	-9796
ли	-9797
CRS	-9798
xim	-9799
▁stores	-9800
▁unlock	-9801
▁metrics	-9802
ReplyWith	-9803
▁platforms	-9804
Total	-9805
▁runs	-9806
Replica	-9807
▁scratch	-9808
RM	-9809
::~	-9810
scat	-9811
▁pick	-9812
▁tech	-9813
▁regener	-9814
PROCESSOR	-9815
ParseError	-9816
Edge	-9817
▁":	-9818
▁REQU	-9819
▁pairs	-9820
ossible	-9821
GetString	-9822
▁contributors	-9823
ijing	-9824
▁Rule	-9825
HU	-9826
Lib	-9827
LAST	-9828
▁ide	-9829
▁upon	-9830
expand	-9831
adapter	-9832
predicate	-9833
tsan	-9834
CHUNK	-9835
ESSED	-9836
sqlcode	-9837
FileSize	-9838
pathkeys	-9839
ULD	-9840
too	-9841
ValueType	-9842
ks	-9843
itext	-9844
created	-9845
▁rounding	-9846
jb	-9847
vc	-9848
▁म	-9849
MGM	-9850
oof	-9851
needed	-9852
্য	-9853
FIXED	-9854
▁Scenes	-9855
▁South	-9856
Percent	-9857
Threads	-9858
▁Command	-9859
CSTDFLOAT	-9860
UNORDERED	-9861
fts	-9862
export	-9863
▁Token	-9864
▁lines	-9865
▁notify	-9866
▁several	-9867
PKEY	-9868
▁mtr	-9869
SCOPE	-9870
▁grow	-9871
▁Please	-9872
Clarke	-9873
▁defer	-9874
▁rv	-9875
land	-9876
▁}};	-9877
DTable	-9878
▁Trigger	-9879
▁declare	-9880
▁FORE	-9881
getNum	-9882
▁Dbdict	-9883
multiset	-9884
shar	-9885
receiver	-9886
Less	-9887
lists	-9888
▁Protobuf	-9889
▁Extract	-9890
▁FOREIGN	-9891
)</	-9892
▁dlist	-9893
getDefault	-9894
Pers	-9895
major	-9896
Continue	-9897
▁Session	-9898
▁NdbError	-9899
},{	-9900
▁Sw	-9901
rope	-9902
Where	-9903
▁chars	-9904
▁interrup	-9905
developers	-9906
TRACING	-9907
DNS	-9908
blog	-9909
orca	-9910
ARITY	-9911
▁sqrt	-9912
ISO	-9913
WKND	-9914
("");	-9915
ecause	-9916
ByteString	-9917
aits	-9918
▁crc	-9919
▁scen	-9920
▁builds	-9921
▁terminal	-9922
sem	-9923
▁pow	-9924
Payload	-9925
▁Modifiers	-9926
▁RETURNING	-9927
LSN	-9928
CBOR	-9929
Round	-9930
blkno	-9931
ESSION	-9932
▁faster	-9933
getColumn	-9934
wc	-9935
wide	-9936
EXTRA	-9937
▁encryp	-9938
▁UnicodeSet	-9939
loom	-9940
ASTER	-9941
bessel	-9942
▁shall	-9943
closeTransaction	-9944
BSO	-9945
txn	-9946
▁trees	-9947
▁DOUBLE	-9948
▁ifndef	-9949
▁visitor	-9950
PROCESSED	-9951
▁properly	-9952
▁reported	-9953
▁Determine	-9954
▁ForwardIterator	-9955
▁orig	-9956
BSOLETE	-9957
▁SESSION	-9958
dsa	-9959
ico	-9960
▁pi	-9961
▁sk	-9962
Errors	-9963
CONSTRA	-9964
▁Prepare	-9965
▁building	-9966
']	-9967
LU	-9968
▁ক	-9969
NORE	-9970
idle	-9971
vtype	-9972
objects	-9973
Extendable	-9974
▁CalculationType	-9975
TX	-9976
tri	-9977
purge	-9978
▁Storage	-9979
dll	-9980
▁FP	-9981
ASCI	-9982
EXCL	-9983
ised	-9984
▁fil	-9985
LEASE	-9986
▁Change	-9987
show	-9988
pTrans	-9989
Dup	-9990
Win	-9991
▁rs	-9992
▁ord	-9993
ordering	-9994
▁Numeric	-9995
initialize	-9996
Utf	-9997
IFIER	-9998
dependency	-9999
registered	-10000
river	-10001
restore	-10002
▁making	-10003
▁unsafe	-10004
▁matcher	-10005
▁FF	-10006
▁OVER	-10007
LOCATION	-10008
PROGRESS	-10009
▁Argument	-10010
amaz	-10011
▁jump	-10012
▁FINAL	-10013
monitor	-10014
MATHEMATICAL	-10015
CUN	-10016
svc	-10017
ises	-10018
mgmd	-10019
tool	-10020
Regex	-10021
▁Normal	-10022
▁scoped	-10023
traversal	-10024
consistent	-10025
▁pn	-10026
▁SHA	-10027
▁subs	-10028
▁week	-10029
▁intern	-10030
comput	-10031
▁Stack	-10032
▁FL	-10033
mach	-10034
▁loops	-10035
gc	-10036
fre	-10037
▁EOF	-10038
▁SHO	-10039
▁///<	-10040
▁Cond	-10041
ENDIAN	-10042
Destroy	-10043
ScanDesc	-10044
threshold	-10045
CONSTRAINT	-10046
▁registers	-10047
OOM	-10048
scri	-10049
▁asc	-10050
Split	-10051
php	-10052
▁..	-10053
iser	-10054
▁Async	-10055
▁micro	-10056
Network	-10057
olation	-10058
rela	-10059
▁wor	-10060
▁beg	-10061
▁tenk	-10062
)...);	-10063
ExtMode	-10064
wrapped	-10065
IMPLEMENT	-10066
wikipedia	-10067
▁স	-10068
inux	-10069
cstdint	-10070
▁groups	-10071
LongLong	-10072
▁obtained	-10073
▁skeleton	-10074
▁XXX	-10075
arning	-10076
▁Has	-10077
STAND	-10078
setof	-10079
RequestCtx	-10080
spin	-10081
Eq	-10082
▁Gen	-10083
typed	-10084
▁Cache	-10085
CString	-10086
HA	-10087
serial	-10088
severity	-10089
▁defaults	-10090
▁restarter	-10091
▁и	-10092
▁skipped	-10093
▁decoding	-10094
▁responsible	-10095
)}	-10096
unre	-10097
MONTH	-10098
Share	-10099
▁Like	-10100
tester	-10101
▁stable	-10102
▁formatter	-10103
LZ	-10104
ializing	-10105
best	-10106
Flush	-10107
▁gran	-10108
NORMAL	-10109
semant	-10110
▁tableId	-10111
▁problems	-10112
alpn	-10113
▁early	-10114
ITEM	-10115
Items	-10116
Cleanup	-10117
subject	-10118
rot	-10119
▁AE	-10120
▁sit	-10121
▁carry	-10122
▁owned	-10123
▁xlrec	-10124
GoogleGrpc	-10125
added	-10126
▁thrown	-10127
also	-10128
itecture	-10129
character	-10130
quals	-10131
▁Mode	-10132
▁iCol	-10133
▁Support	-10134
FieldDescriptor	-10135
pv	-10136
IZER	-10137
▁imap	-10138
iration	-10139
wr	-10140
dep	-10141
▁{\	-10142
▁pipe	-10143
','','	-10144
orable	-10145
GD	-10146
`:	-10147
CES	-10148
mapho	-10149
▁Unknown	-10150
▁Sys	-10151
▁cho	-10152
CUNEI	-10153
▁Scal	-10154
Available	-10155
CUNEIFORM	-10156
CacheEntry	-10157
▁eps	-10158
ottom	-10159
TRIGGER	-10160
▁RELKIND	-10161
▁incoming	-10162
uv	-10163
pts	-10164
Qual	-10165
▁Sec	-10166
▁cal	-10167
▁cat	-10168
▁SignType	-10169
mpi	-10170
▁PGDL	-10171
typeof	-10172
▁consume	-10173
▁committed	-10174
trc	-10175
LABEL	-10176
isNull	-10177
Derived	-10178
PRIMARY	-10179
▁respect	-10180
efficient	-10181
▁restrict	-10182
▁represented	-10183
NAMIC	-10184
fname	-10185
Subject	-10186
BoolValue	-10187
zl	-10188
ICK	-10189
Fault	-10190
▁DTK	-10191
pthread	-10192
▁earlier	-10193
▁Reserved	-10194
going	-10195
▁MOCK	-10196
reason	-10197
▁endorse	-10198
▁backward	-10199
▁lockmode	-10200
*>	-10201
hw	-10202
avail	-10203
amazon	-10204
▁nread	-10205
▁layout	-10206
hd	-10207
▁passing	-10208
▁SizeType	-10209
▁terminated	-10210
▁'\"',	-10211
▁actions	-10212
▁globals	-10213
▁history	-10214
▁normalized	-10215
▁ET	-10216
FEATURE	-10217
sterdam	-10218
Am	-10219
reserve	-10220
olf	-10221
INCT	-10222
while	-10223
▁replaced	-10224
Ss	-10225
ometric	-10226
▁together	-10227
saved	-10228
▁slow	-10229
▁spin	-10230
program	-10231
▁Direct	-10232
▁repeat	-10233
▁resize	-10234
▁depends	-10235
▁TestAllTypes	-10236
PN	-10237
्या	-10238
▁reflection	-10239
▁regenerated	-10240
<%	-10241
mas	-10242
pIter	-10243
ENGINE	-10244
accum	-10245
multiply	-10246
PassRange	-10247
▁Amsterdam	-10248
▁md	-10249
▁itr	-10250
Basic	-10251
ENTER	-10252
▁intro	-10253
▁INTEGER	-10254
▁purpose	-10255
▁detected	-10256
▁floating	-10257
phi	-10258
▁ib	-10259
▁pB	-10260
Shmem	-10261
cable	-10262
ensus	-10263
lvalue	-10264
▁DIGIT	-10265
getTable	-10266
▁DESCRIPTOR	-10267
▁SL	-10268
▁Dbt	-10269
▁Sem	-10270
TABSL	-10271
Units	-10272
project	-10273
Fallback	-10274
functional	-10275
▁mechanism	-10276
▁NdbTransaction	-10277
lands	-10278
should	-10279
"`	-10280
্র	-10281
Task	-10282
choo	-10283
Wrong	-10284
HELPER	-10285
▁Dummy	-10286
stepper	-10287
▁OPTION	-10288
▁truncated	-10289
▁ByteString	-10290
RelationName	-10291
де	-10292
++,	-10293
GEST	-10294
must	-10295
INTEGER	-10296
va	-10297
▁©	-10298
VIR	-10299
iph	-10300
▁^=	-10301
lead	-10302
Accept	-10303
ccuracy	-10304
▁FUSION	-10305
▁affect	-10306
▁endian	-10307
priority	-10308
tty	-10309
CORR	-10310
DCtx	-10311
rinfo	-10312
▁weak	-10313
REMOVE	-10314
walker	-10315
realloc	-10316
▁Length	-10317
CONTINUE	-10318
▁CONN	-10319
DECODE	-10320
SECOND	-10321
signature	-10322
CV	-10323
FY	-10324
CPU	-10325
uess	-10326
Width	-10327
south	-10328
▁SASL	-10329
endl	-10330
pOut	-10331
ASCII	-10332
CATCH	-10333
▁aren	-10334
डि	-10335
pDb	-10336
nCol	-10337
▁tick	-10338
HEADERS	-10339
र्	-10340
lena	-10341
ypes	-10342
▁LUA	-10343
among	-10344
poses	-10345
▁Does	-10346
Buffers	-10347
▁buckets	-10348
RedisModuleCtx	-10349
ALYZE	-10350
alter	-10351
vides	-10352
combine	-10353
▁usually	-10354
chooser	-10355
▁Interval	-10356
▁regTcPtr	-10357
ор	-10358
nest	-10359
▁por	-10360
Detail	-10361
▁pFile	-10362
ARCHIVE	-10363
Comment	-10364
▁Report	-10365
▁Explain	-10366
▁attached	-10367
NR	-10368
Std	-10369
chttp	-10370
▁PAGE	-10371
▁estate	-10372
Ra	-10373
yl	-10374
NER	-10375
REEK	-10376
ASYNC	-10377
STACK	-10378
Unique	-10379
cipher	-10380
▁Dbdih	-10381
▁minutes	-10382
▁streaming	-10383
▁EE	-10384
▁bk	-10385
▁eq	-10386
▁CTL	-10387
▁Take	-10388
▁costs	-10389
bounded	-10390
<?	-10391
▁Cur	-10392
▁WIS	-10393
cmake	-10394
▁Given	-10395
replica	-10396
prepared	-10397
therlands	-10398
▁semantics	-10399
FindMessage	-10400
▁gss	-10401
Fetch	-10402
PATCH	-10403
external	-10404
▁Replace	-10405
▁Netherlands	-10406
EEK	-10407
udp	-10408
▁):	-10409
cmpp	-10410
▁Color	-10411
▁levels	-10412
OVERFLOW	-10413
HD	-10414
ipv	-10415
Digit	-10416
Columns	-10417
▁WISCRS	-10418
}'	-10419
ony	-10420
SIMP	-10421
SIST	-10422
Macro	-10423
MATCHER	-10424
▁StringInfo	-10425
PREPROCESSED	-10426
REDIS	-10427
▁consistent	-10428
pVfs	-10429
▁sep	-10430
LARGE	-10431
▁nghttp	-10432
▁compiled	-10433
▁formatting	-10434
[(	-10435
cxx	-10436
gcc	-10437
ims	-10438
issa	-10439
▁fwd	-10440
▁WAIT	-10441
migrate	-10442
handlers	-10443
▁PLy	-10444
▁Writ	-10445
OUTPUT	-10446
invoke	-10447
DECLARE	-10448
variables	-10449
cos	-10450
mage	-10451
▁RDB	-10452
▁ह	-10453
_##	-10454
INITIAL	-10455
▁oldest	-10456
▁interprocess	-10457
nn	-10458
COLL	-10459
anic	-10460
▁USER	-10461
▁prop	-10462
▁zName	-10463
▁copying	-10464
▁pointed	-10465
Exit	-10466
RIDE	-10467
▁noOf	-10468
▁EXTENSION	-10469
NonExtendable	-10470
IE	-10471
aff	-10472
Once	-10473
▁clock	-10474
ScanState	-10475
▁uc	-10476
IDLE	-10477
arent	-10478
▁alpha	-10479
etition	-10480
▁becomes	-10481
▁Standard	-10482
▁absolute	-10483
azy	-10484
nfa	-10485
entinel	-10486
▁features	-10487
▁milliseconds	-10488
AU	-10489
TlsContext	-10490
Expected	-10491
▁expanded	-10492
OTE	-10493
Safe	-10494
SHARE	-10495
▁fieldNumber	-10496
LIM	-10497
▁"{	-10498
nvoy	-10499
ClassID	-10500
Replace	-10501
Constant	-10502
▁WireFormat	-10503
▁destructor	-10504
MPI	-10505
Cert	-10506
▁Void	-10507
putAll	-10508
▁isnull	-10509
▁indices	-10510
▁meaning	-10511
]*	-10512
LOOK	-10513
illi	-10514
▁Tree	-10515
pcdetail	-10516
▁delimiter	-10517
▁experimental	-10518
aka	-10519
cntr	-10520
▁Gin	-10521
keyed	-10522
▁AUTHOR	-10523
▁datatype	-10524
hour	-10525
▁pat	-10526
sleep	-10527
▁Look	-10528
binlog	-10529
concepts	-10530
▁Ndbinfo	-10531
▁CBOR	-10532
▁Count	-10533
▁serial	-10534
▁purposes	-10535
▁invocation	-10536
inh	-10537
inned	-10538
llist	-10539
Cached	-10540
▁TESTCASE	-10541
▁[#	-10542
TUAL	-10543
week	-10544
quick	-10545
RWLOCK	-10546
Polygon	-10547
▁CreateSync	-10548
~~~~~~~~~~~~~~~~	-10549
Io	-10550
QUEUE	-10551
inherit	-10552
▁surrogate	-10553
issues	-10554
▁Bound	-10555
▁Ident	-10556
▁formatted	-10557
▁JAM	-10558
EXECUT	-10559
▁decay	-10560
▁STRING	-10561
IA	-10562
NF	-10563
trim	-10564
ball	-10565
▁fact	-10566
▁hugo	-10567
IDENTITY	-10568
▁capture	-10569
Vn	-10570
mk	-10571
Tcp	-10572
hev	-10573
uced	-10574
bo	-10575
▁APIs	-10576
▁REF	-10577
truncate	-10578
▁Central	-10579
▁rewrite	-10580
Expression	-10581
quivalence	-10582
▁inherited	-10583
▁recursion	-10584
RetryPolicy	-10585
▁apiConnectptr	-10586
uk	-10587
fla	-10588
such	-10589
▁MON	-10590
▁cla	-10591
calls	-10592
▁days	-10593
general	-10594
REQUIRED	-10595
transferred	-10596
BOX	-10597
▁yy	-10598
NEED	-10599
STMT	-10600
redo	-10601
▁Api	-10602
TypeId	-10603
▁newly	-10604
history	-10605
EXTENDED	-10606
▁sprintf	-10607
toc	-10608
LIMP	-10609
▁rte	-10610
▁trp	-10611
karma	-10612
▁CMPP	-10613
tabPtr	-10614
typeid	-10615
entially	-10616
addressof	-10617
▁background	-10618
[*	-10619
▁आ	-10620
tok	-10621
Buff	-10622
ASURE	-10623
latch	-10624
▁compress	-10625
FAC	-10626
once	-10627
▁forg	-10628
directive	-10629
▁az	-10630
▁blen	-10631
LIMPORT	-10632
streaming	-10633
URI	-10634
Phase	-10635
imize	-10636
urope	-10637
▁sdscat	-10638
Language	-10639
RIER	-10640
▁RESET	-10641
▁indent	-10642
Signature	-10643
---------------	-10644
Put	-10645
glob	-10646
ones	-10647
Opaque	-10648
▁Begin	-10649
▁Using	-10650
▁deduce	-10651
▁opcode	-10652
partitioned	-10653
▁----------	-10654
▁Sync	-10655
▁Store	-10656
▁legal	-10657
resolved	-10658
ALGORITHM	-10659
▁Qu	-10660
▁opts	-10661
ractice	-10662
KeyCompare	-10663
RD	-10664
য়	-10665
▁;;	-10666
▁VO	-10667
▁ERR	-10668
▁distinct	-10669
▁LIB	-10670
Style	-10671
efree	-10672
▁embed	-10673
BACKEND	-10674
▁errcode	-10675
XML	-10676
xor	-10677
Indx	-10678
PROP	-10679
▁GSS	-10680
ROUND	-10681
spect	-10682
▁libraries	-10683
▁therefore	-10684
fm	-10685
ka	-10686
handles	-10687
MatcherList	-10688
▁STR	-10689
bstree	-10690
▁assumed	-10691
Serialize	-10692
commended	-10693
▁systable	-10694
CREDENTIAL	-10695
▁PGDLLIMPORT	-10696
ski	-10697
▁VM	-10698
▁cd	-10699
>())	-10700
▁VACUUM	-10701
recursive	-10702
▁normally	-10703
directories	-10704
▁NT	-10705
FFIX	-10706
▁DICT	-10707
always	-10708
▁latch	-10709
safefree	-10710
Move	-10711
VERT	-10712
▁gci	-10713
bitwise	-10714
chaotic	-10715
typcache	-10716
WC	-10717
nsp	-10718
▁sem	-10719
▁syn	-10720
BASIC	-10721
CONTENT	-10722
▁emitter	-10723
▁exclude	-10724
▁TryCatch	-10725
▁specialization	-10726
STOR	-10727
auge	-10728
cookie	-10729
▁OFFSET	-10730
BlockRef	-10731
toString	-10732
▁relevant	-10733
▁management	-10734
assertEquals	-10735
gcs	-10736
xba	-10737
▁NUL	-10738
▁Ret	-10739
break	-10740
Before	-10741
Archive	-10742
Execute	-10743
▁latest	-10744
getmsgdef	-10745
▁overhead	-10746
DateFormat	-10747
▁Algorithms	-10748
▁repository	-10749
▁م	-10750
inv	-10751
POOL	-10752
SHOW	-10753
iner	-10754
ture	-10755
▁PHP	-10756
LOCALE	-10757
SINGLE	-10758
existing	-10759
completed	-10760
▁backwards	-10761
▁serverLog	-10762
DESCRIPTORS	-10763
▁SearchSysCache	-10764
▁cv	-10765
reat	-10766
▁DAT	-10767
▁Http	-10768
▁Save	-10769
▁merged	-10770
Complete	-10771
finalize	-10772
▁recover	-10773
▁"";	-10774
anity	-10775
▁Stop	-10776
Plural	-10777
Convert	-10778
DefInit	-10779
▁Special	-10780
escontext	-10781
LoadDefInit	-10782
fieldNumber	-10783
▁ReorderBuffer	-10784
nf	-10785
Cord	-10786
▁/*_	-10787
CType	-10788
mpler	-10789
pPage	-10790
WEIGHT	-10791
▁mrs	-10792
Exact	-10793
FATAL	-10794
asham	-10795
inLock	-10796
disabled	-10797
▁measure	-10798
SendString	-10799
intersection	-10800
FSM	-10801
cycle	-10802
fatal	-10803
odeint	-10804
▁analysis	-10805
sq	-10806
▁Gu	-10807
ZLIB	-10808
▁thd	-10809
FN	-10810
UME	-10811
Region	-10812
TIM	-10813
▁EL	-10814
▁ai	-10815
CUST	-10816
RECV	-10817
olds	-10818
▁*)(	-10819
Fatal	-10820
MinBits	-10821
taining	-10822
▁OpenTelemetry	-10823
▁व	-10824
SQU	-10825
▁em	-10826
fuzz	-10827
utor	-10828
▁tls	-10829
stdio	-10830
leting	-10831
▁serialize	-10832
performance	-10833
cz	-10834
ene	-10835
▁pts	-10836
power	-10837
youtu	-10838
Category	-10839
▁reflect	-10840
▁Bitmapset	-10841
RET	-10842
iding	-10843
[](	-10844
ets	-10845
▁"=&	-10846
verts	-10847
▁Same	-10848
CUSTOM	-10849
ildcard	-10850
UNDEFINED	-10851
AGG	-10852
LICT	-10853
perm	-10854
relo	-10855
COMMA	-10856
rength	-10857
IRETYPE	-10858
imports	-10859
▁Parallel	-10860
Beh	-10861
▁CE	-10862
▁SOCK	-10863
▁ever	-10864
Syntax	-10865
▁minus	-10866
--)	-10867
▁Del	-10868
("/",	-10869
users	-10870
▁(;;)	-10871
▁tell	-10872
OrderBy	-10873
refs	-10874
slave	-10875
SIMPLE	-10876
graphql	-10877
KeyValue	-10878
Character	-10879
Interpreted	-10880
projections	-10881
soft	-10882
duces	-10883
SrcSize	-10884
BidiIter	-10885
OVERRIDE	-10886
quantity	-10887
lab	-10888
}',	-10889
▁SR	-10890
Layer	-10891
early	-10892
COMPONENT	-10893
(@	-10894
▁tw	-10895
warn	-10896
▁dim	-10897
opped	-10898
▁answ	-10899
callable	-10900
▁bey	-10901
copyable	-10902
▁manager	-10903
▁overlap	-10904
▁uintptr	-10905
*\	-10906
though	-10907
▁worth	-10908
canonical	-10909
▁debugging	-10910
algo	-10911
▁Sim	-10912
▁PREP	-10913
Deleted	-10914
Mapping	-10915
▁beyond	-10916
▁mu	-10917
hello	-10918
▁Coded	-10919
BufferException	-10920
phe	-10921
xxx	-10922
IRES	-10923
bytea	-10924
▁maybe	-10925
Entries	-10926
ImplReq	-10927
nodePtr	-10928
*.	-10929
ldm	-10930
lqh	-10931
DEFS	-10932
izon	-10933
▁Rece	-10934
atable	-10935
uation	-10936
▁often	-10937
sentinel	-10938
▁threshold	-10939
▁alternative	-10940
avg	-10941
▁"(	-10942
()</	-10943
LIBC	-10944
norm	-10945
▁Null	-10946
rls	-10947
▁RM	-10948
▁tool	-10949
▁zSql	-10950
adcast	-10951
expect	-10952
▁elapsed	-10953
▁looking	-10954
Replication	-10955
aj	-10956
exact	-10957
SUFFIX	-10958
resume	-10959
tector	-10960
▁prefer	-10961
▁regard	-10962
instrument	-10963
▁MultiXact	-10964
`)	-10965
steps	-10966
letely	-10967
▁Where	-10968
Shutdown	-10969
iteration	-10970
pher	-10971
Scope	-10972
layer	-10973
jected	-10974
passwd	-10975
▁views	-10976
polling	-10977
fraction	-10978
selector	-10979
▁Variable	-10980
▁suitable	-10981
▁executing	-10982
▁FK	-10983
WRONG	-10984
▁COUNT	-10985
▁reuse	-10986
▁sdsfree	-10987
SerializedFile	-10988
rins	-10989
▁*/,	-10990
DYNAMIC	-10991
maphore	-10992
ada	-10993
eng	-10994
▁BL	-10995
KEYS	-10996
▁AUX	-10997
▁pgpa	-10998
▁Throws	-10999
Statement	-11000
Streaming	-11001
terminate	-11002
▁compared	-11003
▁lifetime	-11004
▁truncate	-11005
Interceptor	-11006
▁AM	-11007
▁owns	-11008
UNCATE	-11009
pheroid	-11010
▁RefCountedPtr	-11011
hl	-11012
stub	-11013
utypes	-11014
▁UNION	-11015
encrypt	-11016
▁ConfigInfo	-11017
▁functionality	-11018
nmysql	-11019
Indexes	-11020
RESERVED	-11021
▁UConverter	-11022
=[	-11023
▁POL	-11024
iated	-11025
getAlias	-11026
▁PageGet	-11027
▁grammar	-11028
benchmark	-11029
▁lk	-11030
▁pC	-11031
▁MPI	-11032
under	-11033
▁unix	-11034
▁inputs	-11035
DatumGet	-11036
poration	-11037
ShareLock	-11038
tcl	-11039
{},	-11040
▁"&	-11041
HUGE	-11042
RULE	-11043
▁dev	-11044
▁gcc	-11045
BUILT	-11046
Dirty	-11047
Resol	-11048
facet	-11049
▁axis	-11050
MALLOC	-11051
adjust	-11052
isError	-11053
▁senderData	-11054
iet	-11055
grow	-11056
INSERTED	-11057
contract	-11058
ReadStream	-11059
▁Corporation	-11060
▁SIZE	-11061
▁duplic	-11062
▁videos	-11063
Requires	-11064
AVAILABLE	-11065
MessageAnd	-11066
<::	-11067
aof	-11068
dog	-11069
++);	-11070
IMAP	-11071
ansion	-11072
streamer	-11073
▁decoded	-11074
▁interchange	-11075
DUMP	-11076
NATIVE	-11077
▁Float	-11078
▁stuff	-11079
ardinal	-11080
separator	-11081
CreateDouble	-11082
ти	-11083
▁м	-11084
▁WE	-11085
++++	-11086
LDAP	-11087
SFTP	-11088
▁ARG	-11089
Locator	-11090
▁typmod	-11091
CHARCONV	-11092
▁Destructor	-11093
▁postmaster	-11094
▁&(	-11095
▁}\	-11096
>()(	-11097
▁bytea	-11098
blocked	-11099
▁orient	-11100
Original	-11101
zz	-11102
setree	-11103
▁Caller	-11104
uce	-11105
HIDE	-11106
ping	-11107
want	-11108
▁aborted	-11109
▁Connection	-11110
Os	-11111
LLIC	-11112
TRACK	-11113
shmem	-11114
ytest	-11115
InnoDB	-11116
▁Andrey	-11117
▁Therefore	-11118
▁typically	-11119
EOF	-11120
als	-11121
▁ecp	-11122
SEARCH	-11123
▁Backward	-11124
▁handshake	-11125
startTransaction	-11126
IGH	-11127
▁Cl	-11128
CAST	-11129
▁Ctx	-11130
▁fsm	-11131
ducer	-11132
▁PATH	-11133
Aff	-11134
EPO	-11135
POP	-11136
uchar	-11137
RILLIC	-11138
semantic	-11139
International	-11140
BRE	-11141
rove	-11142
ashev	-11143
ority	-11144
▁POST	-11145
▁Semashev	-11146
"],	-11147
▁dx	-11148
ircu	-11149
ught	-11150
flinfo	-11151
CURLOPT	-11152
instances	-11153
▁NdbMutex	-11154
JOR	-11155
ula	-11156
▁TIM	-11157
▁CALL	-11158
▁FULL	-11159
ortest	-11160
▁SCHEMA	-11161
▁series	-11162
▁atomics	-11163
▁internally	-11164
_))	-11165
▁bb	-11166
▁RBB	-11167
least	-11168
▁CONF	-11169
▁brin	-11170
▁face	-11171
iversal	-11172
▁whitespace	-11173
SERIALIZATION	-11174
ulus	-11175
zstd	-11176
▁DNS	-11177
upload	-11178
▁Ignore	-11179
contents	-11180
▁journal	-11181
AndMessages	-11182
ReservedRange	-11183
wire	-11184
Tuples	-11185
advice	-11186
OPENSSL	-11187
Overload	-11188
▁Subject	-11189
▁computed	-11190
▁instrument	-11191
MatchPredicate	-11192
MessageAndEnum	-11193
TopDescriptors	-11194
rab	-11195
RATE	-11196
ases	-11197
SEGMENT	-11198
▁stdout	-11199
TRANSACTION	-11200
fg	-11201
▁sb	-11202
arenas	-11203
GENERIC	-11204
usiness	-11205
Progress	-11206
▁Disable	-11207
qualified	-11208
Same	-11209
Take	-11210
▁Hart	-11211
COVERY	-11212
▁Fetch	-11213
▁myssh	-11214
▁lowest	-11215
▁maintain	-11216
▁restriction	-11217
▁Ed	-11218
ITOR	-11219
▁sufficient	-11220
▁Programming	-11221
nth	-11222
▁rp	-11223
xfrm	-11224
slash	-11225
▁protect	-11226
▁treated	-11227
▁accepted	-11228
▁ptrCheck	-11229
Validation	-11230
▁arbitrary	-11231
connections	-11232
ium	-11233
▁sr	-11234
Incr	-11235
Pods	-11236
ffic	-11237
▁ISO	-11238
plain	-11239
▁PERL	-11240
▁safety	-11241
▁tcConnectptr	-11242
gmock	-11243
Measure	-11244
Waiting	-11245
jwasham	-11246
allthrough	-11247
Cor	-11248
▁')	-11249
RIBE	-11250
▁dsa	-11251
▁PgStat	-11252
▁preced	-11253
▁upload	-11254
▁callers	-11255
▁validation	-11256
▁ptrCheckGuard	-11257
▁Ka	-11258
▁spa	-11259
▁tsd	-11260
▁Join	-11261
▁stub	-11262
allest	-11263
ffffff	-11264
▁router	-11265
Filename	-11266
▁completely	-11267
subpartition	-11268
Dst	-11269
▁doc	-11270
views	-11271
▁Once	-11272
GIL	-11273
▁inh	-11274
nology	-11275
unless	-11276
Balance	-11277
pressive	-11278
▁succeed	-11279
▁OBSOLETE	-11280
>(*	-11281
QUOT	-11282
coun	-11283
iostreams	-11284
▁Calendar	-11285
sb	-11286
POLL	-11287
▁MUST	-11288
ferred	-11289
measure	-11290
Triggers	-11291
══	-11292
logs	-11293
gmail	-11294
▁FORM	-11295
Suffix	-11296
▁deref	-11297
▁older	-11298
COMPARE	-11299
▁Kaiser	-11300
httptest	-11301
▁Hartmut	-11302
▁inverse	-11303
▁LWLockRelease	-11304
>(-	-11305
xmin	-11306
▁'$.	-11307
Files	-11308
MAJOR	-11309
▁chunks	-11310
▁Builder	-11311
▁CHARSET	-11312
▁discard	-11313
▁iterate	-11314
▁destroyed	-11315
putAllFieldMap	-11316
PtrField	-11317
boostorg	-11318
▁Reverse	-11319
scalability	-11320
InitialMetadata	-11321
bw	-11322
▁AOF	-11323
▁Here	-11324
▁hist	-11325
central	-11326
▁appears	-11327
ConnectRecord	-11328
cep	-11329
INDX	-11330
sqrt	-11331
▁Impl	-11332
▁attach	-11333
▁International	-11334
LA	-11335
CLAS	-11336
▁mut	-11337
pairs	-11338
flatten	-11339
sections	-11340
▁о	-11341
{})	-11342
▁LIKE	-11343
Bitmap	-11344
▁major	-11345
children	-11346
subscription	-11347
]=	-11348
CBC	-11349
▁FR	-11350
▁Sc	-11351
ides	-11352
quant	-11353
inates	-11354
▁loading	-11355
▁registry	-11356
getExtension	-11357
mr	-11358
▁TS	-11359
()`.	-11360
IATE	-11361
IMAL	-11362
▁Poly	-11363
▁Rights	-11364
▁PyObject	-11365
▁DESCRIPTION	-11366
></	-11367
syn	-11368
pick	-11369
▁tbl	-11370
▁ends	-11371
▁smtp	-11372
design	-11373
▁Actor	-11374
istence	-11375
▁Currently	-11376
▁addresses	-11377
▁tg	-11378
▁~(	-11379
();}	-11380
CURR	-11381
sasl	-11382
▁Sum	-11383
counts	-11384
application	-11385
FTS	-11386
srv	-11387
▁LQH	-11388
▁UNUM	-11389
▁West	-11390
▁bundle	-11391
Enumeration	-11392
TIE	-11393
unct	-11394
▁-->	-11395
Epoch	-11396
IMENT	-11397
▁tlist	-11398
LIBRARY	-11399
Contains	-11400
▁utility	-11401
RFC	-11402
uni	-11403
misc	-11404
▁"")	-11405
FINAE	-11406
▁John	-11407
▁rand	-11408
regress	-11409
srcSize	-11410
▁listen	-11411
rtree	-11412
Sections	-11413
StatusOr	-11414
▁metafunction	-11415
)();	-11416
▁BSD	-11417
MASTER	-11418
PagePtr	-11419
▁scanPtr	-11420
▁identical	-11421
▁generation	-11422
zd	-11423
DIM	-11424
Est	-11425
Tri	-11426
Redis	-11427
iring	-11428
▁mini	-11429
Cancel	-11430
▁layer	-11431
▁Unsafe	-11432
subtract	-11433
bat	-11434
sur	-11435
▁NE	-11436
anit	-11437
Lower	-11438
OMAIN	-11439
OpenReq	-11440
PREPROCESSOR	-11441
TID	-11442
_));	-11443
hist	-11444
▁TYP	-11445
quency	-11446
▁SERVER	-11447
▁printer	-11448
RuntimeVersion	-11449
DIAG	-11450
ivil	-11451
▁&&)	-11452
▁cut	-11453
Descr	-11454
umption	-11455
insecure	-11456
▁Functions	-11457
▁exceptions	-11458
SourceCodeInfo	-11459
.*/	-11460
UGH	-11461
KEEP	-11462
▁wire	-11463
serter	-11464
stdlib	-11465
▁family	-11466
callbacks	-11467
Reflection	-11468
▁allocations	-11469
ValidateProtobuf	-11470
▁│	-11471
xFE	-11472
>>::	-11473
FRONT	-11474
▁Thus	-11475
Device	-11476
atever	-11477
stdout	-11478
uncher	-11479
▁blkno	-11480
Definition	-11481
▁assertion	-11482
AMIL	-11483
book	-11484
uman	-11485
▁kept	-11486
▁live	-11487
▁lineno	-11488
STRUMENT	-11489
▁NodeTraits	-11490
*)&	-11491
▁inc	-11492
rence	-11493
negate	-11494
▁belong	-11495
▁enables	-11496
▁getting	-11497
▁Metadata	-11498
EXCEPTIONS	-11499
▁AccessShareLock	-11500
nl	-11501
(){	-11502
Expire	-11503
avings	-11504
▁Digit	-11505
hugoOps	-11506
▁ensures	-11507
NumberFormat	-11508
HC	-11509
gmd	-11510
mag	-11511
usr	-11512
▁ln	-11513
▁VFS	-11514
▁ctl	-11515
▁magic	-11516
▁oneof	-11517
ка	-11518
Ready	-11519
outstanding	-11520
placeholder	-11521
[])	-11522
pIdx	-11523
allen	-11524
▁WARN	-11525
▁ecpg	-11526
▁trim	-11527
etched	-11528
readed	-11529
arb	-11530
clen	-11531
seen	-11532
vobj	-11533
▁Fac	-11534
▁HAND	-11535
ObjPtr	-11536
▁MERGE	-11537
▁Throw	-11538
PARTIAL	-11539
queries	-11540
relaxed	-11541
▁concat	-11542
▁rebind	-11543
SV	-11544
PRV	-11545
▁*>	-11546
SIFY	-11547
undant	-11548
objectId	-11549
▁pstrdup	-11550
constraints	-11551
dk	-11552
ivot	-11553
prep	-11554
Stand	-11555
pubkey	-11556
mgrInfo	-11557
Upstream	-11558
definitions	-11559
▁storeColumn	-11560
▁';	-11561
COUN	-11562
NTAX	-11563
GPR	-11564
GRP	-11565
mib	-11566
wra	-11567
▁Debug	-11568
ollback	-11569
▁Abseil	-11570
Currency	-11571
▁testpub	-11572
▁deletion	-11573
▁fragments	-11574
MiniTableSub	-11575
ATT	-11576
Swap	-11577
▁*/;	-11578
PAGES	-11579
▁UCOL	-11580
▁strm	-11581
mitives	-11582
▁ASSERT	-11583
▁SpinLock	-11584
ADT	-11585
COV	-11586
▁NG	-11587
Props	-11588
RESOL	-11589
ircuit	-11590
rename	-11591
Private	-11592
▁installed	-11593
▁determined	-11594
Bin	-11595
▁Pe	-11596
▁abstract	-11597
▁remainder	-11598
ROL	-11599
xAE	-11600
▁Io	-11601
AUDIT	-11602
QUOTE	-11603
opher	-11604
associ	-11605
concat	-11606
▁Micro	-11607
▁causes	-11608
ximation	-11609
▁deferred	-11610
▁privileges	-11611
▁il	-11612
▁joint	-11613
▁Logical	-11614
▁configure	-11615
StringInfoChar	-11616
PAT	-11617
RPL	-11618
▁sl	-11619
TREE	-11620
CHRON	-11621
Inner	-11622
▁DIST	-11623
hstore	-11624
▁pPager	-11625
▁reserve	-11626
ни	-11627
bset	-11628
▁Err	-11629
pVtab	-11630
▁OPEN	-11631
TERNAL	-11632
▁AFTER	-11633
acquire	-11634
▁regexp	-11635
Redirect	-11636
matching	-11637
▁tracking	-11638
ATTRIBUTES	-11639
▁coroutine	-11640
destination	-11641
SocketOption	-11642
ANGUL	-11643
OperPtr	-11644
PREPARE	-11645
scriber	-11646
▁MB	-11647
▁Ts	-11648
byval	-11649
▁mock	-11650
▁radix	-11651
▁InnoDB	-11652
▁limits	-11653
то	-11654
but	-11655
PSIS	-11656
▁EXPR	-11657
Matrix	-11658
uh	-11659
)){	-11660
NAMED	-11661
switch	-11662
Fraction	-11663
lz	-11664
abe	-11665
xFC	-11666
sftp	-11667
ACTER	-11668
barrier	-11669
▁CreateAsync	-11670
nc	-11671
chunks	-11672
deleted	-11673
getType	-11674
without	-11675
hole	-11676
mini	-11677
Small	-11678
Upper	-11679
unlink	-11680
deleter	-11681
▁strong	-11682
LOWERCASE	-11683
▁completes	-11684
не	-11685
nop	-11686
ohn	-11687
▁")	-11688
▁*_	-11689
cube	-11690
▁enc	-11691
timed	-11692
▁Auto	-11693
SYNTAX	-11694
▁LOCAL	-11695
Variant	-11696
UUID	-11697
...);	-11698
arend	-11699
strong	-11700
tcache	-11701
▁performing	-11702
bro	-11703
▁`--	-11704
▁srv	-11705
LOCKS	-11706
loyee	-11707
▁Need	-11708
IGNORE	-11709
Numeric	-11710
▁Barend	-11711
Mon	-11712
lld	-11713
(*)(	-11714
▁Dim	-11715
▁NODE	-11716
Charset	-11717
clients	-11718
tracing	-11719
Operator	-11720
▁normalize	-11721
▁specifies	-11722
▁Transporter	-11723
Cat	-11724
tre	-11725
Core	-11726
ETRS	-11727
shal	-11728
slow	-11729
▁UPRV	-11730
▁zfree	-11731
iterate	-11732
DATABASE	-11733
▁changing	-11734
mts	-11735
▁GIST	-11736
ificand	-11737
▁Stepper	-11738
ExpBuffer	-11739
▁SinglePassRange	-11740
(!(	-11741
==",	-11742
▁GIN	-11743
▁Fast	-11744
Selector	-11745
Unsigned	-11746
▁username	-11747
Sig	-11748
lems	-11749
▁Turn	-11750
TARGETS	-11751
▁relname	-11752
Allocation	-11753
▁PR	-11754
DIFI	-11755
▁Geh	-11756
corrup	-11757
ofiber	-11758
velope	-11759
▁POSIX	-11760
▁score	-11761
dropped	-11762
▁Gehrels	-11763
▁"_	-11764
frac	-11765
delim	-11766
▁cstate	-11767
▁appended	-11768
▁candidate	-11769
pd	-11770
,/*	-11771
PGP	-11772
▁AF	-11773
strm	-11774
▁'--	-11775
▁logs	-11776
tokens	-11777
product	-11778
rollback	-11779
▁Bitmask	-11780
▁blocked	-11781
CONDITION	-11782
TypeTraits	-11783
OX	-11784
ANK	-11785
▁Full	-11786
▁wide	-11787
logged	-11788
CALLBACK	-11789
▁evaluation	-11790
▁"<	-11791
▁da	-11792
Serv	-11793
▁his	-11794
NoTag	-11795
vially	-11796
Histogram	-11797
UPPERCASE	-11798
assertTrue	-11799
▁tuplestore	-11800
▁addReplyError	-11801
>>(	-11802
exe	-11803
▁po	-11804
CONSTRU	-11805
▁Commit	-11806
▁NdbIndex	-11807
ParseState	-11808
>>;	-11809
lam	-11810
rity	-11811
▁cxx	-11812
▁upd	-11813
FragPtr	-11814
epsilon	-11815
▁bitmask	-11816
▁upgrade	-11817
Restarter	-11818
▁physical	-11819
cg	-11820
▁@{	-11821
▁Big	-11822
Owning	-11823
etween	-11824
balance	-11825
ilation	-11826
continue	-11827
▁incomplete	-11828
icu	-11829
▁pj	-11830
phan	-11831
▁saf	-11832
selves	-11833
▁ALLOC	-11834
Operand	-11835
comments	-11836
infomask	-11837
Execution	-11838
▁placeholder	-11839
FSE	-11840
▁px	-11841
sole	-11842
Quota	-11843
▁Push	-11844
macros	-11845
▁turns	-11846
▁ALWAYS	-11847
▁deflate	-11848
▁middleware	-11849
▁wc	-11850
ongs	-11851
Watch	-11852
▁rect	-11853
stddef	-11854
▁pixel	-11855
▁inserts	-11856
COLLATION	-11857
▁positions	-11858
INTERLOCKED	-11859
EventOperation	-11860
deps	-11861
▁seek	-11862
orizon	-11863
scripts	-11864
updated	-11865
▁appendTo	-11866
▁processor	-11867
tts	-11868
▁dw	-11869
▁на	-11870
FOREIGN	-11871
▁Window	-11872
detected	-11873
▁highest	-11874
specifier	-11875
ConfigSource	-11876
▁serverAssert	-11877
▁ReleaseSysCache	-11878
▁Sch	-11879
▁fine	-11880
forced	-11881
▁Success	-11882
MAY	-11883
iny	-11884
▁evt	-11885
links	-11886
varno	-11887
Multip	-11888
addock	-11889
ELEMENT	-11890
▁Machines	-11891
▁MyTransaction	-11892
SOR	-11893
INTR	-11894
dctx	-11895
▁cnv	-11896
▁rol	-11897
parsed	-11898
Literal	-11899
▁Called	-11900
▁usable	-11901
▁Business	-11902
▁sections	-11903
▁boundaries	-11904
)];	-11905
BAL	-11906
sts	-11907
Recv	-11908
alco	-11909
▁Acl	-11910
INPUT	-11911
▁DATABASE	-11912
concurrent	-11913
▁Character	-11914
ALI	-11915
ADIAN	-11916
▁Hugo	-11917
ulates	-11918
▁Checks	-11919
Distance	-11920
refcount	-11921
▁logFilePtr	-11922
Eof	-11923
▁"]	-11924
LESS	-11925
grad	-11926
▁Sup	-11927
▁XDR	-11928
▁sil	-11929
▁LCOV	-11930
▁LIST	-11931
gofiber	-11932
KI	-11933
han	-11934
▁Fn	-11935
RESH	-11936
▁CASE	-11937
▁REPLIC	-11938
rounding	-11939
▁Accuracy	-11940
▁invalidated	-11941
/{	-11942
▁এ	-11943
uer	-11944
▁по	-11945
RYPT	-11946
▁Ass	-11947
PUNCT	-11948
iso	-11949
pIn	-11950
▁@}	-11951
days	-11952
rive	-11953
READY	-11954
ToInt	-11955
ApiPtr	-11956
▁quals	-11957
orrowed	-11958
▁portal	-11959
metaparse	-11960
getProperty	-11961
▁instrumentation	-11962
akil	-11963
▁cle	-11964
nostd	-11965
▁conv	-11966
▁exam	-11967
DIGEST	-11968
▁CONNECT	-11969
than	-11970
▁iff	-11971
holes	-11972
▁abbre	-11973
▁unchanged	-11974
'%	-11975
▁#!	-11976
▁Des	-11977
▁Dbtup	-11978
logPart	-11979
estimated	-11980
▁resolution	-11981
pkey	-11982
▁die	-11983
Cases	-11984
cloud	-11985
▁NUMBER	-11986
TypeName	-11987
document	-11988
▁Src	-11989
ercion	-11990
Restore	-11991
datatype	-11992
▁redirect	-11993
-----------//	-11994
▁EC	-11995
▁Mar	-11996
▁gtl	-11997
▁pfs	-11998
getTab	-11999
▁estim	-12000
WRAPPER	-12001
records	-12002
▁sqlprint	-12003
▁Increment	-12004
;}	-12005
UD	-12006
:",	-12007
▁BR	-12008
HELP	-12009
UCAL	-12010
xfer	-12011
funcs	-12012
▁soon	-12013
Bounds	-12014
ENDING	-12015
hether	-12016
▁UText	-12017
initiate	-12018
▁Maddock	-12019
▁binding	-12020
stitution	-12021
CANT	-12022
__))	-12023
atan	-12024
▁shell	-12025
OnError	-12026
▁tcache	-12027
RESOURCE	-12028
ificates	-12029
▁terminate	-12030
sj	-12031
tB	-12032
FACT	-12033
apis	-12034
chor	-12035
prog	-12036
trng	-12037
ROUTE	-12038
▁warn	-12039
legacy	-12040
DOCUMENT	-12041
Tokenizer	-12042
▁performs	-12043
▁IT	-12044
▁ha	-12045
▁((*	-12046
▁alt	-12047
infos	-12048
▁bkwd	-12049
▁site	-12050
Native	-12051
▁attempts	-12052
StringMatcher	-12053
mn	-12054
title	-12055
▁Loop	-12056
▁cube	-12057
checker	-12058
▁leader	-12059
▁ANALYZE	-12060
disconnect	-12061
▁CONNECTION	-12062
▁polymorphic	-12063
((*	-12064
Itr	-12065
▁'{"	-12066
ament	-12067
innie	-12068
▁Fill	-12069
▁cheap	-12070
Hb	-12071
ga	-12072
otlp	-12073
▁rot	-12074
▁idle	-12075
▁slave	-12076
weights	-12077
download	-12078
▁reasons	-12079
▁receiver	-12080
Tablespace	-12081
▁Ski	-12082
uming	-12083
▁goes	-12084
▁uuid	-12085
roller	-12086
▁sales	-12087
RELEASE	-12088
finished	-12089
▁AUTHORIZATION	-12090
.";	-12091
apes	-12092
fully	-12093
▁INFO	-12094
KeyInfo	-12095
▁filePtr	-12096
▁planner	-12097
isk	-12098
versed	-12099
requested	-12100
EventEngine	-12101
FormatSymbols	-12102
InterpretedCode	-12103
Typ	-12104
stor	-12105
▁sha	-12106
▁Vars	-12107
height	-12108
Required	-12109
transactions	-12110
);}	-12111
Neg	-12112
Sep	-12113
RCLED	-12114
Compar	-12115
UserId	-12116
▁VOWEL	-12117
▁slist	-12118
▁ATTRIB	-12119
▁locals	-12120
repetition	-12121
+(	-12122
isor	-12123
▁ger	-12124
▁deli	-12125
angular	-12126
▁Instead	-12127
▁opclass	-12128
AllocSize	-12129
temporary	-12130
Py	-12131
▁б	-12132
TCL	-12133
mot	-12134
▁ws	-12135
▁LOW	-12136
sakil	-12137
▁Perl	-12138
▁CURLOT	-12139
▁Unlock	-12140
returning	-12141
tb	-12142
IOS	-12143
edu	-12144
▁Men	-12145
▁git	-12146
IOERR	-12147
▁adds	-12148
▁posix	-12149
▁VARCHAR	-12150
▁BufferGet	-12151
▁preferred	-12152
▁প	-12153
xfe	-12154
eros	-12155
wasm	-12156
nread	-12157
▁tags	-12158
▁unlink	-12159
Exponent	-12160
streambuf	-12161
▁complain	-12162
FORMATTING	-12163
BidiIterator	-12164
preprocessed	-12165
▁specification	-12166
bq	-12167
);\	-12168
Lqh	-12169
beg	-12170
PPED	-12171
REACH	-12172
OVERLOAD	-12173
▁largest	-12174
ArrayList	-12175
DIRECTORY	-12176
OwnNodeId	-12177
TupleDesc	-12178
▁Sentinel	-12179
▁ipcdetail	-12180
▁ulonglong	-12181
tw	-12182
ACL	-12183
ZONE	-12184
pause	-12185
▁Proc	-12186
▁affirm	-12187
haust	-12188
uning	-12189
Edition	-12190
Keyword	-12191
▁Params	-12192
CANADIAN	-12193
ScopedRoutes	-12194
▁intersection	-12195
epi	-12196
Vtab	-12197
▁'\\	-12198
▁XML	-12199
ICATOR	-12200
Vacuum	-12201
▁Decode	-12202
▁quantity	-12203
▁resolved	-12204
▁CURLOPTTYPE	-12205
GN	-12206
ABC	-12207
RAW	-12208
Hint	-12209
ABICS	-12210
scrib	-12211
▁Abort	-12212
▁ClusterJ	-12213
▁readable	-12214
HashPolicy	-12215
▁mac	-12216
▁PARAM	-12217
FACTORY	-12218
TableId	-12219
▁Pattern	-12220
▁circular	-12221
MessageLite	-12222
▁thing	-12223
multimap	-12224
segments	-12225
▁storing	-12226
vG	-12227
▁<->	-12228
IPHER	-12229
ulong	-12230
UATION	-12231
▁beast	-12232
IndexId	-12233
▁keyring	-12234
▁unicode	-12235
spherical	-12236
▁accessed	-12237
▁Calculate	-12238
▁SYLLABICS	-12239
▁decNumber	-12240
▁LocalPointer	-12241
itup	-12242
prime	-12243
itness	-12244
opcode	-12245
Program	-12246
feature	-12247
helpers	-12248
▁substring	-12249
ulatedBlock	-12250
Connectionrec	-12251
ResourceBundle	-12252
LW	-12253
▁SK	-12254
erarch	-12255
tunnel	-12256
RESTRICT	-12257
▁Grammar	-12258
roduction	-12259
▁failures	-12260
PIPE	-12261
ruby	-12262
▁why	-12263
xffff	-12264
▁"/",	-12265
memcmp	-12266
▁BackwardOp	-12267
▁descriptors	-12268
CN	-12269
gl	-12270
([]	-12271
vict	-12272
▁EACH	-12273
phemer	-12274
aration	-12275
ObjectId	-12276
▁Foreign	-12277
▁Restore	-12278
▁Spheroid	-12279
Fp	-12280
Aio	-12281
xBF	-12282
hase	-12283
site	-12284
▁PORT	-12285
CLASSIFY	-12286
ominator	-12287
▁pathnode	-12288
▁patterns	-12289
NodeBitmask	-12290
RSZ	-12291
YLE	-12292
ket	-12293
pem	-12294
RING	-12295
Piece	-12296
ROUGH	-12297
ACTIVE	-12298
committed	-12299
▁makeNode	-12300
▁conditional	-12301
tan	-12302
Gist	-12303
topt	-12304
▁Pop	-12305
ratio	-12306
unist	-12307
EXPECT	-12308
BARRIER	-12309
▁subplan	-12310
▁mismatch	-12311
▁Condition	-12312
HeaderValue	-12313
)`	-12314
SIZ	-12315
▁URX	-12316
▁bra	-12317
ately	-12318
▁Stud	-12319
NOTIFY	-12320
▁UNIQUE	-12321
▁transferred	-12322
TRIG	-12323
▁FMT	-12324
audit	-12325
▁PHASE	-12326
SPACING	-12327
▁RECORD	-12328
OwningArena	-12329
▁Replication	-12330
▁ls	-12331
▁dep	-12332
▁Lookup	-12333
▁PGTYPES	-12334
▁sorting	-12335
Direction	-12336
Transition	-12337
>&)	-12338
GTID	-12339
▁Fix	-12340
▁hyp	-12341
descr	-12342
related	-12343
▁Static	-12344
TLI	-12345
Pred	-12346
live	-12347
usec	-12348
▁#!/	-12349
score	-12350
▁UNIT	-12351
PREDEF	-12352
transition	-12353
errposition	-12354
្រ	-12355
rax	-12356
ighb	-12357
▁rend	-12358
▁GMOCK	-12359
▁ExecInit	-12360
Nd	-12361
ei	-12362
▁td	-12363
ATAK	-12364
nURL	-12365
▁Put	-12366
▁PROJ	-12367
wakeup	-12368
▁answer	-12369
▁INVALID	-12370
STRATEGIES	-12371
processing	-12372
placeholders	-12373
Foo	-12374
WRIT	-12375
▁IDs	-12376
▁Loc	-12377
AARCH	-12378
Jsonb	-12379
▁East	-12380
Abstract	-12381
▁errhint	-12382
▁AttrNumber	-12383
ica	-12384
oton	-12385
AMILY	-12386
Could	-12387
certs	-12388
CHRONO	-12389
Disable	-12390
▁scanning	-12391
▁backtrace	-12392
RangeMatcher	-12393
continuation	-12394
▁independent	-12395
BAM	-12396
HAR	-12397
May	-12398
rev	-12399
$$$$	-12400
pWal	-12401
...>,	-12402
igure	-12403
▁Regex	-12404
UNLIKELY	-12405
setValue	-12406
ern	-12407
rcv	-12408
FLUSH	-12409
instr	-12410
▁xact	-12411
EXTERN	-12412
ibling	-12413
iphers	-12414
uncate	-12415
▁Period	-12416
▁pTrans	-12417
duplicate	-12418
▁Christopher	-12419
▁TimestampTz	-12420
▁Transliterator	-12421
rg	-12422
PHA	-12423
▁'+	-12424
▁LP	-12425
Self	-12426
DWORD	-12427
VERIFY	-12428
Checksum	-12429
▁Capture	-12430
Candidate	-12431
▁Database	-12432
▁extracted	-12433
▁secondary	-12434
unrecognized	-12435
ERE	-12436
IDI	-12437
Mag	-12438
ric	-12439
spi	-12440
errc	-12441
imuth	-12442
BEFORE	-12443
scribe	-12444
Explain	-12445
=*=*=*=*	-12446
detection	-12447
▁currency	-12448
▁optimize	-12449
▁receiving	-12450
SIGNED	-12451
▁Usage	-12452
inplace	-12453
▁rvalue	-12454
privdata	-12455
urations	-12456
hashtable	-12457
IMPLEMENTATION	-12458
▁./	-12459
BUFF	-12460
inity	-12461
▁nest	-12462
▁Unary	-12463
achable	-12464
▁plural	-12465
▁workspace	-12466
▁verification	-12467
="${	-12468
IRST	-12469
osen	-12470
▁Opt	-12471
Apply	-12472
MISSING	-12473
▁innodb	-12474
COMPRESS	-12475
sockaddr	-12476
▁Concept	-12477
▁varchar	-12478
ratelimit	-12479
▁technology	-12480
:{	-12481
Bad	-12482
CEE	-12483
cut	-12484
upd	-12485
▁sess	-12486
ariadb	-12487
▁Digits	-12488
▁whenever	-12489
CRIT	-12490
Comb	-12491
FALL	-12492
Wire	-12493
▁DEF	-12494
VIRTUAL	-12495
fragptr	-12496
modules	-12497
immediate	-12498
▁acquired	-12499
XLogRecPtr	-12500
Lit	-12501
ina	-12502
▁>;	-12503
HIST	-12504
METR	-12505
STYLE	-12506
▁Linux	-12507
▁secure	-12508
▁NUMERIC	-12509
SourceInfo	-12510
getRepeated	-12511
kew	-12512
▁*/)	-12513
iming	-12514
▁FIRST	-12515
▁kvobj	-12516
Logfile	-12517
creasing	-12518
erencing	-12519
▁NdbSleep	-12520
▁ndbabort	-12521
▁outstanding	-12522
▁destCapacity	-12523
▁>>=	-12524
▁vac	-12525
rapid	-12526
▁vars	-12527
covered	-12528
▁DEBUGLOG	-12529
strictInfo	-12530
Initialized	-12531
▁oldcontext	-12532
EK	-12533
pC	-12534
.</	-12535
▁FA	-12536
CKSZ	-12537
Outer	-12538
Visitor	-12539
ulative	-12540
CALLCONV	-12541
NotFound	-12542
▁Connect	-12543
▁Description	-12544
pT	-12545
Bug	-12546
IPV	-12547
Pat	-12548
▁"^	-12549
▁SV	-12550
▁cy	-12551
HOUR	-12552
RIES	-12553
▁dan	-12554
inger	-12555
Europe	-12556
rinsic	-12557
rivial	-12558
iterators	-12559
longitude	-12560
KeyBuilder	-12561
conditions	-12562
▁}))	-12563
Model	-12564
▁clon	-12565
nodeid	-12566
transl	-12567
RESTART	-12568
▁idxpart	-12569
▁provider	-12570
▁smallest	-12571
GRE	-12572
PERT	-12573
Seek	-12574
avid	-12575
▁Bool	-12576
▁HEAP	-12577
▁stre	-12578
▁Author	-12579
LOOP	-12580
▁TEMP	-12581
BUCKET	-12582
Deferred	-12583
▁weights	-12584
SectionPtr	-12585
HandlerImpl	-12586
▁multirange	-12587
DV	-12588
]+	-12589
▁ব	-12590
▁pInfo	-12591
▁matter	-12592
FRAGMENT	-12593
IndexMap	-12594
▁preserve	-12595
statistics	-12596
)()	-12597
]",	-12598
Invo	-12599
WCHAR	-12600
▁Arch	-12601
RECORD	-12602
CORRUPT	-12603
Present	-12604
analyze	-12605
▁preview	-12606
deallocate	-12607
▁Coordinate	-12608
▁algorithms	-12609
▁unexpected	-12610
-(	-12611
xu	-12612
shm	-12613
Accum	-12614
defel	-12615
forge	-12616
▁issues	-12617
▁nbytes	-12618
▁please	-12619
responses	-12620
▁MAXALIGN	-12621
▁calculation	-12622
-%	-12623
Pe	-12624
ें	-12625
WAR	-12626
TION	-12627
▁Tho	-12628
▁hit	-12629
URITY	-12630
▁BLOB	-12631
▁Unix	-12632
▁glob	-12633
circle	-12634
▁Cases	-12635
traction	-12636
username	-12637
▁Because	-12638
▁mariadb	-12639
getString	-12640
▁SECURITY	-12641
▁populate	-12642
getDictionary	-12643
TM	-12644
}}	-12645
▁GMT	-12646
reuse	-12647
trees	-12648
freeze	-12649
DataSource	-12650
INSTRUMENT	-12651
>`	-12652
Dl	-12653
SIZEOF	-12654
▁strcpy	-12655
clusters	-12656
Constraints	-12657
▁transporter	-12658
▁addReplyBulk	-12659
▁declarations	-12660
ats	-12661
zSql	-12662
▁Flags	-12663
Upgrade	-12664
getNoOf	-12665
latitude	-12666
authority	-12667
▁ROLLBACK	-12668
assignable	-12669
▁forwarding	-12670
▁ForwardRange	-12671
*()	-12672
pSrc	-12673
▁hel	-12674
▁BACK	-12675
▁home	-12676
LECTION	-12677
........	-12678
▁Lecture	-12679
Formatted	-12680
RelationGet	-12681
()[	-12682
DIH	-12683
▁':',	-12684
▁EEOP	-12685
▁srcLength	-12686
DK	-12687
▁DM	-12688
▁tot	-12689
Gauge	-12690
suite	-12691
collid	-12692
FilterChain	-12693
▁NdbRecAttr	-12694
▁Dump	-12695
▁quant	-12696
▁pseudo	-12697
▁PREPARE	-12698
HashTable	-12699
▁Response	-12700
▁particip	-12701
▁intrusive	-12702
kk	-12703
▁ب	-12704
ipp	-12705
ned	-12706
▁nan	-12707
keley	-12708
▁Just	-12709
▁Sink	-12710
ipsoid	-12711
▁looks	-12712
▁keywords	-12713
▁listener	-12714
▁senderRef	-12715
ti	-12716
ofile	-12717
Partial	-12718
▁Logger	-12719
▁deallocate	-12720
▁UB	-12721
AAAA	-12722
▁BIO	-12723
Latch	-12724
minal	-12725
WINDOW	-12726
unsafe	-12727
▁buflen	-12728
bh	-12729
FUT	-12730
▁opp	-12731
ublas	-12732
▁Dbtc	-12733
▁guess	-12734
CreateInt	-12735
statistic	-12736
INS	-12737
oug	-12738
xFD	-12739
▁fe	-12740
▁Heap	-12741
DCHECK	-12742
Checker	-12743
▁parted	-12744
received	-12745
▁VARSIZE	-12746
▁nwritten	-12747
▁instruction	-12748
aS	-12749
spl	-12750
|\\	-12751
▁Bor	-12752
*****	-12753
BAMUM	-12754
ender	-12755
props	-12756
ceptable	-12757
ometries	-12758
▁NdbTick	-12759
▁UVector	-12760
▁datetime	-12761
streamsize	-12762
▁NdbImport	-12763
▁incorrect	-12764
▁SignalLength	-12765
▁concurrently	-12766
============*/	-12767
Transliterator	-12768
fabs	-12769
▁ins	-12770
complement	-12771
cx	-12772
STIN	-12773
imers	-12774
▁zBuf	-12775
Remote	-12776
▁Empty	-12777
VISIBLE	-12778
▁COMMENT	-12779
▁Runtime	-12780
Allocated	-12781
▁ae	-12782
ARDED	-12783
mmove	-12784
▁While	-12785
▁lengths	-12786
▁Formattable	-12787
RGAS	-12788
▁jpi	-12789
▁mul	-12790
ators	-12791
SIRGAS	-12792
Trailing	-12793
▁GraphQL	-12794
▁Whether	-12795
FUNCTIONS	-12796
GCM	-12797
Best	-12798
mean	-12799
▁FIL	-12800
▁NaN	-12801
▁png	-12802
▁tie	-12803
FETCH	-12804
SMALL	-12805
▁Zero	-12806
Groups	-12807
▁Arena	-12808
▁adopt	-12809
ssaging	-12810
▁tested	-12811
▁TcConnectionrec	-12812
WORDS	-12813
▁/**<	-12814
▁ELSE	-12815
Verify	-12816
▁scanned	-12817
▁notification	-12818
lec	-12819
vac	-12820
sptr	-12821
▁Poll	-12822
minimum	-12823
▁safely	-12824
▁opfamily	-12825
($	-12826
TA	-12827
▁Sv	-12828
▁itup	-12829
▁maps	-12830
SIGNALS	-12831
EXTERNAL	-12832
opfamily	-12833
FieldNumber	-12834
▁executable	-12835
kw	-12836
CTL	-12837
Ids	-12838
▁TUP	-12839
▁sim	-12840
adius	-12841
▁cctx	-12842
PLICIT	-12843
Raises	-12844
▁replay	-12845
▁offsetof	-12846
▁AllocateType	-12847
highscalability	-12848
BM	-12849
cw	-12850
▁Own	-12851
authn	-12852
getinfo	-12853
▁CString	-12854
▁PLpgSQL	-12855
Gcp	-12856
YES	-12857
ena	-12858
rem	-12859
ENCY	-12860
EVAL	-12861
grams	-12862
unded	-12863
▁rely	-12864
symbols	-12865
pipeline	-12866
▁retrieve	-12867
▁ck	-12868
▁за	-12869
▁GGL	-12870
▁pIn	-12871
ained	-12872
▁utree	-12873
▁collate	-12874
PROTOCOLS	-12875
▁APIERROR	-12876
HeaderSize	-12877
************/	-12878
/*!	-12879
csr	-12880
git	-12881
UPER	-12882
oauth	-12883
▁UCNV	-12884
▁alpn	-12885
imiter	-12886
▁Place	-12887
incipal	-12888
▁height	-12889
DISPATCH	-12890
ructions	-12891
STINATION	-12892
▁buffered	-12893
▁cli	-12894
>(((((	-12895
memset	-12896
▁Queue	-12897
▁reject	-12898
Trailers	-12899
TOR	-12900
ingu	-12901
FINAL	-12902
aData	-12903
writes	-12904
▁enter	-12905
▁remains	-12906
assignment	-12907
comparison	-12908
TOP	-12909
bsd	-12910
mpt	-12911
nvp	-12912
▁CC	-12913
▁HUFv	-12914
Branch	-12915
datums	-12916
STRATEGY	-12917
Skeleton	-12918
normalize	-12919
क्	-12920
sche	-12921
Union	-12922
pimpl	-12923
▁INST	-12924
▁capi	-12925
Needed	-12926
▁attrs	-12927
▁trait	-12928
FragReq	-12929
waiting	-12930
▁overla	-12931
▁spaces	-12932
▁omitted	-12933
categories	-12934
▁REFERENCES	-12935
▁pErrorCode	-12936
▁','	-12937
▁quad	-12938
arbage	-12939
overlap	-12940
▁deparse	-12941
cli	-12942
▁Ma	-12943
DONT	-12944
aven	-12945
xids	-12946
▁Cre	-12947
ERRUP	-12948
▁Comb	-12949
recent	-12950
MAPPING	-12951
THROUGH	-12952
creader	-12953
keyring	-12954
▁Fields	-12955
▁modules	-12956
decNumber	-12957
Persistent	-12958
▁interpreted	-12959
ZZ	-12960
sus	-12961
▁LDM	-12962
HDRSZ	-12963
INVAL	-12964
▁ACTION	-12965
▁holder	-12966
="$	-12967
Bar	-12968
Xds	-12969
ini	-12970
▁Te	-12971
DEAD	-12972
▁rnd	-12973
{}}};	-12974
Exists	-12975
branch	-12976
maname	-12977
protos	-12978
▁hstore	-12979
▁cookies	-12980
BlockSize	-12981
▁infinite	-12982
OVE	-12983
▁Ss	-12984
odan	-12985
pace	-12986
SFINAE	-12987
▁uhash	-12988
SORTING	-12989
TestCase	-12990
▁{{{}}};	-12991
BCD	-12992
CSR	-12993
cvt	-12994
")==	-12995
Large	-12996
PRODU	-12997
▁zlib	-12998
citext	-12999
URATION	-13000
▁equals	-13001
▁produced	-13002
▁decrement	-13003
▁testsuite	-13004
Oq	-13005
RND	-13006
Bogus	-13007
▁perl	-13008
Cannot	-13009
quoted	-13010
▁Trace	-13011
PERTIES	-13012
▁Before	-13013
EXPLICIT	-13014
PARALLEL	-13015
▁illegal	-13016
▁windows	-13017
complexity	-13018
▁directive	-13019
▁operating	-13020
▁SchemaOpPtr	-13021
\",	-13022
▁SCAN	-13023
ATAKANA	-13024
changes	-13025
▁rbegin	-13026
floating	-13027
googleapis	-13028
▁Interface	-13029
SOL	-13030
xdr	-13031
▁limb	-13032
aching	-13033
▁wants	-13034
Warning	-13035
▁pretty	-13036
Prepared	-13037
▁MESSAGE	-13038
▁flushed	-13039
ByteArray	-13040
▁ResourceOwner	-13041
ADJ	-13042
KER	-13043
uck	-13044
▁pb	-13045
arrays	-13046
necess	-13047
INTERRUP	-13048
MISMATCH	-13049
formance	-13050
countered	-13051
upstreams	-13052
▁FmgrInfo	-13053
▁RESTRICT	-13054
MessageSet	-13055
Calc	-13056
OGRAM	-13057
atory	-13058
dudpa	-13059
ovics	-13060
LOOKUP	-13061
Sorter	-13062
patcher	-13063
▁accepts	-13064
▁satisfy	-13065
handshaker	-13066
CREDENTIALS	-13067
▁Identifies	-13068
NdbTransaction	-13069
Gin	-13070
▁DT	-13071
CTRL	-13072
▁PGC	-13073
▁ios	-13074
Attrs	-13075
▁LDAP	-13076
▁Most	-13077
UNLOCK	-13078
Unsafe	-13079
facade	-13080
newval	-13081
▁aggreg	-13082
▁bigint	-13083
▁rename	-13084
▁Initial	-13085
▁newline	-13086
precation	-13087
xpressive	-13088
▁arithmetic	-13089
▁InvalidProtocol	-13090
Poll	-13091
junk	-13092
▁SUM	-13093
▁wasm	-13094
▁Apply	-13095
artifact	-13096
▁applies	-13097
LastError	-13098
information	-13099
assertRaises	-13100
fv	-13101
्ह	-13102
(&(	-13103
Ski	-13104
cte	-13105
▁"#	-13106
▁GCP	-13107
▁Mock	-13108
Dbdict	-13109
▁estab	-13110
▁legacy	-13111
manifest	-13112
>{	-13113
Cap	-13114
OPED	-13115
▁DCH	-13116
▁asm	-13117
▁DMEC	-13118
▁vari	-13119
▁sends	-13120
FFFFFFF	-13121
▁TARGET	-13122
DESCRIBE	-13123
▁belongs	-13124
▁Requires	-13125
▁remember	-13126
▁combination	-13127
MessageOptions	-13128
▁LWLockAcquire	-13129
oom	-13130
▁ho	-13131
▁"\"	-13132
▁$$;	-13133
▁mix	-13134
Inline	-13135
annerT	-13136
objPtr	-13137
▁plans	-13138
Details	-13139
dirname	-13140
▁Invoke	-13141
▁Relids	-13142
▁plperl	-13143
describe	-13144
▁formats	-13145
INTEL	-13146
▁inet	-13147
ensive	-13148
▁managed	-13149
Conversion	-13150
PrimaryKey	-13151
▁invariant	-13152
▁workaround	-13153
Are	-13154
▁Flag	-13155
gevent	-13156
TRAILING	-13157
econtext	-13158
INVARIANT	-13159
,*/	-13160
tgt	-13161
xdt	-13162
▁RI	-13163
HOLD	-13164
QUIC	-13165
phab	-13166
▁MGM	-13167
▁Rhs	-13168
EXECUTE	-13169
▁immutable	-13170
▁reporting	-13171
":"	-13172
ASN	-13173
MTP	-13174
ELLI	-13175
GIST	-13176
MAIN	-13177
▁Clo	-13178
sively	-13179
▁Pixel	-13180
▁cmake	-13181
limited	-13182
▁Unique	-13183
▁stderr	-13184
fallback	-13185
▁generates	-13186
UNSUPPORTED	-13187
Wa	-13188
IDX	-13189
WInfo	-13190
▁Link	-13191
Behind	-13192
CONTROL	-13193
GUARDED	-13194
PageGet	-13195
multiple	-13196
▁disconnect	-13197
Dist	-13198
aset	-13199
▁odd	-13200
pList	-13201
▁FSEv	-13202
UTDOWN	-13203
XXHASH	-13204
algebra	-13205
erarchy	-13206
▁Values	-13207
Defaults	-13208
▁DISTINCT	-13209
▁indirect	-13210
▁whatever	-13211
/>	-13212
ал	-13213
▁'#	-13214
▁Top	-13215
hosts	-13216
▁beta	-13217
▁seem	-13218
narrow	-13219
▁Signed	-13220
structure	-13221
TypeHandler	-13222
\<	-13223
ми	-13224
wave	-13225
MySQL	-13226
indexed	-13227
▁MyJapi	-13228
▁combine	-13229
singleton	-13230
IDENTIFIER	-13231
Initialize	-13232
validation	-13233
▁SchemaTrans	-13234
DOCUMENTATION	-13235
Dim	-13236
rend	-13237
▁TID	-13238
ToNode	-13239
endptr	-13240
phabet	-13241
FORWARD	-13242
emitter	-13243
▁kvstore	-13244
▁convenience	-13245
'",	-13246
EORT	-13247
czos	-13248
srch	-13249
specs	-13250
Tracer	-13251
▁Calls	-13252
▁pPage	-13253
servers	-13254
▁literals	-13255
▁instanceof	-13256
WYU	-13257
ctic	-13258
▁***	-13259
ngtcp	-13260
PASSWORD	-13261
▁econtext	-13262
GOO	-13263
Vis	-13264
'));	-13265
peek	-13266
▁ell	-13267
▁sdk	-13268
SUBSC	-13269
▁>();	-13270
...>::	-13271
bigint	-13272
ENCRYPT	-13273
HashMap	-13274
connssl	-13275
▁preceding	-13276
Mgm	-13277
});	-13278
▁dn	-13279
▁vs	-13280
▁avg	-13281
▁prt	-13282
▁Origin	-13283
buffered	-13284
estimate	-13285
wrappers	-13286
AcquireCtx	-13287
▁TRANSACTION	-13288
)|	-13289
ECH	-13290
icl	-13291
lru	-13292
▁IWYU	-13293
▁relo	-13294
COMPLE	-13295
trieve	-13296
Rollback	-13297
fallthrough	-13298
▁subscription	-13299
▁lc	-13300
prod	-13301
▁Meta	-13302
PGconn	-13303
▁Maybe	-13304
▁Title	-13305
ustomer	-13306
▁ENGINE	-13307
▁Geodan	-13308
▁decide	-13309
▁exceeds	-13310
LogRecord	-13311
MultiXact	-13312
▁RangeTbl	-13313
▁regardless	-13314
aq	-13315
xfc	-13316
pcxt	-13317
Strings	-13318
Document	-13319
▁closing	-13320
▁emplace	-13321
▁sources	-13322
SIGNATURE	-13323
Algorithms	-13324
ardinality	-13325
mysqlrouter	-13326
▁encountered	-13327
▁Modifications	-13328
cq	-13329
DWA	-13330
▁sj	-13331
ASCA	-13332
Locks	-13333
CIPHER	-13334
▁touch	-13335
▁trust	-13336
COUNTER	-13337
STATIST	-13338
▁Device	-13339
▁subset	-13340
activity	-13341
▁critical	-13342
kt	-13343
VID	-13344
sid	-13345
▁%"	-13346
▁];	-13347
▁gr	-13348
MINOR	-13349
ashed	-13350
latin	-13351
prune	-13352
▁bitD	-13353
ODEINT	-13354
Sfixed	-13355
otonic	-13356
Receive	-13357
_()	-13358
]=='	-13359
▁Car	-13360
▁Win	-13361
Place	-13362
Using	-13363
▁SHOW	-13364
ASSUME	-13365
Success	-13366
mallctl	-13367
transid	-13368
▁BUFFER	-13369
Boundary	-13370
optimizer	-13371
▁determin	-13372
▁variants	-13373
▁Formatted	-13374
▁responses	-13375
▁ExponentType	-13376
>((	-13377
setTo	-13378
▁Span	-13379
▁flow	-13380
▁mbed	-13381
▁ltree	-13382
▁broken	-13383
▁pushed	-13384
▁Boolean	-13385
▁Consider	-13386
OPERATIONS	-13387
▁tuplesort	-13388
LB	-13389
▁"*	-13390
Sint	-13391
subs	-13392
▁iDb	-13393
NOTICE	-13394
▁activ	-13395
ERASURE	-13396
▁thrjam	-13397
recision	-13398
Endpoints	-13399
▁presence	-13400
filesystem	-13401
COMPRESSION	-13402
▁continuation	-13403
▁PromiseResult	-13404
CopyInputStream	-13405
Tcl	-13406
▁*(*	-13407
▁fmd	-13408
▁ping	-13409
Locked	-13410
Public	-13411
defname	-13412
fschema	-13413
▁moment	-13414
▁strchr	-13415
inserter	-13416
▁converts	-13417
GENERATING	-13418
NestedEnum	-13419
mx	-13420
pw	-13421
PLO	-13422
zDb	-13423
▁NB	-13424
UNDO	-13425
codes	-13426
rowid	-13427
frozen	-13428
▁comes	-13429
▁tries	-13430
▁SYSTEM	-13431
inations	-13432
▁Catalog	-13433
▁Primary	-13434
rectangle	-13435
▁clusterManager	-13436
NZ	-13437
,*/'	-13438
SInt	-13439
STDC	-13440
ntlm	-13441
▁ren	-13442
',/*!	-13443
FRAME	-13444
REFER	-13445
ulian	-13446
▁cent	-13447
▁suite	-13448
▁ECPGst	-13449
▁labels	-13450
StatusOK	-13451
Handshake	-13452
▁Disposer	-13453
▁Algorithm	-13454
▁Collection	-13455
টি	-13456
...,	-13457
BIMAP	-13458
SUITE	-13459
regon	-13460
bitset	-13461
▁Double	-13462
▁propag	-13463
ergeometric	-13464
▁calculated	-13465
adv	-13466
▁ql	-13467
stem	-13468
▁Pol	-13469
▁Sig	-13470
socks	-13471
userp	-13472
TabReq	-13473
calloc	-13474
commun	-13475
▁ABORT	-13476
consume	-13477
▁Compar	-13478
▁listed	-13479
CONTINUEB	-13480
Supported	-13481
▁subtract	-13482
partitions	-13483
▁HeapTupleHeader	-13484
▁'!	-13485
INGS	-13486
▁oct	-13487
blank	-13488
fence	-13489
▁Rout	-13490
▁sear	-13491
Period	-13492
▁RANGE	-13493
▁gives	-13494
▁pager	-13495
MANAGER	-13496
attname	-13497
strncmp	-13498
▁Oregon	-13499
▁choice	-13500
▁roleid	-13501
▁shrink	-13502
▁monitor	-13503
tot	-13504
uml	-13505
▁`*	-13506
ROLL	-13507
TRIE	-13508
cctx	-13509
▁THD	-13510
▁amb	-13511
TIMER	-13512
iases	-13513
vable	-13514
▁quiet	-13515
sakilac	-13516
▁places	-13517
NoCommit	-13518
▁expired	-13519
▁affected	-13520
dimensions	-13521
sakilacustomer	-13522
oz	-13523
++",	-13524
RBAC	-13525
▁XID	-13526
▁Otlp	-13527
▁invol	-13528
▁JNIEnv	-13529
▁MATCHED	-13530
ScanFilter	-13531
exceptions	-13532
▁FINALIZER	-13533
Compression	-13534
▁invalidate	-13535
nr	-13536
PREP	-13537
Redo	-13538
▁Acc	-13539
▁Dep	-13540
Handl	-13541
NdbOut	-13542
▁GENER	-13543
▁Fragment	-13544
INTERRUPTS	-13545
▁FsOpenReq	-13546
nh	-13547
PFR	-13548
star	-13549
tegr	-13550
regexp	-13551
vention	-13552
▁DTable	-13553
circular	-13554
undament	-13555
cstdfloat	-13556
Subchannel	-13557
▁DynamicBuffer	-13558
▁fire	-13559
▁rate	-13560
listen	-13561
stdint	-13562
▁Bytes	-13563
▁Recur	-13564
wstring	-13565
▁bottom	-13566
ALLTARGETS	-13567
▁redundant	-13568
ия	-13569
▁ei	-13570
ISTR	-13571
zBuf	-13572
▁Both	-13573
.")));	-13574
BINLOG	-13575
Python	-13576
square	-13577
▁granted	-13578
▁recurse	-13579
Algorithm	-13580
▁succeeded	-13581
▁potentially	-13582
xcf	-13583
slab	-13584
PGSQL	-13585
abbre	-13586
SCOPED	-13587
▁Flush	-13588
SOURCES	-13589
XXXXXXXX	-13590
▁expects	-13591
rapidjson	-13592
nN	-13593
bos	-13594
irr	-13595
into	-13596
▁SAN	-13597
▁JTIE	-13598
routing	-13599
▁HANDLE	-13600
mcontext	-13601
▁Similar	-13602
▁targets	-13603
FORMATION	-13604
▁severity	-13605
▁fa	-13606
MPTY	-13607
PPRO	-13608
bash	-13609
▁her	-13610
▁lot	-13611
APSHO	-13612
black	-13613
elems	-13614
▁Bits	-13615
▁room	-13616
oldest	-13617
▁Clone	-13618
▁MyProc	-13619
▁NoLock	-13620
/",	-13621
abi	-13622
eral	-13623
erti	-13624
▁smb	-13625
secut	-13626
▁mime	-13627
iliary	-13628
addrinfo	-13629
▁verbose	-13630
▁practice	-13631
PQExpBuffer	-13632
CallCredentials	-13633
PX	-13634
xs	-13635
csv	-13636
Keep	-13637
objv	-13638
arest	-13639
▁ABOVE	-13640
▁Every	-13641
Defined	-13642
fuzzing	-13643
scaling	-13644
▁ECPGdo	-13645
perfschema	-13646
Subscription	-13647
NumberFormatter	-13648
ол	-13649
)';	-13650
Two	-13651
utz	-13652
▁UCPT	-13653
bundle	-13654
▁David	-13655
logfile	-13656
▁Active	-13657
▁TupleT	-13658
▁begins	-13659
AllNodes	-13660
Extended	-13661
OPTIONAL	-13662
abstract	-13663
▁Execution	-13664
▁optimized	-13665
▁Assignment	-13666
su	-13667
How	-13668
ccup	-13669
▁"__	-13670
▁nth	-13671
RIBER	-13672
olume	-13673
▁ftpc	-13674
olfSSL	-13675
▁shard	-13676
▁timed	-13677
▁neither	-13678
background	-13679
▁translator	-13680
▁destruction	-13681
▁Operationrec	-13682
GG	-13683
▁What	-13684
ASCADE	-13685
attach	-13686
Encoder	-13687
STARTED	-13688
newline	-13689
backward	-13690
direction	-13691
helloworld	-13692
DoubleMetric	-13693
FUN	-13694
▁(\	-13695
EOIT	-13696
many	-13697
▁Bug	-13698
APPLE	-13699
seize	-13700
Endian	-13701
Finish	-13702
OverPtr	-13703
RUNTIME	-13704
▁Always	-13705
▁frames	-13706
▁combined	-13707
▁FileDescriptor	-13708
xCD	-13709
ctxt	-13710
ERRNO	-13711
GREEK	-13712
▁shut	-13713
TRANSI	-13714
▁WRITE	-13715
▁dberr	-13716
escaped	-13717
▁IoExecutor	-13718
▁logPartPtrP	-13719
EditionDefault	-13720
OBJ	-13721
VOC	-13722
tor	-13723
▁ht	-13724
WEEK	-13725
▁SEP	-13726
OutOf	-13727
SECUR	-13728
leave	-13729
paren	-13730
▁DATE	-13731
▁xmin	-13732
Author	-13733
display	-13734
SECURITY	-13735
AttrNumber	-13736
DefBuilder	-13737
▁inserting	-13738
oG	-13739
ALF	-13740
GON	-13741
HOT	-13742
▁[&	-13743
ecpg	-13744
▁Fran	-13745
binder	-13746
offnum	-13747
orient	-13748
Ordered	-13749
ENDPOINT	-13750
argtypes	-13751
▁jsondec	-13752
▁examples	-13753
annotation	-13754
encryption	-13755
▁contiguous	-13756
▁consistency	-13757
BK	-13758
Cre	-13759
aga	-13760
got	-13761
pen	-13762
▁Clock	-13763
FileName	-13764
tsvector	-13765
▁Control	-13766
▁transfers	-13767
NestedMessage	-13768
Ma	-13769
(${	-13770
LIT	-13771
▁[](	-13772
SEPAR	-13773
shash	-13774
▁idea	-13775
▁fatal	-13776
olyglot	-13777
▁avoids	-13778
Collator	-13779
logevent	-13780
cartesian	-13781
Constructor	-13782
("-	-13783
ifo	-13784
▁ep	-13785
maven	-13786
▁Left	-13787
▁MODULE	-13788
▁assumes	-13789
Filegroup	-13790
_%	-13791
ANDC	-13792
▁Keep	-13793
HANGUL	-13794
TERMIN	-13795
▁nargs	-13796
▁TestMap	-13797
▁Relative	-13798
▁variadic	-13799
▁filesystem	-13800
▁BlockReference	-13801
beh	-13802
brah	-13803
haps	-13804
uter	-13805
xxxx	-13806
▁gil	-13807
EXPER	-13808
ROUTER	-13809
IALIZED	-13810
PLpgSQL	-13811
calling	-13812
mployee	-13813
▁Execute	-13814
▁tokenizer	-13815
Ack	-13816
▁br	-13817
Otel	-13818
▁Xds	-13819
▁BOLD	-13820
ISNULL	-13821
dofile	-13822
warded	-13823
INDICATOR	-13824
▁adjacency	-13825
▁specifying	-13826
▁substitute	-13827
EEE	-13828
▁equ	-13829
arith	-13830
ledge	-13831
FUTURE	-13832
▁ratio	-13833
▁utils	-13834
formats	-13835
▁Multip	-13836
▁hasher	-13837
jections	-13838
▁fasthttp	-13839
EXPERIMENT	-13840
destructor	-13841
▁regTabPtr	-13842
=\\	-13843
▁LF	-13844
DISK	-13845
bulk	-13846
▁bulk	-13847
APSHOT	-13848
merged	-13849
▁Trees	-13850
ICATION	-13851
▁docker	-13852
LockMode	-13853
Nodegroup	-13854
recursion	-13855
▁propagate	-13856
GetMutableArray	-13857
[];	-13858
asc	-13859
ORIZ	-13860
UMNS	-13861
jint	-13862
john	-13863
▁Kar	-13864
ICATE	-13865
▁*_*/	-13866
▁Accept	-13867
Weighted	-13868
backends	-13869
▁inclusive	-13870
MethodOptions	-13871
▁implementing	-13872
<_,	-13873
=",	-13874
NTL	-13875
iHb	-13876
YPTO	-13877
▁svc	-13878
cross	-13879
pBiDi	-13880
pzErr	-13881
▁FLAG	-13882
abling	-13883
kMetricK	-13884
▁covered	-13885
▁ATTRIBUTE	-13886
CommonTlsContext	-13887
ार	-13888
ADE	-13889
tWY	-13890
adow	-13891
minor	-13892
▁Abrah	-13893
▁Avoid	-13894
▁think	-13895
machine	-13896
▁EXAMPLE	-13897
▁allowing	-13898
▁manually	-13899
▁semantic	-13900
▁rectangle	-13901
tWYp	-13902
▁**)	-13903
▁CRC	-13904
▁Tab	-13905
▁mcv	-13906
tomic	-13907
▁CONT	-13908
Printf	-13909
▁ENABLE	-13910
Revision	-13911
tokenizer	-13912
▁Abrahams	-13913
▁embedded	-13914
▁estimated	-13915
ResizeArray	-13916
prs	-13917
▁rl	-13918
▁psp	-13919
Coded	-13920
flaky	-13921
decess	-13922
indent	-13923
readLE	-13924
▁Total	-13925
▁pgaio	-13926
Stopped	-13927
foreach	-13928
▁logged	-13929
▁logmsg	-13930
aggstate	-13931
Unsupported	-13932
subiterator	-13933
▁compilation	-13934
▁constructors	-13935
Sdk	-13936
▁TZ	-13937
jump	-13938
▁rbu	-13939
▁ldap	-13940
../../	-13941
middle	-13942
ossibly	-13943
interrup	-13944
getLength	-13945
▁download	-13946
▁Parameter	-13947
=-	-13948
▁&>	-13949
Recur	-13950
UTILS	-13951
grant	-13952
ortun	-13953
▁UNDO	-13954
▁para	-13955
▁prog	-13956
ercase	-13957
manent	-13958
rtable	-13959
▁ARRAY	-13960
▁eType	-13961
fragPtr	-13962
▁latency	-13963
cancelled	-13964
▁jamDebug	-13965
▁scenario	-13966
INITIALIZER	-13967
____________	-13968
oa	-13969
STL	-13970
__((	-13971
tadd	-13972
MINIT	-13973
▁near	-13974
labels	-13975
▁Force	-13976
▁ifdef	-13977
upstream	-13978
PlanState	-13979
expressions	-13980
▁synchronous	-13981
==============	-13982
Gcs	-13983
csp	-13984
▁lt	-13985
jobs	-13986
▁pad	-13987
TOOLS	-13988
lexer	-13989
shrink	-13990
▁Slice	-13991
fragments	-13992
sourceforge	-13993
▁containers	-13994
▁targetlist	-13995
▁necessarily	-13996
INEL	-13997
▁des	-13998
Blocks	-13999
▁EMPTY	-14000
indices	-14001
▁Scalar	-14002
BufferSize	-14003
▁visibility	-14004
'{	-14005
mv	-14006
ELG	-14007
Hex	-14008
Peek	-14009
▁hence	-14010
closing	-14011
retries	-14012
▁memcmp	-14013
▁connssl	-14014
▁inflate	-14015
configure	-14016
▁intervals	-14017
implemented	-14018
_"	-14019
spc	-14020
▁Pq	-14021
PRIV	-14022
ells	-14023
▁URI	-14024
gamma	-14025
OfWeek	-14026
▁tensor	-14027
WIRETYPE	-14028
▁trivial	-14029
▁adjacent	-14030
▁resolver	-14031
▁updating	-14032
▁capabilities	-14033
gz	-14034
ACY	-14035
PSK	-14036
SEL	-14037
▁!!	-14038
▁Two	-14039
solete	-14040
▁Appro	-14041
▁BEFORE	-14042
▁strdup	-14043
Compress	-14044
warnings	-14045
▁Matcher	-14046
▁VERSION	-14047
▁UNITTEST	-14048
timestamptz	-14049
kan	-14050
▁dy	-14051
ustr	-14052
LINUX	-14053
▁strn	-14054
Ignore	-14055
ndigits	-14056
▁suppress	-14057
▁encryption	-14058
▁geographic	-14059
CAPE	-14060
prob	-14061
rupt	-14062
CLOCK	-14063
ESCAPE	-14064
utorial	-14065
▁GETNDB	-14066
▁objPtr	-14067
checking	-14068
▁barrier	-14069
▁Snapshot	-14070
uninterpreted	-14071
iov	-14072
Prop	-14073
Wide	-14074
▁RHS	-14075
▁ben	-14076
isnan	-14077
REPORT	-14078
▁Fiber	-14079
▁twice	-14080
setField	-14081
▁dictEntry	-14082
▁complexity	-14083
▁DictTabInfo	-14084
vv	-14085
MAL	-14086
macs	-14087
isTrue	-14088
▁stdin	-14089
PRODUCT	-14090
OrBuilder	-14091
▁yourself	-14092
▁retrieved	-14093
MutableDataPtr	-14094
Like	-14095
alty	-14096
noop	-14097
propa	-14098
▁patch	-14099
inverse	-14100
▁dynbuf	-14101
▁placed	-14102
secutive	-14103
▁tablePtr	-14104
▁evaluated	-14105
▁IndexTuple	-14106
CvG	-14107
mix	-14108
oGp	-14109
ucw	-14110
SNfm	-14111
memb	-14112
CvGym	-14113
orded	-14114
Closed	-14115
WaSNfm	-14116
portal	-14117
▁Frame	-14118
inciple	-14119
locktag	-14120
recurse	-14121
▁chance	-14122
readable	-14123
▁Defines	-14124
▁bitwise	-14125
EqualQuery	-14126
▁expansion	-14127
WaSNfmCvGym	-14128
▁logPartPtr	-14129
aJ	-14130
MED	-14131
▁say	-14132
limbs	-14133
pLeft	-14134
scape	-14135
▁vers	-14136
iveness	-14137
Decoding	-14138
provided	-14139
▁theData	-14140
NdbRecord	-14141
▁exporter	-14142
▁mappings	-14143
Dependency	-14144
▁ArrayType	-14145
GetOwningArena	-14146
▁SimulatedBlock	-14147
Eps	-14148
REDO	-14149
lash	-14150
oned	-14151
▁xpl	-14152
imaps	-14153
▁sense	-14154
▁unset	-14155
strconv	-14156
▁TABLES	-14157
Received	-14158
▁Charset	-14159
▁cleared	-14160
Immutable	-14161
MINITABLE	-14162
▁interfaces	-14163
))->	-14164
verted	-14165
▁Peter	-14166
getField	-14167
stateful	-14168
SPECIALIZATION	-14169
ле	-14170
LEAN	-14171
PLFD	-14172
TICK	-14173
▁ASN	-14174
adopt	-14175
cares	-14176
▁SEND	-14177
olated	-14178
ximate	-14179
▁hooks	-14180
Extractor	-14181
Transform	-14182
changeset	-14183
▁postgres	-14184
▁primitive	-14185
=_	-14186
Sc	-14187
>&&	-14188
BSy	-14189
ZIP	-14190
dpV	-14191
xQC	-14192
▁cm	-14193
hand	-14194
pVal	-14195
▁uni	-14196
PLFDn	-14197
xQCxu	-14198
oneofs	-14199
pgstat	-14200
▁HTTPS	-14201
consumed	-14202
dpVxQCxu	-14203
▁filters	-14204
▁schedule	-14205
ForAllocation	-14206
▁assertEquals	-14207
▁Bidirectional	-14208
VFS	-14209
্যা	-14210
▁PA	-14211
Pref	-14212
▁dif	-14213
inite	-14214
KeyType	-14215
▁Expect	-14216
PLFDnELG	-14217
directed	-14218
envelope	-14219
▁proceed	-14220
CallReply	-14221
Directory	-14222
dpVxQCxuD	-14223
▁infinity	-14224
▁UnsafeUtil	-14225
UnittestProto	-14226
ডি	-14227
Cast	-14228
▁":"	-14229
Throw	-14230
▁cryp	-14231
▁prov	-14232
EXISTS	-14233
modify	-14234
▁UDate	-14235
overlay	-14236
▁epsilon	-14237
▁comparing	-14238
▁coordinates	-14239
.")	-14240
HUF	-14241
OLF	-14242
aes	-14243
▁El	-14244
▁YES	-14245
▁dbl	-14246
▁loss	-14247
EPOINT	-14248
reduce	-14249
utions	-14250
▁joins	-14251
******/	-14252
recover	-14253
▁nothrow	-14254
collector	-14255
▁CharType	-14256
▁deadlock	-14257
▁selector	-14258
EXPRESSION	-14259
transporter	-14260
ja	-14261
'',	-14262
BWY	-14263
▁VAL	-14264
▁pgp	-14265
VIDER	-14266
▁REDO	-14267
▁okay	-14268
Missing	-14269
Replicas	-14270
gradable	-14271
indirect	-14272
▁Kohlhoff	-14273
buildtests	-14274
Fs	-14275
Hi	-14276
Mgr	-14277
\"%	-14278
nul	-14279
Orig	-14280
deli	-14281
▁Raw	-14282
▁_("	-14283
mlink	-14284
terior	-14285
within	-14286
▁trail	-14287
getSize	-14288
▁Acquire	-14289
Listeners	-14290
▁Category	-14291
Implemented	-14292
)<	-14293
TL	-14294
dtl	-14295
▁[%	-14296
▁RET	-14297
addrs	-14298
OLFSSL	-14299
charAt	-14300
lineno	-14301
observ	-14302
▁quota	-14303
inserted	-14304
stringstream	-14305
▁BIN	-14306
ADMIN	-14307
PLOtl	-14308
dalloc	-14309
OtelSdk	-14310
▁queued	-14311
▁dictSize	-14312
▁relcache	-14313
Permission	-14314
▁speedtest	-14315
ializations	-14316
RepeatedPtrField	-14317
<!	-14318
<\\	-14319
▁Cmp	-14320
▁UDF	-14321
▁Even	-14322
//////	-14323
▁fsync	-14324
▁worst	-14325
ErrorIn	-14326
Workers	-14327
▁Socket	-14328
▁standby	-14329
Commentaries	-14330
trl	-14331
BORL	-14332
htup	-14333
▁LIG	-14334
Maybe	-14335
tdata	-14336
▁SYNO	-14337
▁Fixed	-14338
▁Plugin	-14339
▁PLPGSQL	-14340
▁continu	-14341
▁zmalloc	-14342
consistency	-14343
Cr	-14344
▁ल	-14345
SAN	-14346
Mock	-14347
\\\\	-14348
ship	-14349
Pixel	-14350
Under	-14351
oname	-14352
ports	-14353
xacts	-14354
yield	-14355
ItemId	-14356
▁Equal	-14357
joinsel	-14358
ustered	-14359
▁passes	-14360
TRACKING	-14361
▁samples	-14362
Detection	-14363
Validator	-14364
▁LIGATURE	-14365
▁deadline	-14366
Dead	-14367
Ring	-14368
libpq	-14369
stmts	-14370
▁Will	-14371
▁fput	-14372
aneous	-14373
dbname	-14374
tracer	-14375
▁NDEBUG	-14376
▁nodeid	-14377
▁relids	-14378
StateOrd	-14379
▁reports	-14380
▁timeline	-14381
geographic	-14382
▁NdbRestarter	-14383
▁RepeatedField	-14384
nz	-14385
ंग	-14386
aws	-14387
▁ci	-14388
ENDS	-14389
ftpc	-14390
strip	-14391
SQUARE	-14392
▁ARROW	-14393
Blocked	-14394
togroup	-14395
ulating	-14396
▁Adjust	-14397
Modified	-14398
STANDARD	-14399
consumer	-14400
▁Advance	-14401
▁removing	-14402
illisecond	-14403
▁cancelled	-14404
environment	-14405
▁Operations	-14406
▁projections	-14407
ZY	-14408
ulo	-14409
▁MM	-14410
lave	-14411
andIt	-14412
▁Eval	-14413
▁comma	-14414
ertiary	-14415
▁fragId	-14416
quicklist	-14417
▁initiate	-14418
rx	-14419
▁bs	-14420
▁GCS	-14421
▁WSA	-14422
Lists	-14423
Title	-14424
chris	-14425
OLATED	-14426
prefer	-14427
expires	-14428
▁chosen	-14429
positive	-14430
ALLOCATOR	-14431
▁cartesian	-14432
▁endpoints	-14433
programming	-14434
▁applications	-14435
hyp	-14436
▁nf	-14437
reme	-14438
uzzy	-14439
▁txn	-14440
▁uca	-14441
MAYBE	-14442
Until	-14443
ptime	-14444
▁luaL	-14445
▁perm	-14446
mltrng	-14447
quiring	-14448
andidates	-14449
▁pipeline	-14450
deserializer	-14451
dw	-14452
▁ए	-14453
RDB	-14454
xED	-14455
RTSP	-14456
motion	-14457
Beijing	-14458
PROGRAM	-14459
advanced	-14460
▁average	-14461
▁Endpoint	-14462
▁setError	-14463
▁timezone	-14464
▁uninitialized	-14465
▁Body	-14466
▁deep	-14467
▁ucol	-14468
borrow	-14469
ophase	-14470
radius	-14471
▁bazel	-14472
binding	-14473
osition	-14474
▁channelz	-14475
▁converting	-14476
ARK	-14477
ddl	-14478
pfr	-14479
COOK	-14480
Seed	-14481
Sent	-14482
elap	-14483
loss	-14484
▁STL	-14485
▁Tri	-14486
▁ack	-14487
BREAK	-14488
▁Bind	-14489
TEqual	-14490
constr	-14491
cstate	-14492
ORIZONT	-14493
▁easily	-14494
getIndex	-14495
▁portion	-14496
▁kohlhoff	-14497
▁manipulation	-14498
/-	-14499
CRC	-14500
▁FE	-14501
++];	-14502
...(	-14503
mous	-14504
zlib	-14505
▁(++	-14506
activ	-14507
▁shar	-14508
BUILTIN	-14509
▁Custom	-14510
channels	-14511
ORIZONTAL	-14512
STATEMENT	-14513
▁SYNOPSIS	-14514
▁CHARACTER	-14515
:"$	-14516
ietf	-14517
grees	-14518
reedy	-14519
ugment	-14520
PERSIST	-14521
▁OTABSL	-14522
▁stride	-14523
▁Destroy	-14524
▁channels	-14525
▁framework	-14526
MessageValue	-14527
INGW	-14528
▁tcp	-14529
Named	-14530
alancer	-14531
stitute	-14532
▁wakeup	-14533
alg	-14534
rio	-14535
▁AC	-14536
BODY	-14537
When	-14538
rono	-14539
▁Mon	-14540
▁pDb	-14541
▁{},	-14542
RECUR	-14543
▁CONFIG	-14544
SHUTDOWN	-14545
▁dependent	-14546
▁detection	-14547
▁sometimes	-14548
▁UnknownFieldSet	-14549
Po	-14550
pas	-14551
sdi	-14552
▁कर	-14553
("--	-14554
▁PEM	-14555
▁extents	-14556
▁Document	-14557
SSLVERSION	-14558
▁globalData	-14559
▁comparisons	-14560
NOW	-14561
Wrap	-14562
does	-14563
▁SRF	-14564
mpling	-14565
Seconds	-14566
elapsed	-14567
▁Failed	-14568
▁exceed	-14569
NotEqual	-14570
adaptive	-14571
▁IntType	-14572
StringObj	-14573
▁deleting	-14574
▁Component	-14575
connectivity	-14576
SF	-14577
:**	-14578
TXN	-14579
dbg	-14580
▁mib	-14581
()");	-14582
sqlda	-14583
▁FREE	-14584
▁pRet	-14585
Marker	-14586
▁Break	-14587
▁Space	-14588
scanner	-14589
▁defrag	-14590
Requests	-14591
delegate	-14592
starting	-14593
▁sockets	-14594
[%	-14595
FDB	-14596
aaa	-14597
▁bi	-14598
hmac	-14599
▁Lqh	-14600
▁tcl	-14601
PROVI	-14602
floor	-14603
Millis	-14604
Modify	-14605
▁socks	-14606
▁zeros	-14607
gnitude	-14608
greater	-14609
subquery	-14610
TokenType	-14611
▁singleton	-14612
assertFalse	-14613
▁communicator	-14614
____________//	-14615
▁StringInfoData	-14616
((-	-14617
nos	-14618
AUTHN	-14619
▁pMem	-14620
▁Image	-14621
▁Mysql	-14622
▁minimal	-14623
▁dstCapacity	-14624
lw	-14625
cla	-14626
▁US	-14627
▁gz	-14628
Libs	-14629
npos	-14630
semb	-14631
▁()(	-14632
▁BGL	-14633
xlrec	-14634
▁'*',	-14635
README	-14636
reeter	-14637
▁human	-14638
REPLACE	-14639
resources	-14640
▁CURLHELP	-14641
primitives	-14642
▁PUBLICATION	-14643
▁corresponds	-14644
RY	-14645
▁,(	-14646
fake	-14647
▁Old	-14648
▁jbv	-14649
▁про	-14650
apped	-14651
egacy	-14652
elist	-14653
▁rels	-14654
herits	-14655
iomgrs	-14656
▁UCHAR	-14657
SERVICES	-14658
conninfo	-14659
▁implies	-14660
▁stopped	-14661
▁unnecess	-14662
▁dimensions	-14663
ResourceOwner	-14664
▁DatumGetPointer	-14665
Lex	-14666
Too	-14667
XDR	-14668
▁df	-14669
▁rm	-14670
ders	-14671
utls	-14672
▁GCI	-14673
▁STD	-14674
▁web	-14675
▁LINK	-14676
▁pWal	-14677
queued	-14678
▁routing	-14679
▁receives	-14680
▁CharString	-14681
▁unitMetricK	-14682
▁descrMetricK	-14683
Pop	-14684
don	-14685
htt	-14686
huge	-14687
▁Lhs	-14688
▁tle	-14689
▁Dele	-14690
AUTHENT	-14691
▁circle	-14692
interior	-14693
▁Beijing	-14694
▁structs	-14695
▁Expected	-14696
UConverter	-14697
▁RuleBased	-14698
]}	-14699
DEV	-14700
Lvl	-14701
Xian	-14702
▁ENO	-14703
▁gcp	-14704
robin	-14705
▁NTLM	-14706
▁wave	-14707
▁TIMES	-14708
lerance	-14709
▁nitems	-14710
▁Implements	-14711
▁identified	-14712
dm	-14713
iB	-14714
arn	-14715
cft	-14716
▁(@	-14717
▁([	-14718
▁nh	-14719
UNREACH	-14720
▁inlined	-14721
lx	-14722
EVT	-14723
leak	-14724
then	-14725
▁Est	-14726
ETIME	-14727
rable	-14728
scall	-14729
▁'-',	-14730
SFixed	-14731
allenge	-14732
▁latter	-14733
▁joinrel	-14734
regression	-14735
▁spherical	-14736
BreakIterator	-14737
Ix	-14738
ENV	-14739
dtor	-14740
▁ICL	-14741
▁icl	-14742
OLLOW	-14743
▁mall	-14744
BITMAP	-14745
orphan	-14746
▁piece	-14747
▁STATUS	-14748
▁quoted	-14749
▁opening	-14750
CodePoint	-14751
▁REGISTER	-14752
efficients	-14753
DomainField	-14754
▁Arithmetic	-14755
AVAILABILITY	-14756
EnumValueOptions	-14757
Az	-14758
uge	-14759
)'::	-14760
GING	-14761
Xmin	-14762
cstr	-14763
msgs	-14764
▁Host	-14765
uintmax	-14766
▁NdbApi	-14767
SEPARATOR	-14768
▁defining	-14769
Background	-14770
collations	-14771
jt	-14772
SHM	-14773
▁pf	-14774
REAL	-14775
▁VERT	-14776
BINING	-14777
reload	-14778
▁sdslen	-14779
Quantity	-14780
ArrayType	-14781
trivially	-14782
WithContext	-14783
errorMessage	-14784
▁intermediate	-14785
Sz	-14786
[:	-14787
ва	-14788
axis	-14789
▁Ext	-14790
▁FIX	-14791
scans	-14792
▁cour	-14793
▁pgno	-14794
ITERATE	-14795
SPECIAL	-14796
physical	-14797
▁NameStr	-14798
▁COMPONENT	-14799
▁persistent	-14800
insertErrorIn	-14801
▁subtransaction	-14802
WT	-14803
<?>	-14804
oct	-14805
lare	-14806
rune	-14807
manip	-14808
rings	-14809
▁Blob	-14810
------+	-14811
Objects	-14812
Outlier	-14813
▁INCLUDE	-14814
SetResult	-14815
▁distingu	-14816
▁generating	-14817
▁Information	-14818
llegalArgument	-14819
xm	-14820
hot	-14821
▁DOT	-14822
▁Tup	-14823
▁zDb	-14824
PRINTF	-14825
▁Tests	-14826
licated	-14827
▁Cached	-14828
▁winapi	-14829
BORLANDC	-14830
▁algebra	-14831
▁contrib	-14832
▁posting	-14833
▁uniform	-14834
▁KATAKANA	-14835
Disconnect	-14836
Declaration	-14837
▁guarantees	-14838
▁incremental	-14839
DT	-14840
.__	-14841
SCH	-14842
lst	-14843
▁bu	-14844
RESET	-14845
umble	-14846
▁Gtid	-14847
▁Paul	-14848
▁fvar	-14849
DOMAIN	-14850
unistd	-14851
▁ZBUFF	-14852
▁utext	-14853
jobject	-14854
Callbacks	-14855
ScopedRoute	-14856
▁MessageLite	-14857
▁BufferGetPage	-14858
▁resultRelInfo	-14859
/(	-14860
▁WL	-14861
▁bl	-14862
SAVE	-14863
UTRIE	-14864
MISUSE	-14865
Notify	-14866
bosity	-14867
gather	-14868
UPBDEFS	-14869
▁resume	-14870
▁anymore	-14871
▁authent	-14872
▁automatic	-14873
RefCountedPtr	-14874
adj	-14875
bas	-14876
pad	-14877
xec	-14878
ETCH	-14879
cmds	-14880
even	-14881
▁ids	-14882
turns	-14883
▁ways	-14884
Indices	-14885
enumber	-14886
▁Nested	-14887
▁hpdata	-14888
Modifier	-14889
ncalling	-14890
▁implicitly	-14891
uninitialized	-14892
pf	-14893
>",	-14894
tar	-14895
▁tv	-14896
More	-14897
▁BKI	-14898
▁rem	-14899
trust	-14900
USICAL	-14901
▁cells	-14902
ListObj	-14903
classId	-14904
extents	-14905
journal	-14906
▁center	-14907
External	-14908
▁Factory	-14909
▁DD	-14910
ALTH	-14911
ETHI	-14912
OPIC	-14913
Slow	-14914
gent	-14915
FCNTL	-14916
negot	-14917
piece	-14918
▁flex	-14919
Running	-14920
chetype	-14921
▁Associ	-14922
▁letter	-14923
▁myself	-14924
ETHIOPIC	-14925
keywords	-14926
▁Polygon	-14927
ThanQuery	-14928
▁consumer	-14929
▁overwrite	-14930
WER	-14931
FORK	-14932
gene	-14933
▁ACC	-14934
▁tsi	-14935
SCHEM	-14936
Slots	-14937
▁ance	-14938
divide	-14939
DELETED	-14940
contain	-14941
▁CONCAT	-14942
▁behavi	-14943
CONCEPTS	-14944
modified	-14945
▁removes	-14946
GENERATOR	-14947
▁intercept	-14948
▁threading	-14949
▁eventually	-14950
El	-14951
CED	-14952
▁YY	-14953
▁tn	-14954
RECE	-14955
▁spg	-14956
Depth	-14957
STTOR	-14958
Super	-14959
ieces	-14960
vents	-14961
▁ossl	-14962
HOLDER	-14963
LEGACY	-14964
LISTEN	-14965
States	-14966
▁alive	-14967
encoder	-14968
isFalse	-14969
▁Validate	-14970
SourceState	-14971
Mc	-14972
\',	-14973
▁).	-14974
▁pItem	-14975
▁refers	-14976
▁streams	-14977
validator	-14978
JB	-14979
ны	-14980
यो	-14981
(\'	-14982
ung	-14983
via	-14984
▁"'	-14985
ELDS	-14986
Stub	-14987
▁fac	-14988
MINUS	-14989
stash	-14990
▁ahead	-14991
nonnull	-14992
handling	-14993
overhead	-14994
▁improve	-14995
▁ReleaseInfo	-14996
▁inheritance	-14997
NCY	-14998
]*/	-14999
SEEK	-15000
▁Cod	-15001
▁PGP	-15002
radix	-15003
▁race	-15004
linked	-15005
▁avail	-15006
▁BTEqual	-15007
schemaname	-15008
EnumOptions	-15009
▁MyOperation	-15010
)'	-15011
={	-15012
RR	-15013
MIC	-15014
▁ко	-15015
bust	-15016
stra	-15017
▁gmp	-15018
relate	-15019
▁cover	-15020
Startup	-15021
▁activity	-15022
▁synchronization	-15023
nio	-15024
FIDO	-15025
ECDSA	-15026
pData	-15027
▁fake	-15028
Defrag	-15029
abcdef	-15030
▁Dimov	-15031
viation	-15032
▁PGPROC	-15033
▁PERFORM	-15034
▁fragptr	-15035
operators	-15036
periments	-15037
PUNCTUATION	-15038
▁selectivity	-15039
CompletionToken	-15040
HP	-15041
gb	-15042
rain	-15043
{});	-15044
MINGW	-15045
StringTo	-15046
Truncate	-15047
▁LogFile	-15048
▁reactor	-15049
▁realloc	-15050
ContentType	-15051
▁Compression	-15052
AppendElement	-15053
▁NumberFormat	-15054
>'	-15055
)")	-15056
XDS	-15057
▁"@	-15058
iCol	-15059
sspi	-15060
▁GMP	-15061
GUARD	-15062
shape	-15063
▁Cost	-15064
▁Step	-15065
▁xcom	-15066
rained	-15067
Logging	-15068
▁MONITOR	-15069
▁mallctl	-15070
candidate	-15071
▁writable	-15072
Fmt	-15073
VEC	-15074
xBC	-15075
ITCH	-15076
▁प्र	-15077
KNOWN	-15078
dense	-15079
Execut	-15080
▁Align	-15081
FromObj	-15082
science	-15083
▁manage	-15084
▁moving	-15085
equality	-15086
▁Abstract	-15087
▁division	-15088
▁potential	-15089
jo	-15090
да	-15091
)";	-15092
XPR	-15093
tsi	-15094
▁'<	-15095
Cond	-15096
▁lost	-15097
▁smgr	-15098
TCLAPI	-15099
allocx	-15100
AndLess	-15101
leading	-15102
utation	-15103
NullValue	-15104
▁concaten	-15105
▁linitial	-15106
▁Benchmark	-15107
TargetState	-15108
▁expiration	-15109
??	-15110
Fix	-15111
SUR	-15112
mcv	-15113
cint	-15114
pong	-15115
ptrs	-15116
quat	-15117
raft	-15118
salt	-15119
▁pgs	-15120
IFIED	-15121
Suite	-15122
sharp	-15123
▁DEPS	-15124
▁Macro	-15125
▁shape	-15126
COMPLEX	-15127
▁compact	-15128
▁Position	-15129
▁refcount	-15130
university	-15131
aB	-15132
gy	-15133
/*/	-15134
=${	-15135
▁lb	-15136
olar	-15137
UTING	-15138
ssize	-15139
subid	-15140
waits	-15141
▁More	-15142
KEYREQ	-15143
EBAUTHN	-15144
encensus	-15145
preserve	-15146
▁flatten	-15147
▁varlena	-15148
invariant	-15149
▁Tablerec	-15150
FUNCTIONAL	-15151
▁allocating	-15152
▁duplicates	-15153
▁getOwnNodeId	-15154
ny	-15155
PUB	-15156
blem	-15157
LMBCS	-15158
punct	-15159
▁NDBD	-15160
▁iend	-15161
fInput	-15162
▁haven	-15163
ingular	-15164
▁offnum	-15165
andatory	-15166
decessor	-15167
▁Failure	-15168
awaitable	-15169
▁httptest	-15170
▁multiply	-15171
▁recorded	-15172
▁clientData	-15173
▁constructs	-15174
▁fractional	-15175
▁convertible	-15176
dee	-15177
FIND	-15178
capt	-15179
aming	-15180
▁BOOL	-15181
▁Grid	-15182
inputs	-15183
▁Setup	-15184
hashing	-15185
isation	-15186
▁reused	-15187
EXCHANGE	-15188
izations	-15189
junction	-15190
Invocable	-15191
▁Operator	-15192
▁concepts	-15193
▁replaces	-15194
▁succeeds	-15195
▁vertical	-15196
undamental	-15197
!"	-15198
aL	-15199
nu	-15200
део	-15201
FLEX	-15202
▁DIH	-15203
▁atoi	-15204
▁meet	-15205
footer	-15206
rustls	-15207
PROVIDER	-15208
ReadOnly	-15209
constexpr	-15210
▁CONFLICT	-15211
▁counters	-15212
EXTENSIONS	-15213
Standalone	-15214
NewStringObj	-15215
▁RestrictInfo	-15216
kin	-15217
▁(~	-15218
pArg	-15219
▁TRE	-15220
CPLUS	-15221
INVOC	-15222
arios	-15223
▁minor	-15224
▁Bucket	-15225
Identity	-15226
TableImpl	-15227
locations	-15228
▁callable	-15229
▁wildcard	-15230
▁Generator	-15231
OutlierDetection	-15232
;)	-15233
BGL	-15234
^^^^	-15235
SIZES	-15236
▁Core	-15237
▁USet	-15238
▁mgmd	-15239
MODIFI	-15240
lished	-15241
recptr	-15242
DECIMAL	-15243
Encoded	-15244
padding	-15245
▁Variant	-15246
▁Preprocessed	-15247
Instrumentation	-15248
ICL	-15249
BUSY	-15250
HIGH	-15251
▁/*[	-15252
BATCH	-15253
INCRE	-15254
▁Adds	-15255
HEALTH	-15256
docker	-15257
▁Types	-15258
builtins	-15259
RATELIMIT	-15260
FILESYSTEM	-15261
▁interrupt	-15262
constructed	-15263
storeColumn	-15264
▁dynamically	-15265
▁unsupported	-15266
Lazy	-15267
▁OOM	-15268
Codes	-15269
EXPAND	-15270
STRINGS	-15271
numbers	-15272
▁OPTIONS	-15273
▁enforce	-15274
▁DateTime	-15275
▁destruct	-15276
▁separated	-15277
▁determines	-15278
▁instructions	-15279
ри	-15280
▁ब	-15281
]!=	-15282
▁bo	-15283
▁jo	-15284
..."	-15285
Poly	-15286
RNDN	-15287
laea	-15288
wksp	-15289
RENCY	-15290
loops	-15291
▁fold	-15292
VACUUM	-15293
idence	-15294
orator	-15295
▁Entry	-15296
▁caref	-15297
▁Design	-15298
▁MALLOC	-15299
▁unpack	-15300
TupleSlot	-15301
miscadmin	-15302
▁partially	-15303
▁Instrument	-15304
▁transformation	-15305
NAN	-15306
elm	-15307
tli	-15308
LEAD	-15309
freq	-15310
▁Geo	-15311
IMAGE	-15312
▁lack	-15313
defrag	-15314
expired	-15315
pConfig	-15316
▁varint	-15317
▁CASCADE	-15318
HISTOGRAM	-15319
▁Christian	-15320
▁Transform	-15321
Description	-15322
▁computation	-15323
▁VertexIndexMap	-15324
AFF	-15325
spj	-15326
▁BUF	-15327
▁TPS	-15328
▁elf	-15329
▁accu	-15330
▁pOut	-15331
▁strto	-15332
▁decomp	-15333
▁bracket	-15334
IndexScan	-15335
Savepoint	-15336
▁regApiPtr	-15337
▁Fragrecord	-15338
▁Geographic	-15339
▁helloworld	-15340
▁unspecified	-15341
nm	-15342
ना	-15343
स्	-15344
DBE	-15345
NING	-15346
Trim	-15347
gzip	-15348
▁bbs	-15349
Parts	-15350
cedes	-15351
Posting	-15352
▁Sqlite	-15353
▁divide	-15354
▁freely	-15355
▁millis	-15356
Overflow	-15357
redirect	-15358
▁Visitor	-15359
▁selfptr	-15360
beginscan	-15361
handshake	-15362
▁polynomial	-15363
▁DESTINATION	-15364
▁responsibility	-15365
MOD	-15366
Sem	-15367
TRX	-15368
▁ode	-15369
Router	-15370
typlen	-15371
uggest	-15372
▁attno	-15373
onymous	-15374
▁Weight	-15375
SetValue	-15376
SCRIPTION	-15377
associated	-15378
aY	-15379
px	-15380
▁%.	-15381
▁PS	-15382
nary	-15383
trip	-15384
Tests	-15385
▁fctx	-15386
▁fname	-15387
▁rinfo	-15388
explain	-15389
▁ATOMIC	-15390
▁Steven	-15391
▁bother	-15392
▁slight	-15393
▁Pending	-15394
▁timeval	-15395
guidelines	-15396
▁bidirectional	-15397
MC	-15398
vmd	-15399
▁pd	-15400
TLSv	-15401
icip	-15402
<<<\\	-15403
[...]
